{
  "version": "1.0",
  "truncation": null,
  "padding": null,
  "added_tokens": [
    {
      "id": 0,
      "content": "[UNK]",
      "single_word": false,
      "lstrip": false,
      "rstrip": false,
      "normalized": false,
      "special": true
    },
    {
      "id": 1,
      "content": "[SOS]",
      "single_word": false,
      "lstrip": false,
      "rstrip": false,
      "normalized": false,
      "special": true
    },
    {
      "id": 2,
      "content": "[PAD]",
      "single_word": false,
      "lstrip": false,
      "rstrip": false,
      "normalized": false,
      "special": true
    },
    {
      "id": 3,
      "content": "[EOS]",
      "single_word": false,
      "lstrip": false,
      "rstrip": false,
      "normalized": false,
      "special": true
    }
  ],
  "normalizer": null,
  "pre_tokenizer": {
    "type": "Whitespace"
  },
  "post_processor": null,
  "decoder": null,
  "model": {
    "type": "BPE",
    "dropout": null,
    "unk_token": "[UNK]",
    "continuing_subword_prefix": "##",
    "end_of_word_suffix": null,
    "fuse_unk": false,
    "byte_fallback": false,
    "ignore_merges": false,
    "vocab": {
      "[UNK]": 0,
      "[SOS]": 1,
      "[PAD]": 2,
      "[EOS]": 3,
      "!": 4,
      "\"": 5,
      "#": 6,
      "$": 7,
      "%": 8,
      "&": 9,
      "'": 10,
      "(": 11,
      ")": 12,
      "*": 13,
      "+": 14,
      ",": 15,
      "-": 16,
      ".": 17,
      "/": 18,
      "0": 19,
      "1": 20,
      "2": 21,
      "3": 22,
      "4": 23,
      "5": 24,
      "6": 25,
      "7": 26,
      "8": 27,
      "9": 28,
      ":": 29,
      ";": 30,
      "=": 31,
      "?": 32,
      "@": 33,
      "A": 34,
      "B": 35,
      "C": 36,
      "D": 37,
      "E": 38,
      "F": 39,
      "G": 40,
      "H": 41,
      "I": 42,
      "J": 43,
      "K": 44,
      "L": 45,
      "M": 46,
      "N": 47,
      "O": 48,
      "P": 49,
      "Q": 50,
      "R": 51,
      "S": 52,
      "T": 53,
      "U": 54,
      "V": 55,
      "W": 56,
      "X": 57,
      "Y": 58,
      "Z": 59,
      "[": 60,
      "]": 61,
      "^": 62,
      "_": 63,
      "a": 64,
      "b": 65,
      "c": 66,
      "d": 67,
      "e": 68,
      "f": 69,
      "g": 70,
      "h": 71,
      "i": 72,
      "j": 73,
      "k": 74,
      "l": 75,
      "m": 76,
      "n": 77,
      "o": 78,
      "p": 79,
      "q": 80,
      "r": 81,
      "s": 82,
      "t": 83,
      "u": 84,
      "v": 85,
      "w": 86,
      "x": 87,
      "y": 88,
      "z": 89,
      "": 90,
      "": 91,
      "¡": 92,
      "£": 93,
      "²": 94,
      "º": 95,
      "Á": 96,
      "Å": 97,
      "Ç": 98,
      "É": 99,
      "à": 100,
      "á": 101,
      "â": 102,
      "ã": 103,
      "ä": 104,
      "ç": 105,
      "è": 106,
      "é": 107,
      "ê": 108,
      "ë": 109,
      "í": 110,
      "ï": 111,
      "ñ": 112,
      "ò": 113,
      "ó": 114,
      "ô": 115,
      "ö": 116,
      "ø": 117,
      "ù": 118,
      "ü": 119,
      "ā": 120,
      "ć": 121,
      "Č": 122,
      "ē": 123,
      "ě": 124,
      "ī": 125,
      "ū": 126,
      "ย": 127,
      "ร": 128,
      "อ": 129,
      "่": 130,
      "–": 131,
      "—": 132,
      "‘": 133,
      "’": 134,
      "“": 135,
      "”": 136,
      "…": 137,
      "€": 138,
      "♪": 139,
      "♫": 140,
      "你": 141,
      "葱": 142,
      "送": 143,
      "##2": 144,
      "##5": 145,
      "##o": 146,
      "##r": 147,
      "##t": 148,
      "##e": 149,
      "##n": 150,
      "##s": 151,
      "##p": 152,
      "##a": 153,
      "##d": 154,
      "##i": 155,
      "##x": 156,
      "##g": 157,
      "##h": 158,
      "##v": 159,
      "##c": 160,
      "##u": 161,
      "##w": 162,
      "##m": 163,
      "##l": 164,
      "##y": 165,
      "##3": 166,
      "##8": 167,
      "##b": 168,
      "##k": 169,
      "##H": 170,
      "##O": 171,
      "##T": 172,
      "##f": 173,
      "##q": 174,
      "##z": 175,
      "##9": 176,
      "##S": 177,
      "##B": 178,
      "##j": 179,
      "##C": 180,
      "##W": 181,
      "##L": 182,
      "##4": 183,
      "##D": 184,
      "##A": 185,
      "##P": 186,
      "##0": 187,
      "##7": 188,
      "##F": 189,
      "##é": 190,
      "##â": 191,
      "##I": 192,
      "##í": 193,
      "##M": 194,
      "##N": 195,
      "##X": 196,
      "##1": 197,
      "##R": 198,
      "##E": 199,
      "##K": 200,
      "##Z": 201,
      "##Q": 202,
      "##V": 203,
      "##G": 204,
      "##?": 205,
      "##\"": 206,
      "##”": 207,
      "##J": 208,
      "##.": 209,
      "##]": 210,
      "##!": 211,
      "##ñ": 212,
      "##U": 213,
      "##Y": 214,
      "##,": 215,
      "##6": 216,
      "##ó": 217,
      "##♫": 218,
      "##ô": 219,
      "##'": 220,
      "##è": 221,
      "##ã": 222,
      "##ê": 223,
      "##à": 224,
      "##你": 225,
      "##葱": 226,
      "##ē": 227,
      "##-": 228,
      "##;": 229,
      "##ø": 230,
      "##)": 231,
      "##ร": 232,
      "##่": 233,
      "##อ": 234,
      "##ย": 235,
      "##ā": 236,
      "##ū": 237,
      "##ī": 238,
      "##:": 239,
      "##@": 240,
      "##&": 241,
      "##á": 242,
      "##ö": 243,
      "###": 244,
      "##$": 245,
      "##ć": 246,
      "##ç": 247,
      "##ù": 248,
      "##ä": 249,
      "##_": 250,
      "##—": 251,
      "##ï": 252,
      "##ü": 253,
      "##+": 254,
      "##ë": 255,
      "##[": 256,
      "##ò": 257,
      "##ě": 258,
      "##“": 259,
      "##": 260,
      "##/": 261,
      "th": 262,
      "the": 263,
      "##er": 264,
      "##in": 265,
      "##at": 266,
      "##nd": 267,
      "##ou": 268,
      "##re": 269,
      "##ing": 270,
      "to": 271,
      "##on": 272,
      "##en": 273,
      "##es": 274,
      "##an": 275,
      "of": 276,
      "##or": 277,
      "##al": 278,
      "in": 279,
      "##ed": 280,
      "and": 281,
      "##is": 282,
      "##it": 283,
      "##ar": 284,
      "that": 285,
      "##om": 286,
      "##as": 287,
      "##ic": 288,
      "##le": 289,
      "you": 290,
      "wh": 291,
      "##ll": 292,
      "##ow": 293,
      "is": 294,
      "##ly": 295,
      "be": 296,
      "##ut": 297,
      "##ve": 298,
      "it": 299,
      "we": 300,
      "##ion": 301,
      "##se": 302,
      "re": 303,
      "##ot": 304,
      "##st": 305,
      "##et": 306,
      "##ent": 307,
      "ha": 308,
      "##ct": 309,
      "on": 310,
      "##ld": 311,
      "Th": 312,
      "##ay": 313,
      "And": 314,
      "this": 315,
      "##id": 316,
      "##ig": 317,
      "##ur": 318,
      "st": 319,
      "##ch": 320,
      "##ere": 321,
      "##ver": 322,
      "##ce": 323,
      "for": 324,
      "##op": 325,
      "##ke": 326,
      "was": 327,
      "##im": 328,
      "an": 329,
      "do": 330,
      "##ir": 331,
      "##am": 332,
      "are": 333,
      "##ro": 334,
      "##ith": 335,
      "li": 336,
      "##oo": 337,
      "##ally": 338,
      "##th": 339,
      "have": 340,
      "with": 341,
      "ab": 342,
      "they": 343,
      "se": 344,
      "##ad": 345,
      "can": 346,
      "--": 347,
      "##ter": 348,
      "##ol": 349,
      "as": 350,
      "mo": 351,
      "##ation": 352,
      "##out": 353,
      "##ht": 354,
      "go": 355,
      "what": 356,
      "So": 357,
      "com": 358,
      "##ear": 359,
      "wor": 360,
      "##ra": 361,
      "##ould": 362,
      "at": 363,
      "me": 364,
      "sh": 365,
      "about": 366,
      "##ill": 367,
      "so": 368,
      "not": 369,
      "##ant": 370,
      "ne": 371,
      "##ge": 372,
      "##il": 373,
      "##ul": 374,
      "The": 375,
      "##ust": 376,
      "all": 377,
      "##ers": 378,
      "##est": 379,
      "fr": 380,
      "ex": 381,
      "he": 382,
      "ch": 383,
      "som": 384,
      "##ight": 385,
      "or": 386,
      "de": 387,
      "there": 388,
      "my": 389,
      "We": 390,
      "pe": 391,
      "pro": 392,
      "##au": 393,
      "##um": 394,
      "##ople": 395,
      "It": 396,
      "con": 397,
      "like": 398,
      "##ck": 399,
      "##pp": 400,
      "one": 401,
      "##ate": 402,
      "##ure": 403,
      "people": 404,
      "##ies": 405,
      "##ess": 406,
      "##ity": 407,
      "##art": 408,
      "##ive": 409,
      "ma": 410,
      "from": 411,
      "kn": 412,
      "##if": 413,
      "##ble": 414,
      "##ist": 415,
      "##ind": 416,
      "bec": 417,
      "but": 418,
      "our": 419,
      "##ink": 420,
      "out": 421,
      "al": 422,
      "tr": 423,
      "us": 424,
      "te": 425,
      "##ery": 426,
      "##ect": 427,
      "know": 428,
      "##all": 429,
      "just": 430,
      "##ause": 431,
      "##ook": 432,
      "##un": 433,
      "thing": 434,
      "##rou": 435,
      "sp": 436,
      "them": 437,
      "##and": 438,
      "up": 439,
      "##os": 440,
      "see": 441,
      "But": 442,
      "##her": 443,
      "##us": 444,
      "##ie": 445,
      "these": 446,
      "very": 447,
      "if": 448,
      "##ort": 449,
      "think": 450,
      "who": 451,
      "get": 452,
      "pl": 453,
      "en": 454,
      "##ich": 455,
      "##ain": 456,
      "by": 457,
      "##el": 458,
      "going": 459,
      "##ci": 460,
      "year": 461,
      "act": 462,
      "some": 463,
      "when": 464,
      "int": 465,
      "##iv": 466,
      "##one": 467,
      "because": 468,
      "your": 469,
      "##em": 470,
      "##ap": 471,
      "had": 472,
      "more": 473,
      "Wh": 474,
      "##og": 475,
      "tim": 476,
      "im": 477,
      "##our": 478,
      "would": 479,
      "sa": 480,
      "##ame": 481,
      "ve": 482,
      "which": 483,
      "ever": 484,
      "##ine": 485,
      "look": 486,
      "were": 487,
      "##od": 488,
      "##gh": 489,
      "their": 490,
      "want": 491,
      "really": 492,
      "##ast": 493,
      "comp": 494,
      "##ually": 495,
      "how": 496,
      "##ment": 497,
      "su": 498,
      "work": 499,
      "##nt": 500,
      ".\"": 501,
      "##ood": 502,
      "##iz": 503,
      "##ack": 504,
      "##ous": 505,
      "##act": 506,
      "##reat": 507,
      "way": 508,
      "##are": 509,
      "##ose": 510,
      "You": 511,
      "##hing": 512,
      "##ence": 513,
      "le": 514,
      "time": 515,
      "here": 516,
      "world": 517,
      "##ab": 518,
      "This": 519,
      "##ore": 520,
      "ta": 521,
      "has": 522,
      "##ans": 523,
      "##ther": 524,
      "then": 525,
      "per": 526,
      "##ard": 527,
      "##ag": 528,
      "qu": 529,
      "##ace": 530,
      "##ong": 531,
      "every": 532,
      "##ide": 533,
      "don": 534,
      "exp": 535,
      "into": 536,
      "##fer": 537,
      "actually": 538,
      "say": 539,
      "will": 540,
      "man": 541,
      "could": 542,
      "ev": 543,
      "fe": 544,
      "##ions": 545,
      "##ild": 546,
      "pr": 547,
      "##res": 548,
      "##ud": 549,
      "things": 550,
      "where": 551,
      "##itt": 552,
      "##age": 553,
      "years": 554,
      "now": 555,
      "ag": 556,
      "other": 557,
      "did": 558,
      "##alk": 559,
      "Now": 560,
      "##00": 561,
      "##nder": 562,
      "somet": 563,
      "They": 564,
      "In": 565,
      "##ach": 566,
      "cl": 567,
      "##ical": 568,
      "any": 569,
      "been": 570,
      "no": 571,
      "make": 572,
      "happ": 573,
      "dif": 574,
      "tw": 575,
      "un": 576,
      "##ip": 577,
      "than": 578,
      "need": 579,
      "##ff": 580,
      "res": 581,
      "##so": 582,
      "said": 583,
      "start": 584,
      "part": 585,
      "##ue": 586,
      "right": 587,
      "over": 588,
      "##irst": 589,
      "co": 590,
      "mu": 591,
      "po": 592,
      "##ree": 593,
      "imp": 594,
      "bu": 595,
      "##ry": 596,
      "something": 597,
      "##own": 598,
      "dis": 599,
      "##ia": 600,
      "##ice": 601,
      "##ory": 602,
      "inter": 603,
      "##ome": 604,
      "##ite": 605,
      "back": 606,
      "two": 607,
      "##pt": 608,
      "##olog": 609,
      "##ob": 610,
      "##orm": 611,
      "call": 612,
      "ar": 613,
      "##round": 614,
      "much": 615,
      "got": 616,
      "##fe": 617,
      "##ount": 618,
      "kind": 619,
      "##ign": 620,
      "##ens": 621,
      "those": 622,
      "##ib": 623,
      "differ": 624,
      "first": 625,
      "chan": 626,
      "##ass": 627,
      "##ac": 628,
      "##ittle": 629,
      "##ater": 630,
      "##sel": 631,
      "##ound": 632,
      "little": 633,
      "##ea": 634,
      "also": 635,
      "new": 636,
      "lot": 637,
      "lo": 638,
      "##ep": 639,
      "That": 640,
      "cont": 641,
      "##red": 642,
      "##cent": 643,
      "##ult": 644,
      "##ple": 645,
      "id": 646,
      "ac": 647,
      "##qu": 648,
      "##way": 649,
      "talk": 650,
      "##ves": 651,
      "bet": 652,
      "most": 653,
      "des": 654,
      "ph": 655,
      "she": 656,
      "##king": 657,
      "##ving": 658,
      "only": 659,
      "under": 660,
      "##ody": 661,
      "##ber": 662,
      "##vel": 663,
      "##ru": 664,
      "life": 665,
      "##ated": 666,
      "##ec": 667,
      "##able": 668,
      "What": 669,
      "am": 670,
      "day": 671,
      "##ations": 672,
      "ad": 673,
      "his": 674,
      "##du": 675,
      "sy": 676,
      "##ght": 677,
      "even": 678,
      "hum": 679,
      "##ade": 680,
      "##ish": 681,
      "##ell": 682,
      "take": 683,
      "different": 684,
      "##ial": 685,
      "many": 686,
      "##rain": 687,
      "##ick": 688,
      "good": 689,
      "##ict": 690,
      "##other": 691,
      "bl": 692,
      "##rough": 693,
      "down": 694,
      "There": 695,
      "gr": 696,
      "does": 697,
      "real": 698,
      "her": 699,
      "around": 700,
      "through": 701,
      "##co": 702,
      "##ank": 703,
      "##ire": 704,
      "He": 705,
      "ll": 706,
      "##ase": 707,
      "##int": 708,
      "put": 709,
      "##ents": 710,
      "comm": 711,
      "##ms": 712,
      "being": 713,
      "pre": 714,
      "##urn": 715,
      "##ark": 716,
      "sc": 717,
      "show": 718,
      "##pl": 719,
      "use": 720,
      "tell": 721,
      "##cess": 722,
      "##ible": 723,
      "##form": 724,
      "##ress": 725,
      "##ors": 726,
      "##iver": 727,
      "happen": 728,
      "same": 729,
      "Well": 730,
      "thou": 731,
      "inc": 732,
      "##ph": 733,
      "fl": 734,
      "too": 735,
      "proble": 736,
      "##ether": 737,
      "try": 738,
      "em": 739,
      "##ance": 740,
      "##chn": 741,
      "##ary": 742,
      "##wn": 743,
      "fact": 744,
      "##ject": 745,
      "##ys": 746,
      "sm": 747,
      "come": 748,
      "ro": 749,
      "##xt": 750,
      "br": 751,
      "##lect": 752,
      "##stem": 753,
      "count": 754,
      "doing": 755,
      "If": 756,
      "##ful": 757,
      "##ual": 758,
      "##ting": 759,
      "##ath": 760,
      "##ang": 761,
      "off": 762,
      "##ars": 763,
      "Ch": 764,
      "##ning": 765,
      "gen": 766,
      "great": 767,
      "##ord": 768,
      "three": 769,
      "may": 770,
      "find": 771,
      "techn": 772,
      "##ool": 773,
      "##ric": 774,
      "##ower": 775,
      "##day": 776,
      "big": 777,
      "wr": 778,
      "##ically": 779,
      "human": 780,
      "##ved": 781,
      "##ces": 782,
      "pers": 783,
      "##ile": 784,
      "##fter": 785,
      "hear": 786,
      "sur": 787,
      "percent": 788,
      "called": 789,
      "##ert": 790,
      "##ology": 791,
      "well": 792,
      "##ied": 793,
      "system": 794,
      "##igh": 795,
      "dec": 796,
      "build": 797,
      "##fore": 798,
      "stud": 799,
      "let": 800,
      "##nds": 801,
      "##thing": 802,
      "dr": 803,
      "##ons": 804,
      "##te": 805,
      "##illion": 806,
      "##ren": 807,
      "##self": 808,
      "gu": 809,
      "##ub": 810,
      "app": 811,
      "ind": 812,
      "sim": 813,
      "made": 814,
      "again": 815,
      "child": 816,
      "##oc": 817,
      "inv": 818,
      "##ics": 819,
      "quest": 820,
      "##ition": 821,
      "##cial": 822,
      "##body": 823,
      "##ious": 824,
      "long": 825,
      "##ating": 826,
      "own": 827,
      "bel": 828,
      "import": 829,
      "##ft": 830,
      "##oss": 831,
      "rem": 832,
      "##ities": 833,
      "should": 834,
      "bas": 835,
      "lear": 836,
      "##mer": 837,
      "##we": 838,
      "##ize": 839,
      "##ian": 840,
      "why": 841,
      "after": 842,
      "wom": 843,
      "##ne": 844,
      "col": 845,
      "##olut": 846,
      "underst": 847,
      "turn": 848,
      "##ew": 849,
      "end": 850,
      "ob": 851,
      "##les": 852,
      "op": 853,
      "design": 854,
      "##av": 855,
      "##ates": 856,
      "##tern": 857,
      "hel": 858,
      "brain": 859,
      "change": 860,
      "cour": 861,
      "##ak": 862,
      "mean": 863,
      "rel": 864,
      "today": 865,
      "important": 866,
      "didn": 867,
      "thought": 868,
      "feel": 869,
      "play": 870,
      "interest": 871,
      "person": 872,
      "idea": 873,
      "car": 874,
      "ask": 875,
      "cr": 876,
      "Thank": 877,
      "##ss": 878,
      "last": 879,
      "creat": 880,
      "##ope": 881,
      "##als": 882,
      "##ail": 883,
      "?\"": 884,
      "started": 885,
      "exper": 886,
      "inst": 887,
      "old": 888,
      "gl": 889,
      "its": 890,
      "##con": 891,
      "sch": 892,
      "exam": 893,
      "him": 894,
      "000": 895,
      "sci": 896,
      "##ty": 897,
      "##ull": 898,
      "trans": 899,
      "##ough": 900,
      "ins": 901,
      "went": 902,
      "before": 903,
      "understand": 904,
      "cons": 905,
      "course": 906,
      "St": 907,
      "might": 908,
      "##gan": 909,
      "help": 910,
      "##ise": 911,
      "bit": 912,
      "give": 913,
      "better": 914,
      "point": 915,
      "##ese": 916,
      "##ility": 917,
      "##ists": 918,
      "another": 919,
      "produ": 920,
      "problem": 921,
      "##ular": 922,
      "##end": 923,
      "never": 924,
      "bo": 925,
      "story": 926,
      "##ost": 927,
      "power": 928,
      "##ily": 929,
      "##be": 930,
      "ke": 931,
      "belie": 932,
      "##lic": 933,
      "##ction": 934,
      "##ave": 935,
      "ter": 936,
      "able": 937,
      "##he": 938,
      "##ven": 939,
      "few": 940,
      "##kes": 941,
      "found": 942,
      "sl": 943,
      "still": 944,
      "##ix": 945,
      "sort": 946,
      "ago": 947,
      "kid": 948,
      "mon": 949,
      "pol": 950,
      "plan": 951,
      "tog": 952,
      "##und": 953,
      "together": 954,
      "19": 955,
      "next": 956,
      "num": 957,
      "school": 958,
      "##erg": 959,
      "fam": 960,
      "water": 961,
      "place": 962,
      "##ather": 963,
      "came": 964,
      "mod": 965,
      "tra": 966,
      "##oth": 967,
      "commun": 968,
      "##ng": 969,
      "##alth": 970,
      "##ense": 971,
      "high": 972,
      "pat": 973,
      "##ited": 974,
      "##velop": 975,
      "comple": 976,
      "How": 977,
      "imag": 978,
      "##ween": 979,
      "str": 980,
      "art": 981,
      "10": 982,
      "When": 983,
      "##ward": 984,
      "##ience": 985,
      "20": 986,
      "learn": 987,
      "used": 988,
      "##atch": 989,
      "rec": 990,
      "between": 991,
      "technology": 992,
      "each": 993,
      "dat": 994,
      "##read": 995,
      "##ized": 996,
      "Af": 997,
      "develop": 998,
      "question": 999,
      "Amer": 1000,
      "Americ": 1001,
      "four": 1002,
      "##ness": 1003,
      "looking": 1004,
      "cent": 1005,
      "##yp": 1006,
      "ext": 1007,
      "fo": 1008,
      ",\"": 1009,
      "met": 1010,
      "ser": 1011,
      "##iss": 1012,
      "love": 1013,
      "##ures": 1014,
      "att": 1015,
      "small": 1016,
      "##az": 1017,
      "min": 1018,
      "cre": 1019,
      "Bec": 1020,
      "med": 1021,
      "rep": 1022,
      "example": 1023,
      "Because": 1024,
      "##ific": 1025,
      "##ork": 1026,
      "##ways": 1027,
      "done": 1028,
      "eff": 1029,
      "grow": 1030,
      "##iness": 1031,
      "partic": 1032,
      "cell": 1033,
      "data": 1034,
      "comput": 1035,
      "##ably": 1036,
      "doesn": 1037,
      "fin": 1038,
      "##ced": 1039,
      "word": 1040,
      "women": 1041,
      "mom": 1042,
      "care": 1043,
      "seco": 1044,
      "light": 1045,
      "##cept": 1046,
      "##ings": 1047,
      "##ative": 1048,
      "wanted": 1049,
      "read": 1050,
      "beh": 1051,
      "hard": 1052,
      "far": 1053,
      "lar": 1054,
      "move": 1055,
      "whole": 1056,
      "million": 1057,
      "poss": 1058,
      "##gr": 1059,
      "chang": 1060,
      "##conom": 1061,
      "##ets": 1062,
      "live": 1063,
      "reas": 1064,
      "nat": 1065,
      "##ands": 1066,
      "##ale": 1067,
      "##formation": 1068,
      "##aw": 1069,
      "trying": 1070,
      "ear": 1071,
      "##cy": 1072,
      "bi": 1073,
      "working": 1074,
      "##ross": 1075,
      "away": 1076,
      "stu": 1077,
      "giv": 1078,
      "hand": 1079,
      "##selves": 1080,
      "gener": 1081,
      "##ote": 1082,
      "always": 1083,
      "expl": 1084,
      "econom": 1085,
      "el": 1086,
      "##ational": 1087,
      "gra": 1088,
      "children": 1089,
      "less": 1090,
      "##ird": 1091,
      "##oney": 1092,
      "believe": 1093,
      "bus": 1094,
      "Afric": 1095,
      "cap": 1096,
      "sk": 1097,
      "Un": 1098,
      "##ural": 1099,
      "##olution": 1100,
      "##gin": 1101,
      "##ism": 1102,
      "anim": 1103,
      "##ments": 1104,
      "book": 1105,
      "health": 1106,
      "country": 1107,
      "##ond": 1108,
      "##cer": 1109,
      "resp": 1110,
      "frie": 1111,
      "supp": 1112,
      "cor": 1113,
      "##atter": 1114,
      "pict": 1115,
      "sub": 1116,
      "run": 1117,
      "##per": 1118,
      "five": 1119,
      "doll": 1120,
      "mus": 1121,
      "##ont": 1122,
      "##ries": 1123,
      "using": 1124,
      "open": 1125,
      "space": 1126,
      "##ruct": 1127,
      "##nect": 1128,
      "##ract": 1129,
      "project": 1130,
      "##air": 1131,
      "##hip": 1132,
      "means": 1133,
      "##aces": 1134,
      "##ock": 1135,
      "ent": 1136,
      "##ks": 1137,
      "thinking": 1138,
      "prob": 1139,
      "vis": 1140,
      "As": 1141,
      "organ": 1142,
      "took": 1143,
      "spec": 1144,
      "kids": 1145,
      "mind": 1146,
      "information": 1147,
      "create": 1148,
      "maybe": 1149,
      "##led": 1150,
      "home": 1151,
      "second": 1152,
      "number": 1153,
      "pub": 1154,
      "Ind": 1155,
      "##wh": 1156,
      "##gg": 1157,
      "cou": 1158,
      "everything": 1159,
      "money": 1160,
      "elect": 1161,
      "lead": 1162,
      "##alf": 1163,
      "One": 1164,
      "become": 1165,
      "reg": 1166,
      "##vern": 1167,
      "##old": 1168,
      "process": 1169,
      "compan": 1170,
      "##ger": 1171,
      "eng": 1172,
      "My": 1173,
      "left": 1174,
      "teach": 1175,
      "##its": 1176,
      "##oy": 1177,
      "inf": 1178,
      "sing": 1179,
      "head": 1180,
      "##rib": 1181,
      "food": 1182,
      "energ": 1183,
      "##ten": 1184,
      "##iew": 1185,
      "walk": 1186,
      "##ues": 1187,
      "enough": 1188,
      "##ention": 1189,
      "making": 1190,
      "form": 1191,
      "quite": 1192,
      "war": 1193,
      "acc": 1194,
      "getting": 1195,
      "best": 1196,
      "fut": 1197,
      "##ivers": 1198,
      "fun": 1199,
      "##ever": 1200,
      "interesting": 1201,
      "These": 1202,
      "comes": 1203,
      "##sw": 1204,
      "##aut": 1205,
      "sense": 1206,
      "##ts": 1207,
      "##ories": 1208,
      "social": 1209,
      "sol": 1210,
      "dem": 1211,
      "pres": 1212,
      "govern": 1213,
      "No": 1214,
      "mark": 1215,
      "200": 1216,
      "##ouse": 1217,
      "contro": 1218,
      "##ake": 1219,
      "##ital": 1220,
      "month": 1221,
      "energy": 1222,
      "probably": 1223,
      "##iting": 1224,
      "##roup": 1225,
      "future": 1226,
      "happened": 1227,
      "set": 1228,
      "answ": 1229,
      "times": 1230,
      "Is": 1231,
      "cle": 1232,
      "##eas": 1233,
      "spe": 1234,
      "wo": 1235,
      "Here": 1236,
      "##cover": 1237,
      "half": 1238,
      "add": 1239,
      "##ines": 1240,
      "group": 1241,
      "talking": 1242,
      "building": 1243,
      "##ier": 1244,
      "room": 1245,
      "begin": 1246,
      "stuff": 1247,
      "body": 1248,
      "She": 1249,
      "connect": 1250,
      "##tty": 1251,
      "##vir": 1252,
      "moment": 1253,
      "cur": 1254,
      "pass": 1255,
      "##ety": 1256,
      "pop": 1257,
      "##ient": 1258,
      "glob": 1259,
      "##ember": 1260,
      "dist": 1261,
      "Let": 1262,
      "sign": 1263,
      "For": 1264,
      "red": 1265,
      "phys": 1266,
      "##cle": 1267,
      "told": 1268,
      "without": 1269,
      "side": 1270,
      "##ner": 1271,
      "##der": 1272,
      "##reen": 1273,
      "An": 1274,
      "wee": 1275,
      "##ately": 1276,
      "##duc": 1277,
      "pretty": 1278,
      "dollars": 1279,
      "pie": 1280,
      "else": 1281,
      "top": 1282,
      "hour": 1283,
      "countries": 1284,
      "beaut": 1285,
      "##viron": 1286,
      "coming": 1287,
      "business": 1288,
      "lives": 1289,
      "reason": 1290,
      "model": 1291,
      "keep": 1292,
      "bad": 1293,
      "anything": 1294,
      "hist": 1295,
      "val": 1296,
      "such": 1297,
      "job": 1298,
      "soci": 1299,
      "##imes": 1300,
      "##ior": 1301,
      "##arr": 1302,
      "wonder": 1303,
      "opp": 1304,
      "##ices": 1305,
      "Why": 1306,
      "allow": 1307,
      "dep": 1308,
      "across": 1309,
      "##gs": 1310,
      "environ": 1311,
      "##ortun": 1312,
      "stop": 1313,
      "##ogra": 1314,
      "Chin": 1315,
      "men": 1316,
      "sound": 1317,
      "ey": 1318,
      "minut": 1319,
      "Africa": 1320,
      "air": 1321,
      "stand": 1322,
      "matter": 1323,
      "##ertain": 1324,
      "##uring": 1325,
      "says": 1326,
      "eas": 1327,
      "makes": 1328,
      "hope": 1329,
      "All": 1330,
      "young": 1331,
      "living": 1332,
      "bring": 1333,
      "science": 1334,
      "##earch": 1335,
      "educ": 1336,
      "prot": 1337,
      "seen": 1338,
      "saw": 1339,
      "##idd": 1340,
      "##ying": 1341,
      "##ince": 1342,
      "fig": 1343,
      "level": 1344,
      "later": 1345,
      "mem": 1346,
      "simple": 1347,
      "asked": 1348,
      "experience": 1349,
      "goes": 1350,
      "cult": 1351,
      "prof": 1352,
      "##most": 1353,
      "particular": 1354,
      "##ided": 1355,
      "##ead": 1356,
      "typ": 1357,
      "sit": 1358,
      "##kay": 1359,
      "##io": 1360,
      "New": 1361,
      "happens": 1362,
      "##lf": 1363,
      "##ality": 1364,
      "conf": 1365,
      "scient": 1366,
      "##where": 1367,
      "aut": 1368,
      "having": 1369,
      "##aps": 1370,
      "cam": 1371,
      "effect": 1372,
      "phot": 1373,
      "picture": 1374,
      "det": 1375,
      "six": 1376,
      "##ken": 1377,
      "ways": 1378,
      "##angu": 1379,
      "thous": 1380,
      "##ash": 1381,
      "answer": 1382,
      "##llow": 1383,
      "prop": 1384,
      "##ization": 1385,
      "family": 1386,
      "complete": 1387,
      "##ott": 1388,
      "bre": 1389,
      "list": 1390,
      "char": 1391,
      "computer": 1392,
      "##pr": 1393,
      "##ilt": 1394,
      "##ots": 1395,
      "problems": 1396,
      "share": 1397,
      "##man": 1398,
      "##arth": 1399,
      "days": 1400,
      "research": 1401,
      "global": 1402,
      "rest": 1403,
      "##ream": 1404,
      "city": 1405,
      "case": 1406,
      "single": 1407,
      "environment": 1408,
      "##iter": 1409,
      "planet": 1410,
      "langu": 1411,
      "mach": 1412,
      "##irl": 1413,
      "loc": 1414,
      "test": 1415,
      "##ograph": 1416,
      "##arent": 1417,
      "fore": 1418,
      "def": 1419,
      "##gram": 1420,
      "remember": 1421,
      "basically": 1422,
      "music": 1423,
      "mor": 1424,
      "public": 1425,
      "inside": 1426,
      "polit": 1427,
      "##work": 1428,
      "##ences": 1429,
      "##ron": 1430,
      "certain": 1431,
      "##ulation": 1432,
      "almost": 1433,
      "possible": 1434,
      "##orn": 1435,
      "##ready": 1436,
      "yet": 1437,
      "sure": 1438,
      "saying": 1439,
      "rob": 1440,
      "watch": 1441,
      "amaz": 1442,
      "Earth": 1443,
      "##ape": 1444,
      "##no": 1445,
      "vide": 1446,
      "once": 1447,
      "guy": 1448,
      "age": 1449,
      "##ins": 1450,
      "while": 1451,
      "##itive": 1452,
      "whether": 1453,
      "##allen": 1454,
      "##ED": 1455,
      "pain": 1456,
      "cost": 1457,
      "nothing": 1458,
      "discover": 1459,
      "billion": 1460,
      "Al": 1461,
      "both": 1462,
      "##ange": 1463,
      "##med": 1464,
      "##ters": 1465,
      "##ants": 1466,
      "suc": 1467,
      "##osed": 1468,
      "contin": 1469,
      "##uge": 1470,
      "exc": 1471,
      "already": 1472,
      "##ury": 1473,
      "wrong": 1474,
      "incred": 1475,
      "self": 1476,
      "looked": 1477,
      "class": 1478,
      "ideas": 1479,
      "##ivid": 1480,
      "##lish": 1481,
      "someone": 1482,
      "##iverse": 1483,
      "exact": 1484,
      "100": 1485,
      "within": 1486,
      "par": 1487,
      "treat": 1488,
      "control": 1489,
      "##ee": 1490,
      "program": 1491,
      "spea": 1492,
      "community": 1493,
      "##oice": 1494,
      "sw": 1495,
      "product": 1496,
      "unt": 1497,
      "looks": 1498,
      "history": 1499,
      "##rem": 1500,
      "50": 1501,
      "##ield": 1502,
      "large": 1503,
      "##less": 1504,
      "myself": 1505,
      "30": 1506,
      "Do": 1507,
      "dire": 1508,
      "##iful": 1509,
      "equ": 1510,
      "cells": 1511,
      "true": 1512,
      "often": 1513,
      "mil": 1514,
      "cond": 1515,
      "Intern": 1516,
      "lab": 1517,
      "dev": 1518,
      "amazing": 1519,
      "iss": 1520,
      "##undred": 1521,
      "heard": 1522,
      "kill": 1523,
      "order": 1524,
      "15": 1525,
      "challen": 1526,
      "figure": 1527,
      "wa": 1528,
      "built": 1529,
      "##imate": 1530,
      "words": 1531,
      "##ages": 1532,
      "imagine": 1533,
      "##side": 1534,
      "##ware": 1535,
      "che": 1536,
      "##ene": 1537,
      "Ever": 1538,
      "##ians": 1539,
      "mag": 1540,
      "##aterial": 1541,
      "Or": 1542,
      "##vious": 1543,
      "##pect": 1544,
      "night": 1545,
      "##ime": 1546,
      "works": 1547,
      "##ivity": 1548,
      "United": 1549,
      "face": 1550,
      "adv": 1551,
      "hundred": 1552,
      "state": 1553,
      "news": 1554,
      "months": 1555,
      "TED": 1556,
      "government": 1557,
      "couple": 1558,
      "cancer": 1559,
      "##ling": 1560,
      "entire": 1561,
      "beautiful": 1562,
      "aff": 1563,
      "full": 1564,
      "friends": 1565,
      "individ": 1566,
      "##land": 1567,
      "heart": 1568,
      "pay": 1569,
      "##ely": 1570,
      "##iddle": 1571,
      "##bers": 1572,
      "market": 1573,
      "ass": 1574,
      "fil": 1575,
      "free": 1576,
      "must": 1577,
      "net": 1578,
      "##ider": 1579,
      "##vers": 1580,
      "language": 1581,
      "##aper": 1582,
      "result": 1583,
      "incre": 1584,
      "##uck": 1585,
      "girl": 1586,
      "piece": 1587,
      "##ional": 1588,
      "##ives": 1589,
      "sec": 1590,
      "species": 1591,
      "material": 1592,
      "##bs": 1593,
      "front": 1594,
      "follow": 1595,
      "view": 1596,
      "line": 1597,
      "vir": 1598,
      "deep": 1599,
      "Fr": 1600,
      "##get": 1601,
      "places": 1602,
      "isn": 1603,
      "until": 1604,
      "OK": 1605,
      "everybody": 1606,
      "individual": 1607,
      "##ustr": 1608,
      "##ental": 1609,
      "wasn": 1610,
      "video": 1611,
      "dra": 1612,
      "const": 1613,
      "Internet": 1614,
      "past": 1615,
      "train": 1616,
      "##atic": 1617,
      "ret": 1618,
      "##ah": 1619,
      "##ired": 1620,
      "##ator": 1621,
      "decided": 1622,
      "education": 1623,
      "##ush": 1624,
      "di": 1625,
      "completely": 1626,
      "##br": 1627,
      "quick": 1628,
      "##eah": 1629,
      "behav": 1630,
      "engine": 1631,
      "##ex": 1632,
      "##..": 1633,
      "law": 1634,
      "universe": 1635,
      "On": 1636,
      "##line": 1637,
      "Every": 1638,
      "pos": 1639,
      "terr": 1640,
      "##0s": 1641,
      "cra": 1642,
      "ref": 1643,
      "fund": 1644,
      "study": 1645,
      "nature": 1646,
      "object": 1647,
      "##outh": 1648,
      "##omes": 1649,
      "abs": 1650,
      "stories": 1651,
      "States": 1652,
      "exactly": 1653,
      "taking": 1654,
      "##ike": 1655,
      "deal": 1656,
      "became": 1657,
      "third": 1658,
      "##ined": 1659,
      "##aster": 1660,
      "though": 1661,
      "name": 1662,
      "close": 1663,
      "land": 1664,
      "##ane": 1665,
      "##ared": 1666,
      "oce": 1667,
      "happening": 1668,
      "Br": 1669,
      "students": 1670,
      "animals": 1671,
      "mess": 1672,
      "tool": 1673,
      "huge": 1674,
      "##gest": 1675,
      "##fic": 1676,
      "ris": 1677,
      "knew": 1678,
      "kinds": 1679,
      "experim": 1680,
      "God": 1681,
      "itself": 1682,
      "At": 1683,
      "Can": 1684,
      "##acter": 1685,
      "India": 1686,
      "##dd": 1687,
      "struct": 1688,
      "collect": 1689,
      "##itut": 1690,
      "somebody": 1691,
      "woman": 1692,
      "house": 1693,
      "learned": 1694,
      "ourselves": 1695,
      "success": 1696,
      "since": 1697,
      "##ats": 1698,
      "##ients": 1699,
      "##ogn": 1700,
      "society": 1701,
      "cut": 1702,
      "dru": 1703,
      "##cc": 1704,
      "##sy": 1705,
      "##ames": 1706,
      "##ability": 1707,
      "minutes": 1708,
      "##ision": 1709,
      "America": 1710,
      "gets": 1711,
      "mass": 1712,
      "complex": 1713,
      "##haps": 1714,
      "questions": 1715,
      "company": 1716,
      "hours": 1717,
      "inno": 1718,
      "spend": 1719,
      "...": 1720,
      "av": 1721,
      "themselves": 1722,
      "##rop": 1723,
      "foc": 1724,
      "mic": 1725,
      "along": 1726,
      "against": 1727,
      "turns": 1728,
      "##itting": 1729,
      "American": 1730,
      "##omet": 1731,
      "clear": 1732,
      "lau": 1733,
      "stre": 1734,
      "meet": 1735,
      "Sh": 1736,
      "game": 1737,
      "relations": 1738,
      "rather": 1739,
      "##thers": 1740,
      "created": 1741,
      "opportun": 1742,
      "prov": 1743,
      "##vation": 1744,
      "##etic": 1745,
      "bott": 1746,
      "fly": 1747,
      "##row": 1748,
      "ones": 1749,
      "Then": 1750,
      "Okay": 1751,
      "focus": 1752,
      "##ibly": 1753,
      "##ump": 1754,
      "century": 1755,
      "Oh": 1756,
      "parent": 1757,
      "##urs": 1758,
      "##ium": 1759,
      "##ease": 1760,
      "expect": 1761,
      "Some": 1762,
      "wind": 1763,
      "least": 1764,
      "couldn": 1765,
      "meas": 1766,
      "won": 1767,
      "invest": 1768,
      "##cing": 1769,
      "guys": 1770,
      "##lud": 1771,
      "##ature": 1772,
      "worked": 1773,
      "##ficult": 1774,
      "pred": 1775,
      "sometimes": 1776,
      "mother": 1777,
      "difficult": 1778,
      "##pe": 1779,
      "Ar": 1780,
      "##ones": 1781,
      "##ctor": 1782,
      "Eur": 1783,
      "ele": 1784,
      "##iversity": 1785,
      "##ential": 1786,
      "hold": 1787,
      "liter": 1788,
      "##ming": 1789,
      "arch": 1790,
      "China": 1791,
      "others": 1792,
      "sens": 1793,
      "var": 1794,
      "##arch": 1795,
      "thousands": 1796,
      "##face": 1797,
      "neur": 1798,
      "happy": 1799,
      "disease": 1800,
      "based": 1801,
      "gave": 1802,
      "##ented": 1803,
      "early": 1804,
      "norm": 1805,
      "##ological": 1806,
      "##istic": 1807,
      "##ples": 1808,
      "Pe": 1809,
      "systems": 1810,
      "cau": 1811,
      "amount": 1812,
      "aud": 1813,
      "##olved": 1814,
      "lots": 1815,
      "##wards": 1816,
      "bab": 1817,
      "exist": 1818,
      "##illions": 1819,
      "everyone": 1820,
      "instead": 1821,
      "field": 1822,
      "ra": 1823,
      "math": 1824,
      "team": 1825,
      "appro": 1826,
      "protect": 1827,
      "mot": 1828,
      "rad": 1829,
      "natural": 1830,
      "cir": 1831,
      "rev": 1832,
      "coll": 1833,
      "##ribut": 1834,
      "behavior": 1835,
      "##ither": 1836,
      "##ases": 1837,
      "listen": 1838,
      "oil": 1839,
      "##ted": 1840,
      "##ination": 1841,
      "taken": 1842,
      "miss": 1843,
      "##cul": 1844,
      "outside": 1845,
      "interact": 1846,
      "black": 1847,
      "machine": 1848,
      "##ially": 1849,
      "step": 1850,
      "relationship": 1851,
      "record": 1852,
      "ant": 1853,
      "seven": 1854,
      "death": 1855,
      "difference": 1856,
      "learning": 1857,
      "oper": 1858,
      "Eng": 1859,
      "leg": 1860,
      "green": 1861,
      "sex": 1862,
      "##fect": 1863,
      "##app": 1864,
      "recent": 1865,
      "fail": 1866,
      "Europe": 1867,
      "scale": 1868,
      "changed": 1869,
      "##not": 1870,
      "York": 1871,
      "extra": 1872,
      "dig": 1873,
      "##ident": 1874,
      "##sych": 1875,
      "area": 1876,
      "##ife": 1877,
      "bro": 1878,
      "middle": 1879,
      "pattern": 1880,
      "##que": 1881,
      "##up": 1882,
      "##uss": 1883,
      "fish": 1884,
      "Not": 1885,
      "pot": 1886,
      "speak": 1887,
      "Man": 1888,
      "yourself": 1889,
      "beginning": 1890,
      "network": 1891,
      "perform": 1892,
      "##ully": 1893,
      "##ides": 1894,
      "moving": 1895,
      "##unch": 1896,
      "common": 1897,
      "##iol": 1898,
      "12": 1899,
      "given": 1900,
      "eyes": 1901,
      "perhaps": 1902,
      "easy": 1903,
      "non": 1904,
      "##att": 1905,
      "hands": 1906,
      "del": 1907,
      "friend": 1908,
      "short": 1909,
      "leave": 1910,
      "colle": 1911,
      "sym": 1912,
      "turned": 1913,
      "##verage": 1914,
      "es": 1915,
      "##NA": 1916,
      "terms": 1917,
      "explain": 1918,
      "population": 1919,
      "sent": 1920,
      "Chr": 1921,
      "cities": 1922,
      "lim": 1923,
      "occ": 1924,
      "takes": 1925,
      "support": 1926,
      "needs": 1927,
      "obvious": 1928,
      "culture": 1929,
      "##itions": 1930,
      "18": 1931,
      "##ency": 1932,
      "low": 1933,
      "ident": 1934,
      "seeing": 1935,
      "jour": 1936,
      "##ption": 1937,
      "chem": 1938,
      "wonderful": 1939,
      "eight": 1940,
      "psych": 1941,
      "size": 1942,
      "maj": 1943,
      "trad": 1944,
      "finally": 1945,
      "behind": 1946,
      "paper": 1947,
      "break": 1948,
      "ocean": 1949,
      "jo": 1950,
      "##inary": 1951,
      "##elt": 1952,
      "##astic": 1953,
      "##ove": 1954,
      "communic": 1955,
      "##ern": 1956,
      "began": 1957,
      "##ges": 1958,
      "reach": 1959,
      "parts": 1960,
      "impro": 1961,
      "To": 1962,
      "pract": 1963,
      "##ply": 1964,
      "##els": 1965,
      "local": 1966,
      "fre": 1967,
      "##aring": 1968,
      "cannot": 1969,
      "##ipp": 1970,
      "##idence": 1971,
      "tem": 1972,
      "##ret": 1973,
      "micro": 1974,
      "tre": 1975,
      "grand": 1976,
      "during": 1977,
      "##rew": 1978,
      "##itch": 1979,
      "image": 1980,
      "consum": 1981,
      "tot": 1982,
      "map": 1983,
      "poor": 1984,
      "blue": 1985,
      "pick": 1986,
      "sum": 1987,
      "sun": 1988,
      "powerful": 1989,
      "perfect": 1990,
      "longer": 1991,
      "foot": 1992,
      "##orth": 1993,
      "super": 1994,
      "simply": 1995,
      "major": 1996,
      "companies": 1997,
      "week": 1998,
      "##iving": 1999,
      "arg": 2000,
      "extrem": 2001,
      "realized": 2002,
      "fall": 2003,
      "needed": 2004,
      "access": 2005,
      "People": 2006,
      "dark": 2007,
      "stay": 2008,
      "##itect": 2009,
      "event": 2010,
      "dream": 2011,
      "sour": 2012,
      "resour": 2013,
      "economic": 2014,
      "##fully": 2015,
      "whatever": 2016,
      "##cious": 2017,
      "ess": 2018,
      "Just": 2019,
      "known": 2020,
      "viol": 2021,
      "serv": 2022,
      "cal": 2023,
      "40": 2024,
      "disc": 2025,
      "special": 2026,
      "absolut": 2027,
      "repres": 2028,
      "famil": 2029,
      "ill": 2030,
      "##oph": 2031,
      "tried": 2032,
      "feed": 2033,
      "emot": 2034,
      "parents": 2035,
      "enc": 2036,
      "interested": 2037,
      "Be": 2038,
      "press": 2039,
      "eat": 2040,
      "##ony": 2041,
      "surv": 2042,
      "personal": 2043,
      "present": 2044,
      "surpr": 2045,
      "##ero": 2046,
      "priv": 2047,
      "reality": 2048,
      "ground": 2049,
      "media": 2050,
      "felt": 2051,
      "includ": 2052,
      "growth": 2053,
      "##osp": 2054,
      "buy": 2055,
      "##ising": 2056,
      "situ": 2057,
      "ple": 2058,
      "wall": 2059,
      "##ains": 2060,
      "##ton": 2061,
      "##ledge": 2062,
      "ge": 2063,
      "emb": 2064,
      "yes": 2065,
      "##ison": 2066,
      "##rought": 2067,
      "recogn": 2068,
      "quickly": 2069,
      "gone": 2070,
      "strong": 2071,
      "robot": 2072,
      "architect": 2073,
      "##ised": 2074,
      "##ilar": 2075,
      "##ged": 2076,
      "##ibility": 2077,
      "father": 2078,
      "##ards": 2079,
      "DNA": 2080,
      "key": 2081,
      "##crib": 2082,
      "##inal": 2083,
      "value": 2084,
      "##gen": 2085,
      "##ows": 2086,
      "##hood": 2087,
      "requ": 2088,
      "conv": 2089,
      "spent": 2090,
      "##rent": 2091,
      "ability": 2092,
      "humans": 2093,
      "democ": 2094,
      "May": 2095,
      "feet": 2096,
      "approach": 2097,
      "cool": 2098,
      "##acy": 2099,
      "shows": 2100,
      "dest": 2101,
      "near": 2102,
      "vers": 2103,
      "##ax": 2104,
      "##anger": 2105,
      "weeks": 2106,
      "##ney": 2107,
      "opportunity": 2108,
      "sitting": 2109,
      "##ode": 2110,
      "animal": 2111,
      "direct": 2112,
      "##ills": 2113,
      "surface": 2114,
      "##ators": 2115,
      "political": 2116,
      "ed": 2117,
      "##oh": 2118,
      "travel": 2119,
      "lost": 2120,
      "mult": 2121,
      "civ": 2122,
      "either": 2123,
      "##ler": 2124,
      "phone": 2125,
      "obs": 2126,
      "##ument": 2127,
      "Tw": 2128,
      "economy": 2129,
      "25": 2130,
      "fear": 2131,
      "##gle": 2132,
      "##room": 2133,
      "predict": 2134,
      "Yeah": 2135,
      "##izing": 2136,
      "write": 2137,
      "Yes": 2138,
      "ap": 2139,
      "post": 2140,
      "bottom": 2141,
      "measure": 2142,
      "orig": 2143,
      "respons": 2144,
      "draw": 2145,
      "structure": 2146,
      "Right": 2147,
      "squ": 2148,
      "##ering": 2149,
      "win": 2150,
      "areas": 2151,
      "##ades": 2152,
      "##bo": 2153,
      "##ived": 2154,
      "##ologies": 2155,
      "morning": 2156,
      "blood": 2157,
      "incredible": 2158,
      "##erm": 2159,
      "leaders": 2160,
      "##avor": 2161,
      "##uth": 2162,
      "caus": 2163,
      "Wor": 2164,
      "##gress": 2165,
      "##ule": 2166,
      "##ouch": 2167,
      "soft": 2168,
      "consider": 2169,
      "box": 2170,
      "patients": 2171,
      "attention": 2172,
      "Re": 2173,
      "pur": 2174,
      "impact": 2175,
      "photograph": 2176,
      "wouldn": 2177,
      "average": 2178,
      "nice": 2179,
      "evolution": 2180,
      "har": 2181,
      "##iny": 2182,
      "changes": 2183,
      "pull": 2184,
      "profess": 2185,
      "cy": 2186,
      "fast": 2187,
      "##oun": 2188,
      "##cially": 2189,
      "growing": 2190,
      "##ively": 2191,
      "slow": 2192,
      "challenge": 2193,
      "forward": 2194,
      "##rodu": 2195,
      "sea": 2196,
      "fight": 2197,
      "mole": 2198,
      "numbers": 2199,
      "realize": 2200,
      "risk": 2201,
      "##hor": 2202,
      "##ales": 2203,
      "intern": 2204,
      "born": 2205,
      "##entially": 2206,
      "send": 2207,
      "ur": 2208,
      "##ustain": 2209,
      "##dden": 2210,
      "Our": 2211,
      "##bor": 2212,
      "bene": 2213,
      "sudden": 2214,
      "indust": 2215,
      "relig": 2216,
      "insp": 2217,
      "brought": 2218,
      "##ral": 2219,
      "worth": 2220,
      "##ateg": 2221,
      "meaning": 2222,
      "crit": 2223,
      "developed": 2224,
      "camp": 2225,
      "feeling": 2226,
      "books": 2227,
      "physical": 2228,
      "##lu": 2229,
      "##vent": 2230,
      "##lt": 2231,
      "white": 2232,
      "knowledge": 2233,
      "anal": 2234,
      "opt": 2235,
      "vol": 2236,
      "enter": 2237,
      "circ": 2238,
      "force": 2239,
      "comb": 2240,
      "repl": 2241,
      "rock": 2242,
      "camer": 2243,
      "##amp": 2244,
      "die": 2245,
      "##use": 2246,
      "##ext": 2247,
      "ste": 2248,
      "giving": 2249,
      "experiment": 2250,
      "conc": 2251,
      "wrote": 2252,
      "running": 2253,
      "##zy": 2254,
      "seems": 2255,
      "World": 2256,
      "fac": 2257,
      "sn": 2258,
      "rele": 2259,
      "mov": 2260,
      "institut": 2261,
      "English": 2262,
      "CA": 2263,
      "##cr": 2264,
      "stra": 2265,
      "center": 2266,
      "mar": 2267,
      "##ole": 2268,
      "theory": 2269,
      "literally": 2270,
      "Sp": 2271,
      "technologies": 2272,
      "main": 2273,
      "fundam": 2274,
      "##bon": 2275,
      "##leep": 2276,
      "dim": 2277,
      "##ified": 2278,
      "climate": 2279,
      "film": 2280,
      "similar": 2281,
      "##eed": 2282,
      "spread": 2283,
      "term": 2284,
      "ast": 2285,
      "hor": 2286,
      "##chie": 2287,
      "##ored": 2288,
      "##ellig": 2289,
      "electric": 2290,
      "est": 2291,
      "understanding": 2292,
      "medic": 2293,
      "redu": 2294,
      "scientists": 2295,
      "miles": 2296,
      "hundreds": 2297,
      "##ned": 2298,
      "neigh": 2299,
      "starting": 2300,
      "color": 2301,
      "favor": 2302,
      "pen": 2303,
      "##ops": 2304,
      "anyone": 2305,
      "vill": 2306,
      "prin": 2307,
      "serious": 2308,
      "civil": 2309,
      "thank": 2310,
      "hot": 2311,
      "compet": 2312,
      "gives": 2313,
      "##ggest": 2314,
      "nu": 2315,
      "##ging": 2316,
      "##chan": 2317,
      "tele": 2318,
      "images": 2319,
      "audience": 2320,
      "millions": 2321,
      "alone": 2322,
      "current": 2323,
      "tools": 2324,
      "sustain": 2325,
      "##amed": 2326,
      "suggest": 2327,
      "telling": 2328,
      "normal": 2329,
      "soon": 2330,
      "text": 2331,
      "describ": 2332,
      "guess": 2333,
      "transp": 2334,
      "sil": 2335,
      "prom": 2336,
      "tradition": 2337,
      "Le": 2338,
      "dead": 2339,
      "flo": 2340,
      "ice": 2341,
      "##par": 2342,
      "##gn": 2343,
      "##assion": 2344,
      "##ression": 2345,
      "playing": 2346,
      "sho": 2347,
      "hosp": 2348,
      "##ri": 2349,
      "##ploy": 2350,
      "issue": 2351,
      "path": 2352,
      "touch": 2353,
      "##ny": 2354,
      "##por": 2355,
      "##omen": 2356,
      "type": 2357,
      "cars": 2358,
      "stage": 2359,
      "sell": 2360,
      "avail": 2361,
      "ball": 2362,
      "rul": 2363,
      "##ped": 2364,
      "##ister": 2365,
      "##ilities": 2366,
      "creating": 2367,
      "##ensive": 2368,
      "discovered": 2369,
      "fu": 2370,
      "polic": 2371,
      "development": 2372,
      "visual": 2373,
      "Where": 2374,
      "##ift": 2375,
      "among": 2376,
      "##iant": 2377,
      "stat": 2378,
      "modern": 2379,
      "affect": 2380,
      "concept": 2381,
      "seem": 2382,
      "intellig": 2383,
      "road": 2384,
      "track": 2385,
      "movement": 2386,
      "##ites": 2387,
      "showed": 2388,
      "##clear": 2389,
      "##to": 2390,
      "##aged": 2391,
      "changing": 2392,
      "aren": 2393,
      "poll": 2394,
      "absolutely": 2395,
      "With": 2396,
      "##bit": 2397,
      "##iet": 2398,
      "##ban": 2399,
      "##ased": 2400,
      "developing": 2401,
      "South": 2402,
      "##erv": 2403,
      "##apt": 2404,
      "##pecially": 2405,
      "recently": 2406,
      "eye": 2407,
      "Look": 2408,
      "##oud": 2409,
      "truth": 2410,
      "industry": 2411,
      "Am": 2412,
      "achie": 2413,
      "##asing": 2414,
      "patient": 2415,
      "song": 2416,
      "##asc": 2417,
      "react": 2418,
      "arm": 2419,
      "hon": 2420,
      "online": 2421,
      "##iod": 2422,
      "##yn": 2423,
      "talked": 2424,
      "##urity": 2425,
      "##oose": 2426,
      "chance": 2427,
      "incredibly": 2428,
      "Ph": 2429,
      "cop": 2430,
      "arr": 2431,
      "designed": 2432,
      "subject": 2433,
      "resources": 2434,
      "asking": 2435,
      "convers": 2436,
      "issues": 2437,
      "bra": 2438,
      "lay": 2439,
      "transform": 2440,
      "fire": 2441,
      "voice": 2442,
      "shape": 2443,
      "reasons": 2444,
      "mathem": 2445,
      "11": 2446,
      "rate": 2447,
      "##ique": 2448,
      "##ug": 2449,
      "produce": 2450,
      "##ished": 2451,
      "experi": 2452,
      "innovation": 2453,
      "fur": 2454,
      "sold": 2455,
      "knows": 2456,
      "cover": 2457,
      "available": 2458,
      "##ances": 2459,
      "##ival": 2460,
      "flow": 2461,
      "mechan": 2462,
      "carbon": 2463,
      "By": 2464,
      "solution": 2465,
      "period": 2466,
      "lived": 2467,
      "evidence": 2468,
      "involved": 2469,
      "Chinese": 2470,
      "haven": 2471,
      "save": 2472,
      "199": 2473,
      "attack": 2474,
      "##let": 2475,
      "situation": 2476,
      "dou": 2477,
      "tiny": 2478,
      "deg": 2479,
      "neg": 2480,
      "choice": 2481,
      "solve": 2482,
      "compassion": 2483,
      "speed": 2484,
      "dimens": 2485,
      "search": 2486,
      "##abor": 2487,
      "quality": 2488,
      "##iction": 2489,
      "pictures": 2490,
      "source": 2491,
      "Goo": 2492,
      "din": 2493,
      "fair": 2494,
      "##ung": 2495,
      "flu": 2496,
      "##racy": 2497,
      "##head": 2498,
      "especially": 2499,
      "##yond": 2500,
      "becomes": 2501,
      "baby": 2502,
      "function": 2503,
      "message": 2504,
      "##ify": 2505,
      "imm": 2506,
      "generation": 2507,
      "bigger": 2508,
      "drop": 2509,
      "street": 2510,
      "grad": 2511,
      "computers": 2512,
      "lea": 2513,
      "emp": 2514,
      "writing": 2515,
      "##aid": 2516,
      "##arily": 2517,
      "except": 2518,
      "unf": 2519,
      "smart": 2520,
      "Of": 2521,
      "sleep": 2522,
      "##ram": 2523,
      "putting": 2524,
      "ult": 2525,
      "defin": 2526,
      "Com": 2527,
      "dom": 2528,
      "##ude": 2529,
      "groups": 2530,
      "bed": 2531,
      "nine": 2532,
      "##eter": 2533,
      "sever": 2534,
      "emerg": 2535,
      "trust": 2536,
      "medical": 2537,
      "De": 2538,
      "bar": 2539,
      "bird": 2540,
      "ec": 2541,
      "sat": 2542,
      "drive": 2543,
      "girls": 2544,
      "##oices": 2545,
      "##lict": 2546,
      "##istan": 2547,
      "report": 2548,
      "##imp": 2549,
      "likely": 2550,
      "##ference": 2551,
      "rich": 2552,
      "table": 2553,
      "forest": 2554,
      "60": 2555,
      "beyond": 2556,
      "software": 2557,
      "died": 2558,
      "bacter": 2559,
      "##ffer": 2560,
      "##ishing": 2561,
      "conscious": 2562,
      "general": 2563,
      "First": 2564,
      "aw": 2565,
      "mount": 2566,
      "Inst": 2567,
      "rules": 2568,
      "towards": 2569,
      "##oms": 2570,
      "##ley": 2571,
      "necess": 2572,
      "solar": 2573,
      "sounds": 2574,
      "##nch": 2575,
      "##ires": 2576,
      "benef": 2577,
      "lif": 2578,
      "tend": 2579,
      "safe": 2580,
      "prim": 2581,
      "device": 2582,
      "Maybe": 2583,
      "peace": 2584,
      "##osph": 2585,
      "revolution": 2586,
      "Google": 2587,
      "several": 2588,
      "wish": 2589,
      "##oring": 2590,
      "##ips": 2591,
      "effic": 2592,
      "Pro": 2593,
      "danger": 2594,
      "##fort": 2595,
      "##usion": 2596,
      "##ously": 2597,
      "capital": 2598,
      "drugs": 2599,
      "breat": 2600,
      "##light": 2601,
      "progress": 2602,
      "plant": 2603,
      "##ran": 2604,
      "##ik": 2605,
      "drug": 2606,
      "block": 2607,
      "particularly": 2608,
      "aware": 2609,
      "##amm": 2610,
      "Who": 2611,
      "##ctors": 2612,
      "anybody": 2613,
      "Don": 2614,
      "fem": 2615,
      "er": 2616,
      "##str": 2617,
      "##umb": 2618,
      "walking": 2619,
      "link": 2620,
      "##une": 2621,
      "clos": 2622,
      "virus": 2623,
      "Im": 2624,
      "onto": 2625,
      "moved": 2626,
      "##gth": 2627,
      "office": 2628,
      "minute": 2629,
      "##lo": 2630,
      "action": 2631,
      "screen": 2632,
      "character": 2633,
      "potential": 2634,
      "hit": 2635,
      "##oming": 2636,
      "scientific": 2637,
      "extraord": 2638,
      "rece": 2639,
      "Any": 2640,
      "games": 2641,
      "##rast": 2642,
      "##ief": 2643,
      "basic": 2644,
      "schools": 2645,
      "largest": 2646,
      "positive": 2647,
      "stru": 2648,
      "log": 2649,
      "##ressed": 2650,
      "##medi": 2651,
      "princi": 2652,
      "##xy": 2653,
      "showing": 2654,
      "examples": 2655,
      "conflict": 2656,
      "obviously": 2657,
      "ep": 2658,
      "##idge": 2659,
      "door": 2660,
      "vision": 2661,
      "materials": 2662,
      "cause": 2663,
      "##uly": 2664,
      "##book": 2665,
      "certainly": 2666,
      "After": 2667,
      "fa": 2668,
      "##iar": 2669,
      "##irth": 2670,
      "journey": 2671,
      "further": 2672,
      "div": 2673,
      "Pr": 2674,
      "##ns": 2675,
      "activ": 2676,
      "context": 2677,
      "##ground": 2678,
      "##ores": 2679,
      "totally": 2680,
      "ce": 2681,
      "fix": 2682,
      "national": 2683,
      "##oke": 2684,
      "wants": 2685,
      "suffer": 2686,
      "Cal": 2687,
      "gal": 2688,
      "led": 2689,
      "##ask": 2690,
      "starts": 2691,
      "projects": 2692,
      "laugh": 2693,
      "chemical": 2694,
      "hy": 2695,
      "##ners": 2696,
      "nobody": 2697,
      "biggest": 2698,
      "teachers": 2699,
      "exciting": 2700,
      "gas": 2701,
      "##onse": 2702,
      "##igher": 2703,
      "##tend": 2704,
      "extremely": 2705,
      "fundamental": 2706,
      "Joh": 2707,
      "marr": 2708,
      "##ought": 2709,
      "student": 2710,
      "account": 2711,
      "digital": 2712,
      "##verty": 2713,
      "everywhere": 2714,
      "adm": 2715,
      "virt": 2716,
      "carry": 2717,
      "particip": 2718,
      "results": 2719,
      "North": 2720,
      "okay": 2721,
      "##uit": 2722,
      "clean": 2723,
      "memory": 2724,
      "thousand": 2725,
      "represent": 2726,
      "Se": 2727,
      "cit": 2728,
      "higher": 2729,
      "threat": 2730,
      "farm": 2731,
      "detail": 2732,
      "deliver": 2733,
      "neighbor": 2734,
      "500": 2735,
      "Sec": 2736,
      "meant": 2737,
      "##antly": 2738,
      "security": 2739,
      "violence": 2740,
      "camera": 2741,
      "son": 2742,
      "notice": 2743,
      "##augh": 2744,
      "happiness": 2745,
      "cross": 2746,
      "##view": 2747,
      "boy": 2748,
      "##itary": 2749,
      "complic": 2750,
      "skin": 2751,
      "connected": 2752,
      "##put": 2753,
      "##ai": 2754,
      "stick": 2755,
      "check": 2756,
      "Brit": 2757,
      "apart": 2758,
      "Most": 2759,
      "rain": 2760,
      "##apan": 2761,
      "role": 2762,
      "continue": 2763,
      "trial": 2764,
      "response": 2765,
      "depend": 2766,
      "terror": 2767,
      "Japan": 2768,
      "fill": 2769,
      "poverty": 2770,
      "ready": 2771,
      "supposed": 2772,
      "da": 2773,
      "vac": 2774,
      "##icle": 2775,
      "spir": 2776,
      "##itten": 2777,
      "16": 2778,
      "birth": 2779,
      "named": 2780,
      "mob": 2781,
      "cris": 2782,
      "jobs": 2783,
      "improve": 2784,
      "democracy": 2785,
      "##oon": 2786,
      "##aught": 2787,
      "favorite": 2788,
      "citiz": 2789,
      "##how": 2790,
      "##isions": 2791,
      "graph": 2792,
      "capt": 2793,
      "trees": 2794,
      "eventually": 2795,
      "##ma": 2796,
      "##more": 2797,
      "##eth": 2798,
      "separ": 2799,
      "##cient": 2800,
      "models": 2801,
      "individuals": 2802,
      "vari": 2803,
      "tar": 2804,
      "##aur": 2805,
      "sequ": 2806,
      "##ruction": 2807,
      "earl": 2808,
      "bunch": 2809,
      "faster": 2810,
      "pu": 2811,
      "watching": 2812,
      "fant": 2813,
      "##by": 2814,
      "##ids": 2815,
      "imposs": 2816,
      "adult": 2817,
      "transl": 2818,
      "labor": 2819,
      "diag": 2820,
      "Even": 2821,
      "bal": 2822,
      "##ims": 2823,
      "##ulate": 2824,
      "activity": 2825,
      "crazy": 2826,
      "West": 2827,
      "lose": 2828,
      "##ze": 2829,
      "##akes": 2830,
      "essentially": 2831,
      ".,": 2832,
      "Are": 2833,
      "##IV": 2834,
      "##iger": 2835,
      "clin": 2836,
      "tells": 2837,
      "African": 2838,
      "80": 2839,
      "Ge": 2840,
      "bom": 2841,
      "##iding": 2842,
      "concer": 2843,
      "perspect": 2844,
      "magn": 2845,
      "return": 2846,
      "mine": 2847,
      "push": 2848,
      "offer": 2849,
      "plants": 2850,
      "##odies": 2851,
      "disapp": 2852,
      "village": 2853,
      "nuclear": 2854,
      "14": 2855,
      "grew": 2856,
      "waste": 2857,
      "ann": 2858,
      "immedi": 2859,
      "##ounds": 2860,
      "syn": 2861,
      "HIV": 2862,
      "webs": 2863,
      "worse": 2864,
      "accept": 2865,
      "creative": 2866,
      "communities": 2867,
      "teacher": 2868,
      "conditions": 2869,
      "assum": 2870,
      "suddenly": 2871,
      "movie": 2872,
      "mathemat": 2873,
      "Go": 2874,
      "rap": 2875,
      "site": 2876,
      "##joy": 2877,
      "##ana": 2878,
      "shown": 2879,
      "##ffic": 2880,
      "finding": 2881,
      "brains": 2882,
      "strateg": 2883,
      "specific": 2884,
      "##ortunately": 2885,
      "##eal": 2886,
      "##erve": 2887,
      "##oles": 2888,
      "goal": 2889,
      "201": 2890,
      "hospital": 2891,
      "late": 2892,
      "##ently": 2893,
      "buildings": 2894,
      "appear": 2895,
      "meth": 2896,
      "objects": 2897,
      "launch": 2898,
      "collabor": 2899,
      "galax": 2900,
      "cart": 2901,
      "##oll": 2902,
      "##nal": 2903,
      "##sh": 2904,
      "##lex": 2905,
      "choose": 2906,
      "indeed": 2907,
      "ended": 2908,
      "sorts": 2909,
      "publish": 2910,
      "Cl": 2911,
      "##anc": 2912,
      "remark": 2913,
      "passion": 2914,
      "colleag": 2915,
      "Tod": 2916,
      "zero": 2917,
      "##rap": 2918,
      "##olutions": 2919,
      "impossible": 2920,
      "##ama": 2921,
      "somewhere": 2922,
      "##ipt": 2923,
      "phen": 2924,
      "hyp": 2925,
      "taught": 2926,
      "larger": 2927,
      "purp": 2928,
      "extraordinary": 2929,
      "17": 2930,
      "War": 2931,
      "lands": 2932,
      "page": 2933,
      "sand": 2934,
      "##cape": 2935,
      "##ina": 2936,
      "##atory": 2937,
      "detect": 2938,
      "medicine": 2939,
      "##inct": 2940,
      "##ster": 2941,
      "doctor": 2942,
      "blind": 2943,
      "square": 2944,
      "kil": 2945,
      "Those": 2946,
      "above": 2947,
      "killed": 2948,
      "##estern": 2949,
      "deb": 2950,
      "enjoy": 2951,
      "phil": 2952,
      "sky": 2953,
      "##osphere": 2954,
      "lower": 2955,
      "##ued": 2956,
      "forms": 2957,
      "doc": 2958,
      "heav": 2959,
      "signific": 2960,
      "allowed": 2961,
      "temper": 2962,
      "mis": 2963,
      "pack": 2964,
      "manage": 2965,
      "univers": 2966,
      "##others": 2967,
      "influ": 2968,
      "products": 2969,
      "Chris": 2970,
      "cat": 2971,
      "dam": 2972,
      "fing": 2973,
      "fine": 2974,
      "##come": 2975,
      "##cise": 2976,
      "standing": 2977,
      "including": 2978,
      "complicated": 2979,
      "burn": 2980,
      "wife": 2981,
      "Ag": 2982,
      "##iers": 2983,
      "star": 2984,
      "introdu": 2985,
      "##izations": 2986,
      "##ables": 2987,
      "##ologists": 2988,
      "earth": 2989,
      "Car": 2990,
      "bank": 2991,
      "jump": 2992,
      "##sect": 2993,
      "##though": 2994,
      "##rage": 2995,
      "usually": 2996,
      "author": 2997,
      "training": 2998,
      "Christ": 2999,
      "traditional": 3000,
      "cases": 3001,
      "##urt": 3002,
      "truly": 3003,
      "allows": 3004,
      "increase": 3005,
      "position": 3006,
      "wild": 3007,
      "alive": 3008,
      "studies": 3009,
      "moral": 3010,
      "discuss": 3011,
      "phenomen": 3012,
      "mist": 3013,
      "oxy": 3014,
      "##ror": 3015,
      "##emic": 3016,
      "older": 3017,
      "##ission": 3018,
      "excited": 3019,
      "afford": 3020,
      "luck": 3021,
      "print": 3022,
      "beings": 3023,
      "roll": 3024,
      "organization": 3025,
      "infect": 3026,
      "distribut": 3027,
      "families": 3028,
      "Somet": 3029,
      "price": 3030,
      "unc": 3031,
      "points": 3032,
      "198": 3033,
      "engage": 3034,
      "critical": 3035,
      "Today": 3036,
      "hop": 3037,
      "##ured": 3038,
      "prote": 3039,
      "decision": 3040,
      "corre": 3041,
      "successful": 3042,
      "freed": 3043,
      "international": 3044,
      "Act": 3045,
      "card": 3046,
      "throw": 3047,
      "whe": 3048,
      "##set": 3049,
      "stars": 3050,
      "series": 3051,
      "wait": 3052,
      "crisis": 3053,
      "Like": 3054,
      "cook": 3055,
      "mention": 3056,
      "Americans": 3057,
      "reading": 3058,
      "respect": 3059,
      "region": 3060,
      "bur": 3061,
      "income": 3062,
      "finan": 3063,
      "lines": 3064,
      "tree": 3065,
      "##ining": 3066,
      "##enn": 3067,
      "ine": 3068,
      "upon": 3069,
      "prison": 3070,
      "college": 3071,
      "electricity": 3072,
      "bacteria": 3073,
      "!\"": 3074,
      "code": 3075,
      "Which": 3076,
      "cold": 3077,
      "conversation": 3078,
      "perspective": 3079,
      "East": 3080,
      "fasc": 3081,
      "##isms": 3082,
      "somehow": 3083,
      "##iven": 3084,
      "written": 3085,
      "pieces": 3086,
      "achieve": 3087,
      "##ring": 3088,
      "##inated": 3089,
      "healthy": 3090,
      "provide": 3091,
      "patterns": 3092,
      "occur": 3093,
      "urban": 3094,
      "straight": 3095,
      "port": 3096,
      "policy": 3097,
      "Ab": 3098,
      "TV": 3099,
      "fra": 3100,
      "rights": 3101,
      "content": 3102,
      "board": 3103,
      "kept": 3104,
      "smaller": 3105,
      "Isl": 3106,
      "##ef": 3107,
      "town": 3108,
      "weight": 3109,
      "quant": 3110,
      "expert": 3111,
      "##soci": 3112,
      "seconds": 3113,
      "physics": 3114,
      "increasing": 3115,
      "swe": 3116,
      "enorm": 3117,
      "anywhere": 3118,
      "biology": 3119,
      "treatment": 3120,
      "Ex": 3121,
      "ign": 3122,
      "##egr": 3123,
      "##go": 3124,
      "actual": 3125,
      "robots": 3126,
      "neurons": 3127,
      "service": 3128,
      "recognize": 3129,
      "version": 3130,
      "Sw": 3131,
      "sou": 3132,
      "##aging": 3133,
      "slight": 3134,
      "military": 3135,
      "sal": 3136,
      "##ech": 3137,
      "##iest": 3138,
      "shap": 3139,
      "himself": 3140,
      "Bl": 3141,
      "##vision": 3142,
      "trou": 3143,
      "calcul": 3144,
      "molec": 3145,
      "##fact": 3146,
      "doctors": 3147,
      "saving": 3148,
      "anymore": 3149,
      "##ube": 3150,
      "reflect": 3151,
      "architecture": 3152,
      "Ad": 3153,
      "Bra": 3154,
      "Mus": 3155,
      "##ulf": 3156,
      "##agine": 3157,
      "Afgh": 3158,
      "please": 3159,
      "13": 3160,
      "##eren": 3161,
      "##ays": 3162,
      "##imb": 3163,
      "dog": 3164,
      "effort": 3165,
      "address": 3166,
      "machines": 3167,
      "##ustrial": 3168,
      "catch": 3169,
      "narr": 3170,
      "web": 3171,
      "respond": 3172,
      "propert": 3173,
      "private": 3174,
      "transport": 3175,
      "21": 3176,
      "bodies": 3177,
      "##men": 3178,
      "##iced": 3179,
      "veh": 3180,
      "employ": 3181,
      "genes": 3182,
      "mir": 3183,
      "##rum": 3184,
      "##erman": 3185,
      "trick": 3186,
      "contribut": 3187,
      "magic": 3188,
      "performance": 3189,
      "daugh": 3190,
      "eth": 3191,
      "range": 3192,
      "effective": 3193,
      "shot": 3194,
      "spect": 3195,
      "loved": 3196,
      "desp": 3197,
      "greater": 3198,
      "decisions": 3199,
      "driving": 3200,
      "glass": 3201,
      "police": 3202,
      "strange": 3203,
      "Another": 3204,
      "painting": 3205,
      "earlier": 3206,
      "Har": 3207,
      "sam": 3208,
      "##zz": 3209,
      "becoming": 3210,
      "legs": 3211,
      "email": 3212,
      "determ": 3213,
      "yeah": 3214,
      "##bol": 3215,
      "##epend": 3216,
      "skills": 3217,
      "Ara": 3218,
      "##rep": 3219,
      "##iling": 3220,
      "##ained": 3221,
      "##thern": 3222,
      "willing": 3223,
      "remind": 3224,
      "famous": 3225,
      "innov": 3226,
      "clearly": 3227,
      "listening": 3228,
      "mental": 3229,
      "weren": 3230,
      "##rest": 3231,
      "expensive": 3232,
      "throughout": 3233,
      "Col": 3234,
      "##aking": 3235,
      "##met": 3236,
      "##lebr": 3237,
      "comfort": 3238,
      "production": 3239,
      "familiar": 3240,
      "Afghan": 3241,
      "##ried": 3242,
      "##dom": 3243,
      "thr": 3244,
      "##iti": 3245,
      "##itation": 3246,
      "store": 3247,
      "hun": 3248,
      "solutions": 3249,
      "##itude": 3250,
      "worry": 3251,
      "therefore": 3252,
      "unique": 3253,
      "##acity": 3254,
      "drink": 3255,
      "costs": 3256,
      "Mar": 3257,
      "rid": 3258,
      "rise": 3259,
      "##ping": 3260,
      "forth": 3261,
      "exh": 3262,
      "alg": 3263,
      "cloud": 3264,
      "direction": 3265,
      "Imagine": 3266,
      "park": 3267,
      "##inating": 3268,
      "##enced": 3269,
      "##ologist": 3270,
      "genetic": 3271,
      "societ": 3272,
      "levels": 3273,
      "fuel": 3274,
      "strugg": 3275,
      "Ste": 3276,
      "##mb": 3277,
      "##amic": 3278,
      "controll": 3279,
      "waiting": 3280,
      "website": 3281,
      "freedom": 3282,
      "##sequ": 3283,
      "##ceed": 3284,
      "autom": 3285,
      "practice": 3286,
      "intelligence": 3287,
      "fantastic": 3288,
      "rand": 3289,
      "dangerous": 3290,
      "##back": 3291,
      "##eral": 3292,
      "##aries": 3293,
      "##eless": 3294,
      "final": 3295,
      "300": 3296,
      "City": 3297,
      "##ches": 3298,
      "prep": 3299,
      "greatest": 3300,
      "beauty": 3301,
      "environmental": 3302,
      "John": 3303,
      "##atives": 3304,
      "hero": 3305,
      "celebr": 3306,
      "citizens": 3307,
      "weap": 3308,
      "##imately": 3309,
      "surg": 3310,
      "decade": 3311,
      "walked": 3312,
      "spirit": 3313,
      "##ystem": 3314,
      "atm": 3315,
      "minds": 3316,
      "institutions": 3317,
      "German": 3318,
      "cry": 3319,
      "ran": 3320,
      "##oint": 3321,
      "##osing": 3322,
      "##resh": 3323,
      "University": 3324,
      "electr": 3325,
      "massive": 3326,
      "optim": 3327,
      "Your": 3328,
      "lad": 3329,
      "pan": 3330,
      "##atically": 3331,
      "##orry": 3332,
      "##orrow": 3333,
      "wealth": 3334,
      "##vert": 3335,
      "values": 3336,
      "condition": 3337,
      "engineering": 3338,
      "floor": 3339,
      "immediately": 3340,
      "random": 3341,
      "90": 3342,
      "Western": 3343,
      "##oid": 3344,
      "##yr": 3345,
      "##ises": 3346,
      "select": 3347,
      "shark": 3348,
      "##istics": 3349,
      "invented": 3350,
      "dollar": 3351,
      "secret": 3352,
      "meeting": 3353,
      "match": 3354,
      "##rees": 3355,
      "plastic": 3356,
      "teaching": 3357,
      "types": 3358,
      "laws": 3359,
      "Two": 3360,
      "Cent": 3361,
      "ahead": 3362,
      "##uate": 3363,
      "##ashing": 3364,
      "coun": 3365,
      "Lond": 3366,
      "mal": 3367,
      "various": 3368,
      "Dr": 3369,
      "##aly": 3370,
      "##itor": 3371,
      "##iber": 3372,
      "decades": 3373,
      "##rene": 3374,
      "##airs": 3375,
      "demon": 3376,
      "##attle": 3377,
      "encou": 3378,
      "London": 3379,
      "Per": 3380,
      "Sch": 3381,
      "jud": 3382,
      "services": 3383,
      "multip": 3384,
      "##ils": 3385,
      "interview": 3386,
      "humanity": 3387,
      "career": 3388,
      "governments": 3389,
      "connection": 3390,
      "neighborhood": 3391,
      "et": 3392,
      "##yl": 3393,
      "simpl": 3394,
      "##rastruct": 3395,
      "24": 3396,
      "Ken": 3397,
      "Mars": 3398,
      "##iation": 3399,
      "decide": 3400,
      "apply": 3401,
      "following": 3402,
      "Second": 3403,
      "fit": 3404,
      "trem": 3405,
      "##iqu": 3406,
      "##antic": 3407,
      "although": 3408,
      "useful": 3409,
      "relative": 3410,
      "instance": 3411,
      "physic": 3412,
      "babies": 3413,
      "mut": 3414,
      "nation": 3415,
      "##sc": 3416,
      "##uct": 3417,
      "insect": 3418,
      "##iles": 3419,
      "uses": 3420,
      "electron": 3421,
      "remarkable": 3422,
      "Tr": 3423,
      "##ration": 3424,
      "##rupt": 3425,
      "scr": 3426,
      "##ricult": 3427,
      "popular": 3428,
      "standard": 3429,
      "terrible": 3430,
      "pressure": 3431,
      "method": 3432,
      "Austr": 3433,
      "Cong": 3434,
      "##SA": 3435,
      "##otyp": 3436,
      "associ": 3437,
      "##erson": 3438,
      "choices": 3439,
      "##unk": 3440,
      "possibly": 3441,
      "infrastruct": 3442,
      "effects": 3443,
      "flying": 3444,
      "enormous": 3445,
      "sus": 3446,
      "tun": 3447,
      "##ball": 3448,
      "##for": 3449,
      "surve": 3450,
      "honest": 3451,
      "af": 3452,
      "base": 3453,
      "nut": 3454,
      "yell": 3455,
      "forget": 3456,
      "trade": 3457,
      "diseas": 3458,
      "capacity": 3459,
      "motiv": 3460,
      "purpose": 3461,
      "demonstr": 3462,
      "dyn": 3463,
      "##50": 3464,
      "##aign": 3465,
      "##owd": 3466,
      "stress": 3467,
      "##key": 3468,
      "197": 3469,
      "politics": 3470,
      "From": 3471,
      "raise": 3472,
      "cust": 3473,
      "states": 3474,
      "anyway": 3475,
      "unl": 3476,
      "scan": 3477,
      "oppos": 3478,
      "challenges": 3479,
      "broad": 3480,
      "hous": 3481,
      "race": 3482,
      "sad": 3483,
      "##ox": 3484,
      "hair": 3485,
      "commer": 3486,
      "understood": 3487,
      "financial": 3488,
      "societies": 3489,
      "mamm": 3490,
      "tiss": 3491,
      "##aff": 3492,
      "##ervation": 3493,
      "express": 3494,
      "cultural": 3495,
      "microb": 3496,
      "vict": 3497,
      "##iforn": 3498,
      "altern": 3499,
      "integr": 3500,
      "helped": 3501,
      "slide": 3502,
      "speaking": 3503,
      "Californ": 3504,
      "slightly": 3505,
      "diseases": 3506,
      "ban": 3507,
      "##anced": 3508,
      "##pped": 3509,
      "supply": 3510,
      "Indian": 3511,
      "symbol": 3512,
      "female": 3513,
      "hyd": 3514,
      "Arab": 3515,
      "##reprene": 3516,
      "AI": 3517,
      "Pl": 3518,
      "pig": 3519,
      "paid": 3520,
      "##nel": 3521,
      "worst": 3522,
      "##itted": 3523,
      "surround": 3524,
      "speech": 3525,
      "Many": 3526,
      "destro": 3527,
      "philos": 3528,
      "Great": 3529,
      "##iring": 3530,
      "artist": 3531,
      "central": 3532,
      "fold": 3533,
      "television": 3534,
      "gather": 3535,
      "##gu": 3536,
      "##ancy": 3537,
      "##ander": 3538,
      "prevent": 3539,
      "invent": 3540,
      "below": 3541,
      "switch": 3542,
      "directly": 3543,
      "efficient": 3544,
      "colleagues": 3545,
      "temperature": 3546,
      "Dav": 3547,
      "rule": 3548,
      "wood": 3549,
      "##udd": 3550,
      "mostly": 3551,
      "196": 3552,
      "shared": 3553,
      "swim": 3554,
      "survive": 3555,
      "##board": 3556,
      "doub": 3557,
      "California": 3558,
      "Ira": 3559,
      "ir": 3560,
      "tens": 3561,
      "##oper": 3562,
      "whose": 3563,
      "offic": 3564,
      "Char": 3565,
      "religion": 3566,
      "70": 3567,
      "Su": 3568,
      "dad": 3569,
      "##ufact": 3570,
      "##wise": 3571,
      "agricult": 3572,
      "industrial": 3573,
      "programs": 3574,
      "tremend": 3575,
      "male": 3576,
      "belief": 3577,
      "relationships": 3578,
      "summer": 3579,
      "published": 3580,
      "Musl": 3581,
      "National": 3582,
      "oh": 3583,
      "##yle": 3584,
      "Think": 3585,
      "forces": 3586,
      "consequ": 3587,
      "creativity": 3588,
      "boys": 3589,
      "Good": 3590,
      "fat": 3591,
      "resist": 3592,
      "blog": 3593,
      "appl": 3594,
      "meters": 3595,
      "causes": 3596,
      "infrastructure": 3597,
      "aid": 3598,
      "loss": 3599,
      "task": 3600,
      "##na": 3601,
      "frame": 3602,
      "differences": 3603,
      "organizations": 3604,
      "total": 3605,
      "sustainable": 3606,
      "mobile": 3607,
      "oxygen": 3608,
      "##ios": 3609,
      "##wood": 3610,
      "##ked": 3611,
      "##arm": 3612,
      "##ute": 3613,
      "liber": 3614,
      "noticed": 3615,
      "##anda": 3616,
      "explore": 3617,
      "entreprene": 3618,
      "funny": 3619,
      "answers": 3620,
      "profound": 3621,
      "Afghanistan": 3622,
      "Iraq": 3623,
      "eating": 3624,
      "##cies": 3625,
      "##arian": 3626,
      "##olve": 3627,
      "asse": 3628,
      "heat": 3629,
      "expand": 3630,
      "evolved": 3631,
      "biological": 3632,
      "radio": 3633,
      "##ya": 3634,
      "##cience": 3635,
      "##izes": 3636,
      "produced": 3637,
      "##cules": 3638,
      "legal": 3639,
      "campaign": 3640,
      "mountain": 3641,
      "closer": 3642,
      "diagn": 3643,
      "atmosphere": 3644,
      "Iran": 3645,
      "mid": 3646,
      "##iot": 3647,
      "##cl": 3648,
      "##raid": 3649,
      "active": 3650,
      "manufact": 3651,
      "related": 3652,
      "markets": 3653,
      "Mich": 3654,
      "hole": 3655,
      "##gy": 3656,
      "##inate": 3657,
      "##ened": 3658,
      "##cks": 3659,
      "twice": 3660,
      "##aced": 3661,
      "##rench": 3662,
      "played": 3663,
      "stopped": 3664,
      "original": 3665,
      "##load": 3666,
      "Again": 3667,
      "trouble": 3668,
      "surgery": 3669,
      "Face": 3670,
      "Russ": 3671,
      "spaces": 3672,
      "##ement": 3673,
      "networks": 3674,
      "afraid": 3675,
      "His": 3676,
      "bought": 3677,
      "hus": 3678,
      "##leg": 3679,
      "workers": 3680,
      "Hey": 3681,
      "streets": 3682,
      "communicate": 3683,
      "##esis": 3684,
      "shock": 3685,
      "compon": 3686,
      "tax": 3687,
      "poet": 3688,
      "displ": 3689,
      "gotten": 3690,
      "corner": 3691,
      "journal": 3692,
      "En": 3693,
      "mix": 3694,
      "wire": 3695,
      "##uing": 3696,
      "applic": 3697,
      "independ": 3698,
      "highly": 3699,
      "San": 3700,
      "wide": 3701,
      "##vest": 3702,
      "##icles": 3703,
      "##amb": 3704,
      "##rael": 3705,
      "ord": 3706,
      "smell": 3707,
      "##order": 3708,
      "feels": 3709,
      "missing": 3710,
      "responsibility": 3711,
      "Instead": 3712,
      "custom": 3713,
      "Rob": 3714,
      "dying": 3715,
      "fort": 3716,
      "seemed": 3717,
      "##aining": 3718,
      "Israel": 3719,
      "histor": 3720,
      "easily": 3721,
      "experiments": 3722,
      "shoot": 3723,
      "dance": 3724,
      "vast": 3725,
      "##itter": 3726,
      "##atell": 3727,
      "knowing": 3728,
      "##ception": 3729,
      "##ashion": 3730,
      "emotional": 3731,
      "molecules": 3732,
      "lack": 3733,
      "##orith": 3734,
      "seas": 3735,
      "classroom": 3736,
      "##exic": 3737,
      "surprising": 3738,
      "rough": 3739,
      "##here": 3740,
      "##zil": 3741,
      "party": 3742,
      "##ibr": 3743,
      "differently": 3744,
      "basis": 3745,
      "planets": 3746,
      "degrees": 3747,
      "den": 3748,
      "##val": 3749,
      "##water": 3750,
      "##band": 3751,
      "gold": 3752,
      "##ulner": 3753,
      "coff": 3754,
      "creates": 3755,
      "helping": 3756,
      "demand": 3757,
      "photo": 3758,
      "experiences": 3759,
      "birds": 3760,
      "Brazil": 3761,
      "daughter": 3762,
      "algorith": 3763,
      "Mexic": 3764,
      "hall": 3765,
      "sick": 3766,
      "##edia": 3767,
      "##istry": 3768,
      "##used": 3769,
      "dram": 3770,
      "designers": 3771,
      "attract": 3772,
      "reduce": 3773,
      "significant": 3774,
      "Me": 3775,
      "Par": 3776,
      "cru": 3777,
      "diversity": 3778,
      "none": 3779,
      "##night": 3780,
      "##hy": 3781,
      "##omm": 3782,
      "sharing": 3783,
      "Thanks": 3784,
      "members": 3785,
      "window": 3786,
      "rapid": 3787,
      "Austral": 3788,
      "satell": 3789,
      "##ky": 3790,
      "weird": 3791,
      "habit": 3792,
      "trip": 3793,
      "##empt": 3794,
      "flight": 3795,
      "engineer": 3796,
      "complexity": 3797,
      "Actually": 3798,
      "David": 3799,
      "iP": 3800,
      "##uc": 3801,
      "genome": 3802,
      "focused": 3803,
      "broken": 3804,
      "communication": 3805,
      "dinos": 3806,
      "Mr": 3807,
      "Sc": 3808,
      "fashion": 3809,
      "inj": 3810,
      "##ste": 3811,
      "bub": 3812,
      "background": 3813,
      "bringing": 3814,
      "scientist": 3815,
      "spending": 3816,
      "nearly": 3817,
      "##cript": 3818,
      "consciousness": 3819,
      "Ne": 3820,
      "Te": 3821,
      "##af": 3822,
      "##arter": 3823,
      "##ica": 3824,
      "##icking": 3825,
      "shift": 3826,
      "climb": 3827,
      "contact": 3828,
      "target": 3829,
      "etc": 3830,
      "Facebook": 3831,
      "Nob": 3832,
      "gent": 3833,
      "hom": 3834,
      "hang": 3835,
      "rare": 3836,
      "reb": 3837,
      "conference": 3838,
      "teen": 3839,
      "agree": 3840,
      "muse": 3841,
      "visit": 3842,
      "airpl": 3843,
      "edge": 3844,
      "commercial": 3845,
      "400": 3846,
      "Dar": 3847,
      "Did": 3848,
      "##aul": 3849,
      "stren": 3850,
      "##cell": 3851,
      "ang": 3852,
      "##ears": 3853,
      "##osystem": 3854,
      "studying": 3855,
      "crowd": 3856,
      "lights": 3857,
      "analy": 3858,
      "volun": 3859,
      "correct": 3860,
      "Con": 3861,
      "bul": 3862,
      "ske": 3863,
      "hearing": 3864,
      "addition": 3865,
      "devices": 3866,
      "Gl": 3867,
      "Take": 3868,
      "vulner": 3869,
      "##DS": 3870,
      "##rogen": 3871,
      "org": 3872,
      "trib": 3873,
      "boat": 3874,
      "metap": 3875,
      "breast": 3876,
      "opportunities": 3877,
      "tremendous": 3878,
      "More": 3879,
      "Will": 3880,
      "tum": 3881,
      "ut": 3882,
      "bees": 3883,
      "##ording": 3884,
      "join": 3885,
      "religious": 3886,
      "inspired": 3887,
      "bomb": 3888,
      "landscape": 3889,
      "strength": 3890,
      "Middle": 3891,
      "Over": 3892,
      "fro": 3893,
      "##ees": 3894,
      "hack": 3895,
      "##oof": 3896,
      "sexual": 3897,
      "ecosystem": 3898,
      "##aim": 3899,
      "tail": 3900,
      "flag": 3901,
      "fully": 3902,
      "fairly": 3903,
      "core": 3904,
      "cred": 3905,
      "##vit": 3906,
      "##edd": 3907,
      "stem": 3908,
      "ancient": 3909,
      "held": 3910,
      "cooper": 3911,
      "brill": 3912,
      "imagination": 3913,
      "forever": 3914,
      "parad": 3915,
      "brand": 3916,
      "yellow": 3917,
      "beat": 3918,
      "desert": 3919,
      "passed": 3920,
      "mission": 3921,
      "identity": 3922,
      "Nor": 3923,
      "bread": 3924,
      "batter": 3925,
      "##win": 3926,
      "therap": 3927,
      "##reci": 3928,
      "shop": 3929,
      "Web": 3930,
      "harm": 3931,
      "museum": 3932,
      "Ob": 3933,
      "##edic": 3934,
      "shel": 3935,
      "amb": 3936,
      "distance": 3937,
      "cheap": 3938,
      "pleas": 3939,
      "lucky": 3940,
      "coffee": 3941,
      "mort": 3942,
      "##ening": 3943,
      "##aling": 3944,
      "recover": 3945,
      "forg": 3946,
      "aspect": 3947,
      "creatures": 3948,
      "European": 3949,
      "argument": 3950,
      "degree": 3951,
      "definition": 3952,
      "phenomenon": 3953,
      "opposite": 3954,
      "cogn": 3955,
      "mill": 3956,
      "mouth": 3957,
      "ver": 3958,
      "##orders": 3959,
      "turning": 3960,
      "artists": 3961,
      "possibility": 3962,
      "raised": 3963,
      "failure": 3964,
      "farmers": 3965,
      "kilomet": 3966,
      "wheel": 3967,
      "despite": 3968,
      "exer": 3969,
      "hell": 3970,
      "##ruption": 3971,
      "magaz": 3972,
      "describe": 3973,
      "negative": 3974,
      "Mc": 3975,
      "Would": 3976,
      "gun": 3977,
      "giant": 3978,
      "host": 3979,
      "##ada": 3980,
      "ship": 3981,
      "note": 3982,
      "##ifying": 3983,
      "particles": 3984,
      "easier": 3985,
      "##idden": 3986,
      "##ography": 3987,
      "advant": 3988,
      "dreams": 3989,
      "gentle": 3990,
      "Aud": 3991,
      "rout": 3992,
      "##cest": 3993,
      "##ford": 3994,
      "##atures": 3995,
      "notion": 3996,
      "events": 3997,
      "##itely": 3998,
      "moments": 3999,
      "figured": 4000,
      "structures": 4001,
      "AIDS": 4002,
      "Niger": 4003,
      "##iam": 4004,
      "##zen": 4005,
      "##orge": 4006,
      "##irt": 4007,
      "partners": 4008,
      "coast": 4009,
      "importantly": 4010,
      "repe": 4011,
      "##ification": 4012,
      "foreign": 4013,
      "vacc": 4014,
      "bound": 4015,
      "nor": 4016,
      "sorry": 4017,
      "##ulpt": 4018,
      "plat": 4019,
      "sculpt": 4020,
      "smo": 4021,
      "entirely": 4022,
      "benefits": 4023,
      "suffering": 4024,
      "Rich": 4025,
      "ble": 4026,
      "##ratic": 4027,
      "##ps": 4028,
      "##cles": 4029,
      "tom": 4030,
      "ancest": 4031,
      "##roud": 4032,
      "##ager": 4033,
      "##ipped": 4034,
      "French": 4035,
      "ax": 4036,
      "bud": 4037,
      "fol": 4038,
      "joy": 4039,
      "master": 4040,
      "##of": 4041,
      "##rom": 4042,
      "stream": 4043,
      "##ulations": 4044,
      "click": 4045,
      "traffic": 4046,
      "However": 4047,
      "Asia": 4048,
      "regular": 4049,
      "Fl": 4050,
      "Have": 4051,
      "##house": 4052,
      "chimp": 4053,
      "poem": 4054,
      "calls": 4055,
      "brings": 4056,
      "appreci": 4057,
      "elements": 4058,
      "necessarily": 4059,
      "puzz": 4060,
      "CO": 4061,
      "See": 4062,
      "Very": 4063,
      "billions": 4064,
      "north": 4065,
      "wis": 4066,
      "##igr": 4067,
      "chick": 4068,
      "concent": 4069,
      "sport": 4070,
      "##ellect": 4071,
      "invis": 4072,
      "photos": 4073,
      "charge": 4074,
      "require": 4075,
      "responsible": 4076,
      "dimensional": 4077,
      "epid": 4078,
      "Sometimes": 4079,
      "Big": 4080,
      "Ha": 4081,
      "iron": 4082,
      "##tle": 4083,
      "##vity": 4084,
      "compl": 4085,
      "quote": 4086,
      "brother": 4087,
      "attempt": 4088,
      "accur": 4089,
      "restaur": 4090,
      "holding": 4091,
      "competition": 4092,
      "tissue": 4093,
      "odd": 4094,
      "proud": 4095,
      "tough": 4096,
      "##reet": 4097,
      "##urb": 4098,
      "seed": 4099,
      "bridge": 4100,
      "studied": 4101,
      "remote": 4102,
      "Once": 4103,
      "frequ": 4104,
      "leadership": 4105,
      "counter": 4106,
      "##gypt": 4107,
      "Dan": 4108,
      "mouse": 4109,
      "pounds": 4110,
      "##reg": 4111,
      "inform": 4112,
      "##icians": 4113,
      "intellect": 4114,
      "previous": 4115,
      "helps": 4116,
      "corpor": 4117,
      "opened": 4118,
      "leading": 4119,
      "emotion": 4120,
      "virtual": 4121,
      "philosoph": 4122,
      "Egypt": 4123,
      "Gu": 4124,
      "Gen": 4125,
      "tast": 4126,
      "##vere": 4127,
      "##onom": 4128,
      "##celer": 4129,
      "sector": 4130,
      "##ulated": 4131,
      "##ifically": 4132,
      "clock": 4133,
      "grass": 4134,
      "indic": 4135,
      "oceans": 4136,
      "motor": 4137,
      "grandm": 4138,
      "necessary": 4139,
      "balance": 4140,
      "weapons": 4141,
      "husband": 4142,
      "##stein": 4143,
      "egg": 4144,
      "##inally": 4145,
      "##ctions": 4146,
      "##idents": 4147,
      "##verse": 4148,
      "##ulous": 4149,
      "##ibilities": 4150,
      "adapt": 4151,
      "##ysis": 4152,
      "letter": 4153,
      "subst": 4154,
      "trained": 4155,
      "pollut": 4156,
      "document": 4157,
      "Life": 4158,
      "Sun": 4159,
      "cand": 4160,
      "##ls": 4161,
      "maint": 4162,
      "gene": 4163,
      "shouldn": 4164,
      "believed": 4165,
      "matters": 4166,
      "double": 4167,
      "ultimately": 4168,
      "faith": 4169,
      "brilliant": 4170,
      "Ed": 4171,
      "##eared": 4172,
      "##now": 4173,
      "##atr": 4174,
      "##reed": 4175,
      "##uments": 4176,
      "truck": 4177,
      "##oses": 4178,
      "stuck": 4179,
      "discovery": 4180,
      "failed": 4181,
      "unfortunately": 4182,
      "adults": 4183,
      "destroy": 4184,
      "Des": 4185,
      "fab": 4186,
      "##ront": 4187,
      "##pan": 4188,
      "##vant": 4189,
      "##artment": 4190,
      "noise": 4191,
      "childhood": 4192,
      "colors": 4193,
      "leads": 4194,
      "signal": 4195,
      "succeed": 4196,
      "150": 4197,
      "caught": 4198,
      "convin": 4199,
      "platform": 4200,
      "foss": 4201,
      "gard": 4202,
      "hate": 4203,
      "river": 4204,
      "##ius": 4205,
      "##gar": 4206,
      "##inc": 4207,
      "##urch": 4208,
      "spot": 4209,
      "prior": 4210,
      "##iable": 4211,
      "investment": 4212,
      "majority": 4213,
      "professional": 4214,
      "concerned": 4215,
      "pet": 4216,
      "weak": 4217,
      "university": 4218,
      "##connect": 4219,
      "creation": 4220,
      "profit": 4221,
      "typical": 4222,
      "insects": 4223,
      "Bang": 4224,
      "Gra": 4225,
      "fle": 4226,
      "lunch": 4227,
      "##ogen": 4228,
      "bright": 4229,
      "##ographic": 4230,
      "construct": 4231,
      "fighting": 4232,
      "leaving": 4233,
      "benefit": 4234,
      "##oom": 4235,
      "##ij": 4236,
      "tor": 4237,
      "##agers": 4238,
      "acceler": 4239,
      "##print": 4240,
      "newsp": 4241,
      "deeply": 4242,
      "element": 4243,
      "summ": 4244,
      "slowly": 4245,
      "sequence": 4246,
      "influence": 4247,
      "exhib": 4248,
      "unlike": 4249,
      "bag": 4250,
      "##terday": 4251,
      "moves": 4252,
      "exch": 4253,
      "novel": 4254,
      "##phone": 4255,
      "crash": 4256,
      "finished": 4257,
      "lesson": 4258,
      "king": 4259,
      "names": 4260,
      "sister": 4261,
      "##lands": 4262,
      "defe": 4263,
      "##pper": 4264,
      "compared": 4265,
      "adop": 4266,
      "install": 4267,
      "prototyp": 4268,
      "constantly": 4269,
      "synth": 4270,
      "protein": 4271,
      "Ple": 4272,
      "tour": 4273,
      "##pid": 4274,
      "##lin": 4275,
      "reve": 4276,
      "##throp": 4277,
      "managed": 4278,
      "closed": 4279,
      "capable": 4280,
      "paying": 4281,
      "##ropri": 4282,
      "##ipping": 4283,
      "argue": 4284,
      "embra": 4285,
      "British": 4286,
      "finger": 4287,
      "bone": 4288,
      "fresh": 4289,
      "pun": 4290,
      "rot": 4291,
      "tit": 4292,
      "##ses": 4293,
      "##erly": 4294,
      "##enty": 4295,
      "ants": 4296,
      "##roc": 4297,
      "moon": 4298,
      "##elling": 4299,
      "grade": 4300,
      "factory": 4301,
      "transm": 4302,
      "insight": 4303,
      "attach": 4304,
      "accident": 4305,
      "begins": 4306,
      "depression": 4307,
      "paint": 4308,
      "consumption": 4309,
      "emotions": 4310,
      "walls": 4311,
      "described": 4312,
      "strategy": 4313,
      "fascinating": 4314,
      "Ke": 4315,
      "la": 4316,
      "##mark": 4317,
      "reward": 4318,
      "stim": 4319,
      "seat": 4320,
      "##ads": 4321,
      "##ortex": 4322,
      "saf": 4323,
      "interp": 4324,
      "phones": 4325,
      "##athy": 4326,
      "opin": 4327,
      "organisms": 4328,
      "equival": 4329,
      "collective": 4330,
      "interaction": 4331,
      "surprise": 4332,
      "metaphor": 4333,
      "Audience": 4334,
      "Bas": 4335,
      "Her": 4336,
      "band": 4337,
      "era": 4338,
      "faces": 4339,
      "ju": 4340,
      "##ength": 4341,
      "##esth": 4342,
      "##ald": 4343,
      "##ami": 4344,
      "otherwise": 4345,
      "talks": 4346,
      "empt": 4347,
      "equal": 4348,
      "operating": 4349,
      "horr": 4350,
      "mathematics": 4351,
      "quantum": 4352,
      "Bill": 4353,
      "Min": 4354,
      "NA": 4355,
      "round": 4356,
      "##IT": 4357,
      "##oted": 4358,
      "shr": 4359,
      "##essed": 4360,
      "##osm": 4361,
      "coral": 4362,
      "engineers": 4363,
      "Everybody": 4364,
      "perfectly": 4365,
      "separate": 4366,
      "cognitive": 4367,
      "advantage": 4368,
      "invisible": 4369,
      "Paul": 4370,
      "roof": 4371,
      "##ancing": 4372,
      "##urally": 4373,
      "##illed": 4374,
      "##iff": 4375,
      "justice": 4376,
      "grown": 4377,
      "driven": 4378,
      "##itute": 4379,
      "avoid": 4380,
      "Hum": 4381,
      "categ": 4382,
      "##ino": 4383,
      "##inist": 4384,
      "tox": 4385,
      "##entally": 4386,
      "##uries": 4387,
      "soil": 4388,
      "alt": 4389,
      "##apers": 4390,
      "artific": 4391,
      "fourth": 4392,
      "followed": 4393,
      "Franc": 4394,
      "civilization": 4395,
      "currently": 4396,
      "empower": 4397,
      "principles": 4398,
      "volunte": 4399,
      "Jo": 4400,
      "Washing": 4401,
      "homes": 4402,
      "purs": 4403,
      "ren": 4404,
      "south": 4405,
      "##iage": 4406,
      "##gment": 4407,
      "##encies": 4408,
      "whom": 4409,
      "wearing": 4410,
      "meat": 4411,
      "hasn": 4412,
      "precise": 4413,
      "Does": 4414,
      "feedback": 4415,
      "cycle": 4416,
      "breath": 4417,
      "galaxies": 4418,
      "mentioned": 4419,
      "Mexico": 4420,
      "Ben": 4421,
      "dial": 4422,
      "##vention": 4423,
      "##anes": 4424,
      "##asion": 4425,
      "wear": 4426,
      "unp": 4427,
      "lock": 4428,
      "##roph": 4429,
      "eleph": 4430,
      "extreme": 4431,
      "surprised": 4432,
      "Each": 4433,
      "Fe": 4434,
      "ath": 4435,
      "##iors": 4436,
      "##cra": 4437,
      "##oration": 4438,
      "incent": 4439,
      "##icity": 4440,
      "Three": 4441,
      "worried": 4442,
      "unless": 4443,
      "brief": 4444,
      "harder": 4445,
      "leader": 4446,
      "treated": 4447,
      "equip": 4448,
      "limited": 4449,
      "replace": 4450,
      "Australia": 4451,
      "equivalent": 4452,
      "Em": 4453,
      "Red": 4454,
      "Sm": 4455,
      "fed": 4456,
      "##hold": 4457,
      "##care": 4458,
      "weather": 4459,
      "##irm": 4460,
      "everyday": 4461,
      "fell": 4462,
      "contract": 4463,
      "planning": 4464,
      "businesses": 4465,
      "circle": 4466,
      "England": 4467,
      "Twitter": 4468,
      "vehicle": 4469,
      "Francis": 4470,
      "Washington": 4471,
      "35": 4472,
      "due": 4473,
      "gar": 4474,
      "lapt": 4475,
      "##cket": 4476,
      "intu": 4477,
      "compare": 4478,
      "desire": 4479,
      "belong": 4480,
      "20th": 4481,
      "heads": 4482,
      "languages": 4483,
      "investig": 4484,
      "symmet": 4485,
      "received": 4486,
      "galaxy": 4487,
      "Je": 4488,
      "nerv": 4489,
      "wave": 4490,
      "##uild": 4491,
      "##RI": 4492,
      "##apse": 4493,
      "arms": 4494,
      "prefer": 4495,
      "invited": 4496,
      "##grad": 4497,
      "accom": 4498,
      "versus": 4499,
      "layer": 4500,
      "married": 4501,
      "alternative": 4502,
      "wisdom": 4503,
      "Co": 4504,
      "Park": 4505,
      "tal": 4506,
      "##rict": 4507,
      "##ae": 4508,
      "##otic": 4509,
      "extend": 4510,
      "chair": 4511,
      "##emy": 4512,
      "fellow": 4513,
      "surge": 4514,
      "designer": 4515,
      "subm": 4516,
      "watched": 4517,
      "Everything": 4518,
      "replic": 4519,
      "molecule": 4520,
      "magazine": 4521,
      "Richard": 4522,
      "App": 4523,
      "Pal": 4524,
      "##ray": 4525,
      "##cil": 4526,
      "##anz": 4527,
      "##aria": 4528,
      "##ildren": 4529,
      "implic": 4530,
      "blow": 4531,
      "highest": 4532,
      "##issions": 4533,
      "survival": 4534,
      "soldiers": 4535,
      "launched": 4536,
      "Ah": 4537,
      "El": 4538,
      "battle": 4539,
      "cosm": 4540,
      "mothers": 4541,
      "exists": 4542,
      "users": 4543,
      "quiet": 4544,
      "##ensity": 4545,
      "commit": 4546,
      "##aked": 4547,
      "agriculture": 4548,
      "Darwin": 4549,
      "equipment": 4550,
      "dry": 4551,
      "pages": 4552,
      "##ara": 4553,
      "dol": 4554,
      "##iration": 4555,
      "prost": 4556,
      "##umber": 4557,
      "##unt": 4558,
      "acad": 4559,
      "stupid": 4560,
      "testing": 4561,
      "anti": 4562,
      "sentence": 4563,
      "drawing": 4564,
      "seriously": 4565,
      "debate": 4566,
      "associated": 4567,
      "nutr": 4568,
      "Pres": 4569,
      "date": 4570,
      "toward": 4571,
      "##ett": 4572,
      "mos": 4573,
      "thinks": 4574,
      "coal": 4575,
      "puts": 4576,
      "##ords": 4577,
      "colon": 4578,
      "organic": 4579,
      "curious": 4580,
      "hopefully": 4581,
      "normally": 4582,
      "motion": 4583,
      "identify": 4584,
      "dinner": 4585,
      "filled": 4586,
      "Germany": 4587,
      "99": 4588,
      "Rep": 4589,
      "tap": 4590,
      "##ok": 4591,
      "##lies": 4592,
      "refer": 4593,
      "reef": 4594,
      "##cip": 4595,
      "veget": 4596,
      "expression": 4597,
      "partner": 4598,
      "economics": 4599,
      "existence": 4600,
      "review": 4601,
      "resource": 4602,
      "intelligent": 4603,
      "distribution": 4604,
      "shapes": 4605,
      "multiple": 4606,
      "kilometers": 4607,
      "CO2": 4608,
      "nervous": 4609,
      "Ein": 4610,
      "grain": 4611,
      "nan": 4612,
      "rural": 4613,
      "##tain": 4614,
      "##ession": 4615,
      "flat": 4616,
      "players": 4617,
      "infin": 4618,
      "warm": 4619,
      "steps": 4620,
      "gender": 4621,
      "astron": 4622,
      "increasingly": 4623,
      "Res": 4624,
      "Val": 4625,
      "hidden": 4626,
      "tick": 4627,
      "ves": 4628,
      "##pet": 4629,
      "##ym": 4630,
      "##ume": 4631,
      "##ushing": 4632,
      "##ago": 4633,
      "technical": 4634,
      "driver": 4635,
      "plane": 4636,
      "article": 4637,
      "opening": 4638,
      "processes": 4639,
      "signals": 4640,
      "illness": 4641,
      "yesterday": 4642,
      "statistics": 4643,
      "lifet": 4644,
      "Japanese": 4645,
      "heavy": 4646,
      "property": 4647,
      "folks": 4648,
      "Green": 4649,
      "tall": 4650,
      "##hab": 4651,
      "reform": 4652,
      "station": 4653,
      "##anted": 4654,
      "##estic": 4655,
      "chain": 4656,
      "myth": 4657,
      "saved": 4658,
      "transformation": 4659,
      "explan": 4660,
      "according": 4661,
      "setting": 4662,
      "sites": 4663,
      "neuros": 4664,
      "caused": 4665,
      "covered": 4666,
      "leaves": 4667,
      "universal": 4668,
      "comfortable": 4669,
      "ordinary": 4670,
      "safety": 4671,
      "dolph": 4672,
      "Bar": 4673,
      "Rem": 4674,
      "##nding": 4675,
      "##oman": 4676,
      "bear": 4677,
      "abst": 4678,
      "##forest": 4679,
      "##ocol": 4680,
      "importance": 4681,
      "##ended": 4682,
      "generations": 4683,
      "warming": 4684,
      "conduct": 4685,
      "diet": 4686,
      "antib": 4687,
      "circum": 4688,
      "clinical": 4689,
      "struggle": 4690,
      "airplane": 4691,
      "intellectual": 4692,
      "pal": 4693,
      "inner": 4694,
      "island": 4695,
      "stood": 4696,
      "shut": 4697,
      "scen": 4698,
      "dealing": 4699,
      "dimensions": 4700,
      "awful": 4701,
      "daily": 4702,
      "##craft": 4703,
      "King": 4704,
      "Kore": 4705,
      "losing": 4706,
      "##rie": 4707,
      "##port": 4708,
      "##vard": 4709,
      "theater": 4710,
      "tons": 4711,
      "##icy": 4712,
      "##owers": 4713,
      "rein": 4714,
      "##olves": 4715,
      "shif": 4716,
      "frustr": 4717,
      "spoke": 4718,
      "##place": 4719,
      "designing": 4720,
      "organized": 4721,
      "researchers": 4722,
      "concl": 4723,
      "experienced": 4724,
      "principle": 4725,
      "Britain": 4726,
      "announ": 4727,
      "Kenya": 4728,
      "Einstein": 4729,
      "vessel": 4730,
      "45": 4731,
      "Times": 4732,
      "gap": 4733,
      "hide": 4734,
      "mile": 4735,
      "pil": 4736,
      "rhy": 4737,
      "##aurs": 4738,
      "toile": 4739,
      "forced": 4740,
      "libr": 4741,
      "god": 4742,
      "hadn": 4743,
      "resc": 4744,
      "calling": 4745,
      "amp": 4746,
      "scene": 4747,
      "##ublic": 4748,
      "appropri": 4749,
      "crime": 4750,
      "valu": 4751,
      "cutting": 4752,
      "fields": 4753,
      "essential": 4754,
      "analysis": 4755,
      "shoes": 4756,
      "21st": 4757,
      "electrical": 4758,
      "consequences": 4759,
      "artificial": 4760,
      "Could": 4761,
      "Mo": 4762,
      "MIT": 4763,
      "cow": 4764,
      "##aves": 4765,
      "##cast": 4766,
      "##erves": 4767,
      "tow": 4768,
      "liked": 4769,
      "##add": 4770,
      "pros": 4771,
      "spl": 4772,
      "cloth": 4773,
      "disp": 4774,
      "facts": 4775,
      "finish": 4776,
      "grab": 4777,
      "signs": 4778,
      "wondering": 4779,
      "killing": 4780,
      "picked": 4781,
      "movies": 4782,
      "copy": 4783,
      "arrived": 4784,
      "negot": 4785,
      "management": 4786,
      "damage": 4787,
      "poetry": 4788,
      "grandmother": 4789,
      "convinced": 4790,
      "Come": 4791,
      "Pak": 4792,
      "soph": 4793,
      "init": 4794,
      "Their": 4795,
      "player": 4796,
      "bits": 4797,
      "continu": 4798,
      "limit": 4799,
      "considered": 4800,
      "estab": 4801,
      "Pakistan": 4802,
      "dots": 4803,
      "gall": 4804,
      "##cope": 4805,
      "##zing": 4806,
      "##ato": 4807,
      "##rete": 4808,
      "##lly": 4809,
      "height": 4810,
      "tech": 4811,
      "##cipl": 4812,
      "qual": 4813,
      "advert": 4814,
      "connections": 4815,
      "professor": 4816,
      "School": 4817,
      "microbes": 4818,
      "satellite": 4819,
      "fossil": 4820,
      "Gree": 4821,
      "holes": 4822,
      "rat": 4823,
      "row": 4824,
      "##wide": 4825,
      "recon": 4826,
      "peak": 4827,
      "manip": 4828,
      "Inter": 4829,
      "surf": 4830,
      "##neath": 4831,
      "producing": 4832,
      "muscle": 4833,
      "continent": 4834,
      "deeper": 4835,
      "refuge": 4836,
      "variety": 4837,
      "credit": 4838,
      "Please": 4839,
      "Last": 4840,
      "Mil": 4841,
      "il": 4842,
      "##right": 4843,
      "##iency": 4844,
      "##mas": 4845,
      "lie": 4846,
      "lift": 4847,
      "##pping": 4848,
      "perce": 4849,
      "##acle": 4850,
      "letters": 4851,
      "feelings": 4852,
      "consist": 4853,
      "possibilities": 4854,
      "##gged": 4855,
      "reaction": 4856,
      "chemicals": 4857,
      "empty": 4858,
      "kick": 4859,
      "##ael": 4860,
      "##my": 4861,
      "##lement": 4862,
      "stock": 4863,
      "plus": 4864,
      "whenever": 4865,
      "##abet": 4866,
      "##acing": 4867,
      "recy": 4868,
      "healthcare": 4869,
      "corruption": 4870,
      "solid": 4871,
      "expected": 4872,
      "chemistry": 4873,
      "sources": 4874,
      "encoun": 4875,
      "Amaz": 4876,
      "Comm": 4877,
      "marriage": 4878,
      "trials": 4879,
      "independent": 4880,
      "exercise": 4881,
      "tomorrow": 4882,
      "Mart": 4883,
      "ends": 4884,
      "##hi": 4885,
      "##mber": 4886,
      "##fish": 4887,
      "##zed": 4888,
      "##icip": 4889,
      "##tered": 4890,
      "pray": 4891,
      "president": 4892,
      "waves": 4893,
      "construction": 4894,
      "messages": 4895,
      "Swed": 4896,
      "Harvard": 4897,
      "battery": 4898,
      "budget": 4899,
      "3D": 4900,
      "fal": 4901,
      "ho": 4902,
      "length": 4903,
      "ten": 4904,
      "vote": 4905,
      "##ends": 4906,
      "##gl": 4907,
      "lies": 4908,
      "##odes": 4909,
      "##abb": 4910,
      "evil": 4911,
      "underneath": 4912,
      "crim": 4913,
      "auth": 4914,
      "videos": 4915,
      "advanced": 4916,
      "collection": 4917,
      "consumer": 4918,
      "illustr": 4919,
      "selling": 4920,
      "experts": 4921,
      "dinosaurs": 4922,
      "President": 4923,
      "Cam": 4924,
      "hurt": 4925,
      "lat": 4926,
      "rates": 4927,
      "wake": 4928,
      "##encing": 4929,
      "##ulating": 4930,
      "user": 4931,
      "##acters": 4932,
      "transition": 4933,
      "keeping": 4934,
      "Atl": 4935,
      "broke": 4936,
      "absolute": 4937,
      "requires": 4938,
      "pengu": 4939,
      "status": 4940,
      "George": 4941,
      "Islam": 4942,
      "dynamic": 4943,
      "Jew": 4944,
      "Sat": 4945,
      "gang": 4946,
      "pump": 4947,
      "##ait": 4948,
      "##ux": 4949,
      "##bel": 4950,
      "##itness": 4951,
      "##osition": 4952,
      "perm": 4953,
      "interface": 4954,
      "##ension": 4955,
      "ide": 4956,
      "ideal": 4957,
      "characters": 4958,
      "location": 4959,
      "facing": 4960,
      "cartoon": 4961,
      "sharks": 4962,
      "relatively": 4963,
      "fortun": 4964,
      "valuable": 4965,
      "illeg": 4966,
      "voices": 4967,
      "##DP": 4968,
      "##aled": 4969,
      "isol": 4970,
      "##rove": 4971,
      "##ests": 4972,
      "chap": 4973,
      "myst": 4974,
      "prove": 4975,
      "mak": 4976,
      "teeth": 4977,
      "thoughts": 4978,
      "carefully": 4979,
      "Frank": 4980,
      "privile": 4981,
      "capture": 4982,
      "disappear": 4983,
      "entrepreneurs": 4984,
      "roughly": 4985,
      "rapidly": 4986,
      "sophistic": 4987,
      "CE": 4988,
      "gift": 4989,
      "und": 4990,
      "##do": 4991,
      "bee": 4992,
      "teles": 4993,
      "desk": 4994,
      "fewer": 4995,
      "195": 4996,
      "generate": 4997,
      "member": 4998,
      "cultures": 4999,
      "lawy": 5000,
      "represents": 5001,
      "emerging": 5002,
      "carrying": 5003,
      "Center": 5004,
      "##iques": 5005,
      "epidemic": 5006,
      "exchange": 5007,
      "GDP": 5008,
      "Sim": 5009,
      "gain": 5010,
      "pure": 5011,
      "pip": 5012,
      "sight": 5013,
      "reven": 5014,
      "mel": 5015,
      "diss": 5016,
      "Street": 5017,
      "specifically": 5018,
      "passw": 5019,
      "behaviors": 5020,
      "Canada": 5021,
      "sympt": 5022,
      "microsc": 5023,
      "convince": 5024,
      "Phil": 5025,
      "Anyway": 5026,
      "controlled": 5027,
      "lady": 5028,
      "victims": 5029,
      "display": 5030,
      "vulnerable": 5031,
      "cards": 5032,
      "flex": 5033,
      "gay": 5034,
      "lic": 5035,
      "nations": 5036,
      "vert": 5037,
      "##gets": 5038,
      "##isher": 5039,
      "shad": 5040,
      "exec": 5041,
      "##osh": 5042,
      "intr": 5043,
      "flies": 5044,
      "extract": 5045,
      "movements": 5046,
      "added": 5047,
      "effectively": 5048,
      "##onym": 5049,
      "situations": 5050,
      "cameras": 5051,
      "release": 5052,
      "primary": 5053,
      "details": 5054,
      "properties": 5055,
      "encourage": 5056,
      "##force": 5057,
      "houses": 5058,
      "Nigeria": 5059,
      "concentr": 5060,
      "Francisco": 5061,
      "lifetime": 5062,
      "Gh": 5063,
      "ride": 5064,
      "##onds": 5065,
      "##rument": 5066,
      "##van": 5067,
      "##aters": 5068,
      "trillion": 5069,
      "sugar": 5070,
      "claim": 5071,
      "unit": 5072,
      "acqu": 5073,
      "emissions": 5074,
      "bran": 5075,
      "depends": 5076,
      "define": 5077,
      "##pected": 5078,
      "bottle": 5079,
      "graduate": 5080,
      "viruses": 5081,
      "terrorism": 5082,
      "hydrogen": 5083,
      "Muslim": 5084,
      ".'": 5085,
      "600": 5086,
      "Tur": 5087,
      "hur": 5088,
      "pian": 5089,
      "##uary": 5090,
      "##bed": 5091,
      "thin": 5092,
      "ing": 5093,
      "##icago": 5094,
      "##irty": 5095,
      "##olf": 5096,
      "shall": 5097,
      "##uls": 5098,
      "chart": 5099,
      "##osis": 5100,
      "suit": 5101,
      "contain": 5102,
      "grid": 5103,
      "Chicago": 5104,
      "interests": 5105,
      "instrument": 5106,
      "assign": 5107,
      "radical": 5108,
      "steel": 5109,
      "Institute": 5110,
      "molecular": 5111,
      "season": 5112,
      "James": 5113,
      "Pac": 5114,
      "cure": 5115,
      "kitch": 5116,
      "san": 5117,
      "##urg": 5118,
      "liqu": 5119,
      "arts": 5120,
      "hypoth": 5121,
      "assemb": 5122,
      "75": 5123,
      "Bro": 5124,
      "II": 5125,
      "lect": 5126,
      "##ught": 5127,
      "##itan": 5128,
      "beach": 5129,
      "##oting": 5130,
      "##stream": 5131,
      "Anderson": 5132,
      "##igm": 5133,
      "ali": 5134,
      "spo": 5135,
      "spin": 5136,
      "##eline": 5137,
      "generally": 5138,
      "Ange": 5139,
      "politicians": 5140,
      "occup": 5141,
      "maps": 5142,
      "sending": 5143,
      "released": 5144,
      "promise": 5145,
      "mathematical": 5146,
      "inevit": 5147,
      "sample": 5148,
      "prepared": 5149,
      "official": 5150,
      "mortality": 5151,
      "circumst": 5152,
      "rhyth": 5153,
      "establish": 5154,
      "Day": 5155,
      "Qu": 5156,
      "Wow": 5157,
      "Wik": 5158,
      "bow": 5159,
      "ped": 5160,
      "##ov": 5161,
      "##lation": 5162,
      "##alt": 5163,
      "##itals": 5164,
      "##itarian": 5165,
      "##etics": 5166,
      "however": 5167,
      "##abilities": 5168,
      "factor": 5169,
      "smile": 5170,
      "remo": 5171,
      "remain": 5172,
      "serve": 5173,
      "minim": 5174,
      "reprodu": 5175,
      "engaged": 5176,
      "autonom": 5177,
      "risks": 5178,
      "honor": 5179,
      "introduced": 5180,
      "discussion": 5181,
      "components": 5182,
      "bubble": 5183,
      "Four": 5184,
      "Los": 5185,
      "Since": 5186,
      "bath": 5187,
      "ring": 5188,
      "rom": 5189,
      "rub": 5190,
      "##uh": 5191,
      "staff": 5192,
      "##rof": 5193,
      "YouT": 5194,
      "unex": 5195,
      "buying": 5196,
      "dish": 5197,
      "techniques": 5198,
      "metal": 5199,
      "regions": 5200,
      "paral": 5201,
      "assist": 5202,
      "drag": 5203,
      "sensitive": 5204,
      "winter": 5205,
      "profession": 5206,
      "awareness": 5207,
      "introduce": 5208,
      "spectrum": 5209,
      "Congress": 5210,
      "organs": 5211,
      "restaurant": 5212,
      "GP": 5213,
      "Gal": 5214,
      "goals": 5215,
      "atoms": 5216,
      "spring": 5217,
      "compar": 5218,
      "##resp": 5219,
      "factors": 5220,
      "gravity": 5221,
      "regard": 5222,
      "clever": 5223,
      "##ograp": 5224,
      "crack": 5225,
      "convention": 5226,
      "analog": 5227,
      "snow": 5228,
      "forgot": 5229,
      "YouTube": 5230,
      "22": 5231,
      "mer": 5232,
      "poo": 5233,
      "##com": 5234,
      "##bors": 5235,
      "##atin": 5236,
      "worlds": 5237,
      "disaster": 5238,
      "discipl": 5239,
      "medium": 5240,
      "radiation": 5241,
      "recorded": 5242,
      "evolutionary": 5243,
      "mistake": 5244,
      "employees": 5245,
      "mirror": 5246,
      "malaria": 5247,
      "encoura": 5248,
      "pleasure": 5249,
      "NASA": 5250,
      "abstract": 5251,
      "Ac": 5252,
      "Other": 5253,
      "bill": 5254,
      "sides": 5255,
      "##ta": 5256,
      "former": 5257,
      "unus": 5258,
      "thanks": 5259,
      "invention": 5260,
      "##aker": 5261,
      "skill": 5262,
      "environments": 5263,
      "Art": 5264,
      "protection": 5265,
      "practical": 5266,
      "democratic": 5267,
      "obser": 5268,
      "horse": 5269,
      "definitely": 5270,
      "blocks": 5271,
      "Charles": 5272,
      "tumor": 5273,
      "newspaper": 5274,
      "cast": 5275,
      "fishing": 5276,
      "option": 5277,
      "##kn": 5278,
      "##lym": 5279,
      "uns": 5280,
      "phr": 5281,
      "scared": 5282,
      "lessons": 5283,
      "runs": 5284,
      "processing": 5285,
      "2000": 5286,
      "harvest": 5287,
      "combination": 5288,
      "##porary": 5289,
      "affected": 5290,
      "satis": 5291,
      "mountains": 5292,
      "soul": 5293,
      "chicken": 5294,
      "pollution": 5295,
      "Yet": 5296,
      "bare": 5297,
      "cere": 5298,
      "fif": 5299,
      "lob": 5300,
      "rational": 5301,
      "vent": 5302,
      "##aj": 5303,
      "##ingu": 5304,
      "##orous": 5305,
      "##lying": 5306,
      "conver": 5307,
      "ens": 5308,
      "perception": 5309,
      "que": 5310,
      "aging": 5311,
      "clip": 5312,
      "goods": 5313,
      "decl": 5314,
      "afterno": 5315,
      "instrum": 5316,
      "centers": 5317,
      "typically": 5318,
      "confidence": 5319,
      "reached": 5320,
      "relevant": 5321,
      "estim": 5322,
      "Steve": 5323,
      "susp": 5324,
      "Michael": 5325,
      "opinion": 5326,
      "kitchen": 5327,
      "23": 5328,
      "Mic": 5329,
      "cortex": 5330,
      "tank": 5331,
      "##iat": 5332,
      "inher": 5333,
      "initi": 5334,
      "wash": 5335,
      "dogs": 5336,
      "worldwide": 5337,
      "##ternal": 5338,
      "formed": 5339,
      "protected": 5340,
      "privacy": 5341,
      "include": 5342,
      "required": 5343,
      "destruction": 5344,
      "traveling": 5345,
      "pulled": 5346,
      "neighbors": 5347,
      "Perhaps": 5348,
      "Russia": 5349,
      "iPh": 5350,
      "false": 5351,
      "ingred": 5352,
      "Alex": 5353,
      "Ber": 5354,
      "Lad": 5355,
      "Tom": 5356,
      "cup": 5357,
      "dip": 5358,
      "eld": 5359,
      "ought": 5360,
      "##uits": 5361,
      "##qually": 5362,
      "##ered": 5363,
      "##urance": 5364,
      "##cend": 5365,
      "##roll": 5366,
      "severe": 5367,
      "actions": 5368,
      "singing": 5369,
      "2008": 5370,
      "keeps": 5371,
      "literature": 5372,
      "performing": 5373,
      "psychology": 5374,
      "dropped": 5375,
      "forests": 5376,
      "collaboration": 5377,
      "garden": 5378,
      "sophisticated": 5379,
      "Pacific": 5380,
      "liquid": 5381,
      "Port": 5382,
      "pitch": 5383,
      "##och": 5384,
      "##off": 5385,
      "input": 5386,
      "##oos": 5387,
      "sem": 5388,
      "notes": 5389,
      "##uses": 5390,
      "perman": 5391,
      "feature": 5392,
      "features": 5393,
      "adj": 5394,
      "personally": 5395,
      "naturally": 5396,
      "meaningful": 5397,
      "efficiency": 5398,
      "participate": 5399,
      "hoping": 5400,
      "vehicles": 5401,
      "applied": 5402,
      "axis": 5403,
      "interpret": 5404,
      "##known": 5405,
      "bicy": 5406,
      "hits": 5407,
      "##over": 5408,
      "##xim": 5409,
      "##icing": 5410,
      "##ros": 5411,
      "##usive": 5412,
      "acting": 5413,
      "prime": 5414,
      "contr": 5415,
      "technological": 5416,
      "glam": 5417,
      "194": 5418,
      "courage": 5419,
      "##arrass": 5420,
      "defined": 5421,
      "Only": 5422,
      "senses": 5423,
      "combined": 5424,
      "rocket": 5425,
      "fundamentally": 5426,
      "ultimate": 5427,
      "2010": 5428,
      "Adam": 5429,
      "ancestors": 5430,
      "toxic": 5431,
      "illegal": 5432,
      "unusual": 5433,
      "afternoon": 5434,
      "Bank": 5435,
      "Mon": 5436,
      "Women": 5437,
      "dedic": 5438,
      "gut": 5439,
      "mur": 5440,
      "rig": 5441,
      "tent": 5442,
      "wine": 5443,
      "witness": 5444,
      "##vable": 5445,
      "##cap": 5446,
      "##lom": 5447,
      "##bles": 5448,
      "asp": 5449,
      "##ums": 5450,
      "score": 5451,
      "##oston": 5452,
      "foundation": 5453,
      "monkey": 5454,
      "topic": 5455,
      "Also": 5456,
      "increased": 5457,
      "operate": 5458,
      "joke": 5459,
      "stronger": 5460,
      "institution": 5461,
      "tracking": 5462,
      "mechanism": 5463,
      "gradu": 5464,
      "activities": 5465,
      "occurred": 5466,
      "sweet": 5467,
      "doubt": 5468,
      "algorithms": 5469,
      "sports": 5470,
      "eggs": 5471,
      "astronom": 5472,
      "Amazon": 5473,
      "Boston": 5474,
      "diction": 5475,
      "tape": 5476,
      "##iate": 5477,
      "##cut": 5478,
      "##uff": 5479,
      "style": 5480,
      "sees": 5481,
      "button": 5482,
      "theme": 5483,
      "While": 5484,
      "##abled": 5485,
      "underwater": 5486,
      "pregn": 5487,
      "conservation": 5488,
      "election": 5489,
      "functions": 5490,
      "solved": 5491,
      "physically": 5492,
      "memories": 5493,
      "records": 5494,
      "digit": 5495,
      "sunlight": 5496,
      "embarrass": 5497,
      "internal": 5498,
      "hospitals": 5499,
      "Project": 5500,
      "burning": 5501,
      "mistakes": 5502,
      "transportation": 5503,
      "framework": 5504,
      "manufacturing": 5505,
      "Nobody": 5506,
      "accompl": 5507,
      "Dem": 5508,
      "Dep": 5509,
      "Five": 5510,
      "Law": 5511,
      "Mont": 5512,
      "border": 5513,
      "pair": 5514,
      "anx": 5515,
      "trig": 5516,
      "##aren": 5517,
      "load": 5518,
      "##chnology": 5519,
      "studio": 5520,
      "meter": 5521,
      "computing": 5522,
      "biom": 5523,
      "##what": 5524,
      "tests": 5525,
      "tested": 5526,
      "France": 5527,
      "circuit": 5528,
      "horiz": 5529,
      "empathy": 5530,
      "Something": 5531,
      "cooking": 5532,
      "inequ": 5533,
      "survey": 5534,
      "Jan": 5535,
      "Pol": 5536,
      "cave": 5537,
      "equally": 5538,
      "fert": 5539,
      "##volution": 5540,
      "##uel": 5541,
      "##ita": 5542,
      "##itual": 5543,
      "##asks": 5544,
      "somewhat": 5545,
      "club": 5546,
      "coord": 5547,
      "drives": 5548,
      "suppose": 5549,
      "musical": 5550,
      "largely": 5551,
      "falling": 5552,
      "birthday": 5553,
      "##olly": 5554,
      "infected": 5555,
      "##cription": 5556,
      "mosqu": 5557,
      "execut": 5558,
      "Ant": 5559,
      "lying": 5560,
      "nav": 5561,
      "wars": 5562,
      "##nam": 5563,
      "##ham": 5564,
      "storm": 5565,
      "shame": 5566,
      "cha": 5567,
      "##abol": 5568,
      "quarter": 5569,
      "impl": 5570,
      "##acles": 5571,
      "Stan": 5572,
      "19th": 5573,
      "Unf": 5574,
      "##hips": 5575,
      "visible": 5576,
      "confront": 5577,
      "advent": 5578,
      "advice": 5579,
      "marketing": 5580,
      "collected": 5581,
      "amounts": 5582,
      "existing": 5583,
      "potentially": 5584,
      "psychological": 5585,
      "silence": 5586,
      "domin": 5587,
      "proteins": 5588,
      "swimming": 5589,
      "dramatic": 5590,
      "renew": 5591,
      "laptop": 5592,
      "hung": 5593,
      "upper": 5594,
      "thick": 5595,
      "##ula": 5596,
      "##ortion": 5597,
      "desper": 5598,
      "##berg": 5599,
      "apparent": 5600,
      "extinct": 5601,
      "##whel": 5602,
      "electro": 5603,
      "solving": 5604,
      "presence": 5605,
      "figures": 5606,
      "absor": 5607,
      "photographs": 5608,
      "volume": 5609,
      "concrete": 5610,
      "narrative": 5611,
      "innovative": 5612,
      "antibiot": 5613,
      "conclusion": 5614,
      "appropriate": 5615,
      "Unfortunately": 5616,
      "Talk": 5617,
      "fake": 5618,
      "sets": 5619,
      "##xide": 5620,
      "toy": 5621,
      "reverse": 5622,
      "section": 5623,
      "##ateful": 5624,
      "contrast": 5625,
      "##elly": 5626,
      "Health": 5627,
      "percentage": 5628,
      "creature": 5629,
      "string": 5630,
      "constant": 5631,
      "operation": 5632,
      "violent": 5633,
      "subjects": 5634,
      "frag": 5635,
      "ridic": 5636,
      "explanation": 5637,
      "piano": 5638,
      "iPhone": 5639,
      "Po": 5640,
      "bes": 5641,
      "cents": 5642,
      "dot": 5643,
      "##gers": 5644,
      "##cred": 5645,
      "tonight": 5646,
      "##esh": 5647,
      "##isters": 5648,
      "##itz": 5649,
      "chose": 5650,
      "intense": 5651,
      "overall": 5652,
      "overwhel": 5653,
      "contem": 5654,
      "drill": 5655,
      "remains": 5656,
      "obst": 5657,
      "rooms": 5658,
      "trend": 5659,
      "critic": 5660,
      "roads": 5661,
      "conversations": 5662,
      "attacks": 5663,
      "spiritual": 5664,
      "electronic": 5665,
      "Paris": 5666,
      "accurate": 5667,
      "Valley": 5668,
      "hook": 5669,
      "lens": 5670,
      "ment": 5671,
      "mere": 5672,
      "pin": 5673,
      "ritual": 5674,
      "##inction": 5675,
      "wel": 5676,
      "##aming": 5677,
      "outcome": 5678,
      "unknown": 5679,
      "##ologically": 5680,
      "State": 5681,
      "exploration": 5682,
      "subs": 5683,
      "productive": 5684,
      "films": 5685,
      "diam": 5686,
      "##aneously": 5687,
      "providing": 5688,
      "explained": 5689,
      "stayed": 5690,
      "inspiration": 5691,
      "sustainability": 5692,
      "silk": 5693,
      "surrounded": 5694,
      "clothes": 5695,
      "circumstances": 5696,
      "Dis": 5697,
      "Eth": 5698,
      "Get": 5699,
      "Number": 5700,
      "nest": 5701,
      "nurs": 5702,
      "##iture": 5703,
      "reject": 5704,
      "Thom": 5705,
      "##adic": 5706,
      "##estyle": 5707,
      "orch": 5708,
      "nowhere": 5709,
      "cock": 5710,
      "channel": 5711,
      "command": 5712,
      "##angers": 5713,
      "polar": 5714,
      "2007": 5715,
      "depth": 5716,
      "closely": 5717,
      "stret": 5718,
      "presentation": 5719,
      "measured": 5720,
      "songs": 5721,
      "breathe": 5722,
      "error": 5723,
      "assume": 5724,
      "authority": 5725,
      "##iosity": 5726,
      "flew": 5727,
      "Wikip": 5728,
      "Part": 5729,
      "Science": 5730,
      "bones": 5731,
      "ears": 5732,
      "furn": 5733,
      "mad": 5734,
      "pill": 5735,
      "ru": 5736,
      "van": 5737,
      "##time": 5738,
      "##son": 5739,
      "##aver": 5740,
      "##ault": 5741,
      "##ha": 5742,
      "##cers": 5743,
      "##rel": 5744,
      "##esome": 5745,
      "##itors": 5746,
      "##aser": 5747,
      "##keys": 5748,
      "comment": 5749,
      "church": 5750,
      "expon": 5751,
      "clust": 5752,
      "resil": 5753,
      "scar": 5754,
      "decline": 5755,
      "generated": 5756,
      "sensors": 5757,
      "limits": 5758,
      "joined": 5759,
      "Before": 5760,
      "options": 5761,
      "entertain": 5762,
      "linked": 5763,
      "Christmas": 5764,
      "shaped": 5765,
      "wireless": 5766,
      "applications": 5767,
      "appreciate": 5768,
      "horrible": 5769,
      "split": 5770,
      "BG": 5771,
      "fiction": 5772,
      "horm": 5773,
      "jail": 5774,
      "loud": 5775,
      "nose": 5776,
      "pool": 5777,
      "papers": 5778,
      "tack": 5779,
      "zoom": 5780,
      "##ih": 5781,
      "##asters": 5782,
      "##icon": 5783,
      "whales": 5784,
      "frank": 5785,
      "deploy": 5786,
      "plate": 5787,
      "evening": 5788,
      "instruct": 5789,
      "datab": 5790,
      "centuries": 5791,
      "economists": 5792,
      "Union": 5793,
      "curve": 5794,
      "challenging": 5795,
      "statement": 5796,
      "provided": 5797,
      "collapse": 5798,
      "deaths": 5799,
      "multi": 5800,
      "Sept": 5801,
      "dynam": 5802,
      "housing": 5803,
      "therapy": 5804,
      "taste": 5805,
      "Basically": 5806,
      "symptoms": 5807,
      "Angeles": 5808,
      "Micro": 5809,
      "Air": 5810,
      "Jul": 5811,
      "Mal": 5812,
      "Muse": 5813,
      "Sah": 5814,
      "boring": 5815,
      "voc": 5816,
      "##oons": 5817,
      "##ey": 5818,
      "##cop": 5819,
      "##iters": 5820,
      "whist": 5821,
      "item": 5822,
      "##iders": 5823,
      "##olving": 5824,
      "##ogue": 5825,
      "loop": 5826,
      "gras": 5827,
      "remove": 5828,
      "relate": 5829,
      "transpl": 5830,
      "handle": 5831,
      "explos": 5832,
      "allowing": 5833,
      "advance": 5834,
      "footprint": 5835,
      "obsessed": 5836,
      "cyber": 5837,
      "combine": 5838,
      "conclud": 5839,
      "hotel": 5840,
      "laboratory": 5841,
      "passionate": 5842,
      "fingers": 5843,
      "About": 5844,
      "samples": 5845,
      "Robert": 5846,
      "paradigm": 5847,
      "gentlemen": 5848,
      "Wikipedia": 5849,
      "September": 5850,
      "Found": 5851,
      "Hell": 5852,
      "Sam": 5853,
      "dense": 5854,
      "##inations": 5855,
      "attend": 5856,
      "neut": 5857,
      "hem": 5858,
      "wherever": 5859,
      "resolution": 5860,
      "implement": 5861,
      "flower": 5862,
      "##athers": 5863,
      "busy": 5864,
      "globe": 5865,
      "distinct": 5866,
      "autism": 5867,
      "Nothing": 5868,
      "falls": 5869,
      "villages": 5870,
      "transformed": 5871,
      "flowers": 5872,
      "capitalism": 5873,
      "clouds": 5874,
      "infinite": 5875,
      "GPS": 5876,
      "Gulf": 5877,
      "[\"": 5878,
      "dancing": 5879,
      "migr": 5880,
      "vag": 5881,
      "##hol": 5882,
      "##eness": 5883,
      "weigh": 5884,
      "reference": 5885,
      "stone": 5886,
      "anger": 5887,
      "dozen": 5888,
      "##anta": 5889,
      "outc": 5890,
      "prize": 5891,
      "technique": 5892,
      "extent": 5893,
      "repair": 5894,
      "bike": 5895,
      "organism": 5896,
      "memor": 5897,
      "breed": 5898,
      "director": 5899,
      "label": 5900,
      "identical": 5901,
      "feeding": 5902,
      "250": 5903,
      "causing": 5904,
      "faced": 5905,
      "marine": 5906,
      "divide": 5907,
      "determine": 5908,
      "Muslims": 5909,
      "angry": 5910,
      "Republic": 5911,
      "##ographer": 5912,
      "navig": 5913,
      "Museum": 5914,
      "Sil": 5915,
      "barr": 5916,
      "cord": 5917,
      "dress": 5918,
      "icon": 5919,
      "sen": 5920,
      "##mm": 5921,
      "##Os": 5922,
      "##oned": 5923,
      "##rog": 5924,
      "##aud": 5925,
      "enable": 5926,
      "##obal": 5927,
      "##eak": 5928,
      "humor": 5929,
      "root": 5930,
      "owners": 5931,
      "corresp": 5932,
      "mush": 5933,
      "##gging": 5934,
      "standards": 5935,
      "milk": 5936,
      "behavioral": 5937,
      "rocks": 5938,
      "suggests": 5939,
      "policies": 5940,
      "pollen": 5941,
      "army": 5942,
      "logic": 5943,
      "fixed": 5944,
      "application": 5945,
      "embrace": 5946,
      "paralle": 5947,
      "##lymp": 5948,
      "instruments": 5949,
      "mosquit": 5950,
      "Gold": 5951,
      "Hig": 5952,
      "Med": 5953,
      "Olymp": 5954,
      "fisher": 5955,
      "pushing": 5956,
      "ray": 5957,
      "vibr": 5958,
      "##father": 5959,
      "inject": 5960,
      "##etically": 5961,
      "chip": 5962,
      "##aus": 5963,
      "seek": 5964,
      "suic": 5965,
      "download": 5966,
      "shoulder": 5967,
      "Everyone": 5968,
      "funding": 5969,
      "floating": 5970,
      "mechanical": 5971,
      "admit": 5972,
      "administ": 5973,
      "earthqu": 5974,
      "irr": 5975,
      "puzzle": 5976,
      "Remember": 5977,
      "poorest": 5978,
      "Cons": 5979,
      "Finally": 5980,
      "June": 5981,
      "Mark": 5982,
      "gest": 5983,
      "##me": 5984,
      "##mal": 5985,
      "##rets": 5986,
      "##ingly": 5987,
      "##omfort": 5988,
      "##vey": 5989,
      "##sters": 5990,
      "##cel": 5991,
      "atom": 5992,
      "##ille": 5993,
      "spinal": 5994,
      "plans": 5995,
      "##izz": 5996,
      "agreed": 5997,
      "pharm": 5998,
      "shell": 5999,
      "transfer": 6000,
      "wondered": 6001,
      "younger": 6002,
      "educational": 6003,
      "continued": 6004,
      "constrain": 6005,
      "measuring": 6006,
      "occasion": 6007,
      "architects": 6008,
      "boxes": 6009,
      "breathing": 6010,
      "algorithm": 6011,
      "vaccine": 6012,
      "fabric": 6013,
      "implications": 6014,
      "recyc": 6015,
      "fifth": 6016,
      "Higgs": 6017,
      "ack": 6018,
      "zone": 6019,
      "##rim": 6020,
      "##point": 6021,
      "##esity": 6022,
      "##arant": 6023,
      "whale": 6024,
      "##ota": 6025,
      "fright": 6026,
      "chocol": 6027,
      "acts": 6028,
      "disorders": 6029,
      "##anging": 6030,
      "corals": 6031,
      "classes": 6032,
      "parking": 6033,
      "equation": 6034,
      "increases": 6035,
      "existed": 6036,
      "anticip": 6037,
      "greenhouse": 6038,
      "robotic": 6039,
      "Really": 6040,
      "telephone": 6041,
      "##fficient": 6042,
      "portra": 6043,
      "ignor": 6044,
      "selection": 6045,
      "mammals": 6046,
      "library": 6047,
      "##onymous": 6048,
      "rhythm": 6049,
      "unexpected": 6050,
      "Thomas": 6051,
      "frankly": 6052,
      "Count": 6053,
      "Haw": 6054,
      "Latin": 6055,
      "firm": 6056,
      "lin": 6057,
      "py": 6058,
      "##rors": 6059,
      "##greg": 6060,
      "##hal": 6061,
      "##erge": 6062,
      "##ener": 6063,
      "stro": 6064,
      "##imeter": 6065,
      "##iled": 6066,
      "knock": 6067,
      "##agn": 6068,
      "phase": 6069,
      "carried": 6070,
      "economies": 6071,
      "elim": 6072,
      "2005": 6073,
      "2009": 6074,
      "secure": 6075,
      "windows": 6076,
      "raising": 6077,
      "arguments": 6078,
      "recognition": 6079,
      "directions": 6080,
      "mathematic": 6081,
      "domestic": 6082,
      "struck": 6083,
      "clinic": 6084,
      "offered": 6085,
      "drinking": 6086,
      "automatically": 6087,
      "script": 6088,
      "surgeon": 6089,
      "Sweden": 6090,
      "mystery": 6091,
      "diplom": 6092,
      "27": 6093,
      "Hi": 6094,
      "Mount": 6095,
      "US": 6096,
      "dign": 6097,
      "density": 6098,
      "tube": 6099,
      "##aci": 6100,
      "##ias": 6101,
      "##iop": 6102,
      "##can": 6103,
      "##itory": 6104,
      "stands": 6105,
      "##ching": 6106,
      "##rol": 6107,
      "myster": 6108,
      "sphere": 6109,
      "placed": 6110,
      "arrest": 6111,
      "grateful": 6112,
      "flood": 6113,
      "instinct": 6114,
      "conserv": 6115,
      "##heim": 6116,
      "monkeys": 6117,
      "careful": 6118,
      "interactions": 6119,
      "reaching": 6120,
      "consumers": 6121,
      "represented": 6122,
      "astero": 6123,
      "diagram": 6124,
      "distributed": 6125,
      "resistance": 6126,
      "dramatically": 6127,
      "Human": 6128,
      "January": 6129,
      "Jer": 6130,
      "Mor": 6131,
      "NG": 6132,
      "ben": 6133,
      "cash": 6134,
      "mice": 6135,
      "pound": 6136,
      "sque": 6137,
      "##east": 6138,
      "##bre": 6139,
      "##otes": 6140,
      "##amin": 6141,
      "peer": 6142,
      "ours": 6143,
      "spider": 6144,
      "##aret": 6145,
      "##icted": 6146,
      "gray": 6147,
      "obesity": 6148,
      "olds": 6149,
      "storyt": 6150,
      "traum": 6151,
      "traged": 6152,
      "populations": 6153,
      "properly": 6154,
      "diabet": 6155,
      "household": 6156,
      "teams": 6157,
      "collaps": 6158,
      "illusion": 6159,
      "mainly": 6160,
      "spreading": 6161,
      "lifestyle": 6162,
      "bombs": 6163,
      "savings": 6164,
      "controlling": 6165,
      "celebrate": 6166,
      "component": 6167,
      "Obama": 6168,
      "corporate": 6169,
      "elephant": 6170,
      "Apple": 6171,
      "academic": 6172,
      "Korea": 6173,
      "toilet": 6174,
      "Ghana": 6175,
      "outcomes": 6176,
      "65": 6177,
      "lung": 6178,
      "mim": 6179,
      "sed": 6180,
      "##wich": 6181,
      "##otion": 6182,
      "##eters": 6183,
      "##illance": 6184,
      "neither": 6185,
      "enemy": 6186,
      "worker": 6187,
      "overl": 6188,
      "overcome": 6189,
      "prem": 6190,
      "genius": 6191,
      "colum": 6192,
      "metabol": 6193,
      "grows": 6194,
      "particle": 6195,
      "##while": 6196,
      "engaging": 6197,
      "agend": 6198,
      "filter": 6199,
      "aston": 6200,
      "penguins": 6201,
      "murder": 6202,
      "32": 6203,
      "80s": 6204,
      "Boy": 6205,
      "Give": 6206,
      "Nat": 6207,
      "Op": 6208,
      "Pat": 6209,
      "Tor": 6210,
      "borders": 6211,
      "fan": 6212,
      "honey": 6213,
      "males": 6214,
      "pour": 6215,
      "raw": 6216,
      "##iance": 6217,
      "##gly": 6218,
      "##PA": 6219,
      "##ata": 6220,
      "##stand": 6221,
      "##iform": 6222,
      "tea": 6223,
      "##rous": 6224,
      "enh": 6225,
      "##ogram": 6226,
      "prices": 6227,
      "impress": 6228,
      "scary": 6229,
      "stri": 6230,
      "recomm": 6231,
      "hardware": 6232,
      "painful": 6233,
      "practices": 6234,
      "entered": 6235,
      "receive": 6236,
      "##iveness": 6237,
      "entrepreneur": 6238,
      "philosophy": 6239,
      "maintain": 6240,
      "prototype": 6241,
      "rescue": 6242,
      "romantic": 6243,
      "phrase": 6244,
      "acknow": 6245,
      "36": 6246,
      "Hom": 6247,
      "Int": 6248,
      "Narr": 6249,
      "Us": 6250,
      "lun": 6251,
      "till": 6252,
      "##oes": 6253,
      "##vis": 6254,
      "stack": 6255,
      "##opy": 6256,
      "##ams": 6257,
      "shar": 6258,
      "##estr": 6259,
      "proced": 6260,
      "tries": 6261,
      "plenty": 6262,
      "##aint": 6263,
      "intention": 6264,
      "smoke": 6265,
      "brothers": 6266,
      "lets": 6267,
      "polio": 6268,
      "explo": 6269,
      "presented": 6270,
      "breaking": 6271,
      "recording": 6272,
      "traveled": 6273,
      "Revolution": 6274,
      "immune": 6275,
      "reported": 6276,
      "hyper": 6277,
      "printing": 6278,
      "Islamic": 6279,
      "Congo": 6280,
      "cooperation": 6281,
      "verb": 6282,
      "destroyed": 6283,
      "exhibition": 6284,
      "precisely": 6285,
      "license": 6286,
      "conventional": 6287,
      "inequality": 6288,
      "##ollywood": 6289,
      "antibiotics": 6290,
      "Foundation": 6291,
      "70s": 6292,
      "Budd": 6293,
      "Cop": 6294,
      "Gr": 6295,
      "House": 6296,
      "Mad": 6297,
      "Sl": 6298,
      "dio": 6299,
      "sales": 6300,
      "tip": 6301,
      "wing": 6302,
      "##tes": 6303,
      "##iety": 6304,
      "##cal": 6305,
      "##well": 6306,
      "##life": 6307,
      "toler": 6308,
      "##ctic": 6309,
      "stere": 6310,
      "abuse": 6311,
      "##illy": 6312,
      "White": 6313,
      "suck": 6314,
      "disorder": 6315,
      "pretend": 6316,
      "decre": 6317,
      "appeared": 6318,
      "designs": 6319,
      "Star": 6320,
      "slides": 6321,
      "lovely": 6322,
      "accum": 6323,
      "connecting": 6324,
      "classic": 6325,
      "rising": 6326,
      "expectations": 6327,
      "interactive": 6328,
      "concepts": 6329,
      "emergency": 6330,
      "uncertain": 6331,
      "Central": 6332,
      "Nobel": 6333,
      "sculpture": 6334,
      "title": 6335,
      "attached": 6336,
      "scenar": 6337,
      "vessels": 6338,
      "spoken": 6339,
      "permanent": 6340,
      "entertainment": 6341,
      "mushroom": 6342,
      "26": 6343,
      "800": 6344,
      "DH": 6345,
      "Jack": 6346,
      "Never": 6347,
      "Rw": 6348,
      "Sea": 6349,
      "dict": 6350,
      "tasks": 6351,
      "##mon": 6352,
      "##ka": 6353,
      "excell": 6354,
      "orbit": 6355,
      "usual": 6356,
      "sacr": 6357,
      "whereas": 6358,
      "pocket": 6359,
      "disg": 6360,
      "guarant": 6361,
      "colony": 6362,
      "personality": 6363,
      "imagined": 6364,
      "finance": 6365,
      "walks": 6366,
      "department": 6367,
      "surely": 6368,
      "interacting": 6369,
      "grandfather": 6370,
      "embedd": 6371,
      "awesome": 6372,
      "divided": 6373,
      "laughing": 6374,
      "depending": 6375,
      "translate": 6376,
      "appears": 6377,
      "fascinated": 6378,
      "thrown": 6379,
      "surveillance": 6380,
      "repeat": 6381,
      "Grand": 6382,
      "commitment": 6383,
      "latest": 6384,
      "##belie": 6385,
      "parallel": 6386,
      "diabetes": 6387,
      "Bush": 6388,
      "Eas": 6389,
      "Jes": 6390,
      "Jim": 6391,
      "Pre": 6392,
      "Tex": 6393,
      "der": 6394,
      "rail": 6395,
      "yield": 6396,
      "##gent": 6397,
      "##va": 6398,
      "##bl": 6399,
      "ther": 6400,
      "##ched": 6401,
      "liver": 6402,
      "##raction": 6403,
      "ate": 6404,
      "delic": 6405,
      "units": 6406,
      "unclear": 6407,
      "##soft": 6408,
      "sheep": 6409,
      "committed": 6410,
      "Che": 6411,
      "writer": 6412,
      "persu": 6413,
      "hearts": 6414,
      "##ubes": 6415,
      "193": 6416,
      "behave": 6417,
      "exploring": 6418,
      "controvers": 6419,
      "Island": 6420,
      "curiosity": 6421,
      "signed": 6422,
      "##pring": 6423,
      "elev": 6424,
      "##apping": 6425,
      "geomet": 6426,
      "recognized": 6427,
      "concert": 6428,
      "concern": 6429,
      "hunger": 6430,
      "habitat": 6431,
      "recovery": 6432,
      "candid": 6433,
      "##arency": 6434,
      "Ethiop": 6435,
      "furniture": 6436,
      "Microsoft": 6437,
      "chocolate": 6438,
      "dioxide": 6439,
      "fulf": 6440,
      "gig": 6441,
      "pace": 6442,
      "tight": 6443,
      "ugly": 6444,
      "##cence": 6445,
      "##ann": 6446,
      "mold": 6447,
      "chest": 6448,
      "maxim": 6449,
      "plot": 6450,
      "##agger": 6451,
      "scream": 6452,
      "flash": 6453,
      "brown": 6454,
      "involves": 6455,
      "plays": 6456,
      "##azz": 6457,
      "animation": 6458,
      "muscles": 6459,
      "organize": 6460,
      "treating": 6461,
      "productivity": 6462,
      "cheaper": 6463,
      "estimate": 6464,
      "balloon": 6465,
      "ceiling": 6466,
      "magnetic": 6467,
      "paintings": 6468,
      "customers": 6469,
      "Global": 6470,
      "Haiti": 6471,
      "##connected": 6472,
      "Democ": 6473,
      "\"]": 6474,
      "700": 6475,
      "Tell": 6476,
      "rush": 6477,
      "wings": 6478,
      "##oir": 6479,
      "##top": 6480,
      "##hatt": 6481,
      "##uous": 6482,
      "##bing": 6483,
      "##inals": 6484,
      "aband": 6485,
      "##tery": 6486,
      "proof": 6487,
      "##osen": 6488,
      "wanting": 6489,
      "aggress": 6490,
      "poly": 6491,
      "powered": 6492,
      "monitor": 6493,
      "Africans": 6494,
      "opposed": 6495,
      "Manhatt": 6496,
      "friendly": 6497,
      "achieved": 6498,
      "functional": 6499,
      "virtually": 6500,
      "narrow": 6501,
      "Super": 6502,
      "shooting": 6503,
      "aspects": 6504,
      "Palest": 6505,
      "authent": 6506,
      "adjust": 6507,
      "bicycle": 6508,
      "Stanford": 6509,
      "pyram": 6510,
      "Narrator": 6511,
      "Manhattan": 6512,
      "60s": 6513,
      "95": 6514,
      "Bob": 6515,
      "Cor": 6516,
      "Mom": 6517,
      "Ox": 6518,
      "Ten": 6519,
      "Ug": 6520,
      "bon": 6521,
      "dump": 6522,
      "pink": 6523,
      "tired": 6524,
      "##nic": 6525,
      "##han": 6526,
      "##lines": 6527,
      "##fl": 6528,
      "##lyn": 6529,
      "##ida": 6530,
      "likes": 6531,
      "meg": 6532,
      "shake": 6533,
      "mail": 6534,
      "tri": 6535,
      "tag": 6536,
      "Stud": 6537,
      "produces": 6538,
      "boom": 6539,
      "reput": 6540,
      "International": 6541,
      "escape": 6542,
      "football": 6543,
      "##box": 6544,
      "purch": 6545,
      "eradic": 6546,
      "conflicts": 6547,
      "disappeared": 6548,
      "accepted": 6549,
      "colleague": 6550,
      "sandwich": 6551,
      "Christian": 6552,
      "engagement": 6553,
      "scratch": 6554,
      "rebuild": 6555,
      "incentives": 6556,
      "privilege": 6557,
      "alien": 6558,
      "trigger": 6559,
      "dignity": 6560,
      "agenda": 6561,
      "embedded": 6562,
      "Texas": 6563,
      "Bu": 6564,
      "Del": 6565,
      "Ice": 6566,
      "diverse": 6567,
      "pul": 6568,
      "vital": 6569,
      "##20": 6570,
      "##hen": 6571,
      "##omp": 6572,
      "##lete": 6573,
      "##iday": 6574,
      "##keep": 6575,
      "aside": 6576,
      "champ": 6577,
      "orient": 6578,
      "conven": 6579,
      "unbelie": 6580,
      "backwards": 6581,
      "emph": 6582,
      "insurance": 6583,
      "Step": 6584,
      "hardly": 6585,
      "Indeed": 6586,
      "devast": 6587,
      "cute": 6588,
      "legis": 6589,
      "##appy": 6590,
      "Space": 6591,
      "apartment": 6592,
      "##zees": 6593,
      "ignore": 6594,
      "heroes": 6595,
      "ladies": 6596,
      "neighborhoods": 6597,
      "frozen": 6598,
      "volunteers": 6599,
      "##riend": 6600,
      "Atlantic": 6601,
      "vertical": 6602,
      "removed": 6603,
      "disgust": 6604,
      "90s": 6605,
      "Girl": 6606,
      "High": 6607,
      "Lar": 6608,
      "Nations": 6609,
      "Next": 6610,
      "Woman": 6611,
      "bat": 6612,
      "boss": 6613,
      "cens": 6614,
      "nit": 6615,
      "##iated": 6616,
      "##anzees": 6617,
      "##leton": 6618,
      "beg": 6619,
      "##uration": 6620,
      "stations": 6621,
      "##iment": 6622,
      "angle": 6623,
      "Sov": 6624,
      "expans": 6625,
      "exposed": 6626,
      "##bert": 6627,
      "blank": 6628,
      "scales": 6629,
      "flip": 6630,
      "governance": 6631,
      "distant": 6632,
      "charity": 6633,
      "continues": 6634,
      "collecting": 6635,
      "meetings": 6636,
      "legit": 6637,
      "legacy": 6638,
      "darkness": 6639,
      "reduction": 6640,
      "rainforest": 6641,
      "captured": 6642,
      "strategies": 6643,
      "judge": 6644,
      "northern": 6645,
      "adopt": 6646,
      "punish": 6647,
      "dolphins": 6648,
      "advertising": 6649,
      "telescope": 6650,
      "shadow": 6651,
      "dedicated": 6652,
      "hungry": 6653,
      "earthquake": 6654,
      "Bab": 6655,
      "Mary": 6656,
      "Oce": 6657,
      "PM": 6658,
      "Sing": 6659,
      "drove": 6660,
      "east": 6661,
      "hat": 6662,
      "pra": 6663,
      "powers": 6664,
      "wise": 6665,
      "##ding": 6666,
      "##vin": 6667,
      "theories": 6668,
      "##eration": 6669,
      "##rect": 6670,
      "beer": 6671,
      "abund": 6672,
      "chosen": 6673,
      "actors": 6674,
      "adap": 6675,
      "invite": 6676,
      "instant": 6677,
      "pointed": 6678,
      "globally": 6679,
      "##lessly": 6680,
      "equality": 6681,
      "##archy": 6682,
      "missed": 6683,
      "accessible": 6684,
      "margin": 6685,
      "silent": 6686,
      "mechanics": 6687,
      "searching": 6688,
      "laughter": 6689,
      "universities": 6690,
      "contribute": 6691,
      "crying": 6692,
      "optimistic": 6693,
      "simplicity": 6694,
      "suspect": 6695,
      "motivation": 6696,
      "historical": 6697,
      "smoking": 6698,
      "talent": 6699,
      "lecture": 6700,
      "linear": 6701,
      "Bo": 6702,
      "Bel": 6703,
      "Net": 6704,
      "Voice": 6705,
      "Viet": 6706,
      "aim": 6707,
      "cas": 6708,
      "march": 6709,
      "##hib": 6710,
      "##ua": 6711,
      "##AR": 6712,
      "##struct": 6713,
      "comed": 6714,
      "##using": 6715,
      "##usions": 6716,
      "quad": 6717,
      "eval": 6718,
      "evolve": 6719,
      "imper": 6720,
      "##acular": 6721,
      "prec": 6722,
      "##angle": 6723,
      "finds": 6724,
      "oldest": 6725,
      "patent": 6726,
      "attribut": 6727,
      "minister": 6728,
      "capita": 6729,
      "sket": 6730,
      "skull": 6731,
      "probability": 6732,
      "passen": 6733,
      "paras": 6734,
      "retire": 6735,
      "refr": 6736,
      "provides": 6737,
      "delight": 6738,
      "limb": 6739,
      "inspiring": 6740,
      "transparent": 6741,
      "touched": 6742,
      "amongst": 6743,
      "Black": 6744,
      "efforts": 6745,
      "weapon": 6746,
      "route": 6747,
      "smooth": 6748,
      "neuroscience": 6749,
      "initial": 6750,
      "encounter": 6751,
      "microscope": 6752,
      "satisf": 6753,
      "Bon": 6754,
      "Fin": 6755,
      "Vir": 6756,
      "dust": 6757,
      "golf": 6758,
      "hol": 6759,
      "tears": 6760,
      "wip": 6761,
      "##nels": 6762,
      "##iology": 6763,
      "##bur": 6764,
      "##fall": 6765,
      "##anthrop": 6766,
      "##ari": 6767,
      "##arters": 6768,
      "##icop": 6769,
      "youth": 6770,
      "wet": 6771,
      "##olar": 6772,
      "fruit": 6773,
      "leap": 6774,
      "poison": 6775,
      "underground": 6776,
      "herself": 6777,
      "genoc": 6778,
      "letting": 6779,
      "corn": 6780,
      "2004": 6781,
      "elsewhere": 6782,
      "aircraft": 6783,
      "controls": 6784,
      "advoc": 6785,
      "funded": 6786,
      "neuron": 6787,
      "120": 6788,
      "grandch": 6789,
      "essence": 6790,
      "fluid": 6791,
      "facial": 6792,
      "dependent": 6793,
      "heaven": 6794,
      "##yright": 6795,
      "electronics": 6796,
      "boundaries": 6797,
      "seeds": 6798,
      "locked": 6799,
      "intuitive": 6800,
      "symmetry": 6801,
      "barely": 6802,
      "ingredients": 6803,
      "apparently": 6804,
      "transplant": 6805,
      "suicide": 6806,
      "Uganda": 6807,
      "Vietnam": 6808,
      "28": 6809,
      "Back": 6810,
      "Cr": 6811,
      "Tal": 6812,
      "Was": 6813,
      "aqu": 6814,
      "borrow": 6815,
      "dirty": 6816,
      "gon": 6817,
      "hire": 6818,
      "rating": 6819,
      "sau": 6820,
      "wound": 6821,
      "##la": 6822,
      "##era": 6823,
      "rely": 6824,
      "orange": 6825,
      "conce": 6826,
      "##ckets": 6827,
      "##ardo": 6828,
      "ages": 6829,
      "contains": 6830,
      "prev": 6831,
      "##ocin": 6832,
      "obl": 6833,
      "##oster": 6834,
      "minor": 6835,
      "visited": 6836,
      "views": 6837,
      "communications": 6838,
      "dimension": 6839,
      "innovations": 6840,
      "William": 6841,
      "utter": 6842,
      "frequency": 6843,
      "General": 6844,
      "shrimp": 6845,
      "Jeff": 6846,
      "reefs": 6847,
      "criminal": 6848,
      "Jewish": 6849,
      "pregnant": 6850,
      "fertil": 6851,
      "tragedy": 6852,
      "Les": 6853,
      "Ma": 6854,
      "Mac": 6855,
      "MRI": 6856,
      "Ok": 6857,
      "cod": 6858,
      "diver": 6859,
      "lamp": 6860,
      "laser": 6861,
      "pand": 6862,
      "ric": 6863,
      "##aust": 6864,
      "##ixt": 6865,
      "##ket": 6866,
      "##orter": 6867,
      "##asive": 6868,
      "##lets": 6869,
      "##ura": 6870,
      "stable": 6871,
      "stages": 6872,
      "shirt": 6873,
      "output": 6874,
      "intent": 6875,
      "perpet": 6876,
      "##udes": 6877,
      "granted": 6878,
      "realm": 6879,
      "afterwards": 6880,
      "##akers": 6881,
      "glad": 6882,
      "##aws": 6883,
      "airport": 6884,
      "educated": 6885,
      "defense": 6886,
      "paraly": 6887,
      "drawn": 6888,
      "craft": 6889,
      "Arch": 6890,
      "transparency": 6891,
      "balls": 6892,
      "layers": 6893,
      "mechanisms": 6894,
      "links": 6895,
      "catast": 6896,
      "uncomfort": 6897,
      "methods": 6898,
      "symbols": 6899,
      "beliefs": 6900,
      "Design": 6901,
      "pilot": 6902,
      "prosper": 6903,
      "surfaces": 6904,
      "dominant": 6905,
      "Hello": 6906,
      "sharp": 6907,
      "33": 6908,
      "Bible": 6909,
      "Hollywood": 6910,
      "La": 6911,
      "Turn": 6912,
      "Wall": 6913,
      "dive": 6914,
      "fib": 6915,
      "hier": 6916,
      "jelly": 6917,
      "##oen": 6918,
      "##rat": 6919,
      "##fin": 6920,
      "##zens": 6921,
      "thumb": 6922,
      "##oust": 6923,
      "toys": 6924,
      "##igation": 6925,
      "anthrop": 6926,
      "##think": 6927,
      "seats": 6928,
      "external": 6929,
      "chief": 6930,
      "Italy": 6931,
      "trop": 6932,
      "yours": 6933,
      "commod": 6934,
      "Children": 6935,
      "appeal": 6936,
      "##aks": 6937,
      "crops": 6938,
      "schiz": 6939,
      "lighting": 6940,
      "bias": 6941,
      "adding": 6942,
      "stops": 6943,
      "musicians": 6944,
      "eleg": 6945,
      "speaker": 6946,
      "identified": 6947,
      "trends": 6948,
      "consume": 6949,
      "inspire": 6950,
      "Prof": 6951,
      "delivered": 6952,
      "terrorists": 6953,
      "ethical": 6954,
      "crucial": 6955,
      "athlet": 6956,
      "Martin": 6957,
      "isolated": 6958,
      "passwords": 6959,
      "database": 6960,
      "emphas": 6961,
      "Mand": 6962,
      "Pan": 6963,
      "Que": 6964,
      "Time": 6965,
      "Up": 6966,
      "gir": 6967,
      "pile": 6968,
      "waters": 6969,
      "##tocin": 6970,
      "##pox": 6971,
      "##walk": 6972,
      "##err": 6973,
      "##ione": 6974,
      "neat": 6975,
      "neural": 6976,
      "chrom": 6977,
      "##inder": 6978,
      "Whether": 6979,
      "clim": 6980,
      "disrupt": 6981,
      "##ptions": 6982,
      "Child": 6983,
      "owned": 6984,
      "helicop": 6985,
      "monit": 6986,
      "strangers": 6987,
      "recru": 6988,
      "farmer": 6989,
      "earn": 6990,
      "capability": 6991,
      "passing": 6992,
      "depressed": 6993,
      "##viously": 6994,
      "poster": 6995,
      "pulling": 6996,
      "suggesting": 6997,
      "textbook": 6998,
      "vacu": 6999,
      "improvement": 7000,
      "affordable": 7001,
      "##going": 7002,
      "calculate": 7003,
      "spectacular": 7004,
      "demonstrate": 7005,
      "journalist": 7006,
      "injury": 7007,
      "Flor": 7008,
      "chimpanzees": 7009,
      "Smith": 7010,
      "announced": 7011,
      "anxiety": 7012,
      "Oxford": 7013,
      "Ocean": 7014,
      "richer": 7015,
      "BF": 7016,
      "Long": 7017,
      "Mod": 7018,
      "Nature": 7019,
      "Vide": 7020,
      "aer": 7021,
      "bars": 7022,
      "dear": 7023,
      "fiber": 7024,
      "laid": 7025,
      "nets": 7026,
      "picking": 7027,
      "wid": 7028,
      "##de": 7029,
      "##onic": 7030,
      "##alian": 7031,
      "##through": 7032,
      "##illing": 7033,
      "##essor": 7034,
      "knee": 7035,
      "upset": 7036,
      "##ares": 7037,
      "happier": 7038,
      "bull": 7039,
      "##iac": 7040,
      "adoles": 7041,
      "##onscious": 7042,
      "relax": 7043,
      "consult": 7044,
      "strip": 7045,
      "elections": 7046,
      "regret": 7047,
      "accidents": 7048,
      "district": 7049,
      "proper": 7050,
      "treatments": 7051,
      "Should": 7052,
      "speakers": 7053,
      "breakthrough": 7054,
      "edges": 7055,
      "origami": 7056,
      "circles": 7057,
      "participants": 7058,
      "debt": 7059,
      "tuna": 7060,
      "integrated": 7061,
      "Arabic": 7062,
      "agricultural": 7063,
      "category": 7064,
      "Cambr": 7065,
      "recommend": 7066,
      "Eastern": 7067,
      "grandchildren": 7068,
      "uncomfortable": 7069,
      "Oct": 7070,
      "Rio": 7071,
      "SS": 7072,
      "Six": 7073,
      "jun": 7074,
      "kiss": 7075,
      "naked": 7076,
      "tied": 7077,
      "veter": 7078,
      "##hes": 7079,
      "ink": 7080,
      "inch": 7081,
      "##oma": 7082,
      "dozens": 7083,
      "soap": 7084,
      "spr": 7085,
      "##osal": 7086,
      "##osure": 7087,
      "quit": 7088,
      "manif": 7089,
      "unh": 7090,
      "parties": 7091,
      "intervention": 7092,
      "sheet": 7093,
      "blame": 7094,
      "##cohol": 7095,
      "emerge": 7096,
      "##uba": 7097,
      "traject": 7098,
      "biologists": 7099,
      "photographer": 7100,
      "##arents": 7101,
      "robust": 7102,
      "painted": 7103,
      "##mingly": 7104,
      "protecting": 7105,
      "includes": 7106,
      "predictions": 7107,
      "origin": 7108,
      "photography": 7109,
      "reduced": 7110,
      "fuels": 7111,
      "copyright": 7112,
      "reports": 7113,
      "characteristics": 7114,
      "citizen": 7115,
      "separated": 7116,
      "variation": 7117,
      "banks": 7118,
      "Blue": 7119,
      "tricks": 7120,
      "chapter": 7121,
      "revenue": 7122,
      "autonomous": 7123,
      "ridiculous": 7124,
      "dynamics": 7125,
      "conclude": 7126,
      "ignorance": 7127,
      "##heimer": 7128,
      "lungs": 7129,
      "Rwanda": 7130,
      "reputation": 7131,
      "Soviet": 7132,
      "schizoph": 7133,
      "Video": 7134,
      "85": 7135,
      "Gand": 7136,
      "Hel": 7137,
      "Pole": 7138,
      "Peter": 7139,
      "Syr": 7140,
      "aesth": 7141,
      "cab": 7142,
      "gh": 7143,
      "mate": 7144,
      "punch": 7145,
      "session": 7146,
      "##bling": 7147,
      "##utical": 7148,
      "render": 7149,
      "recip": 7150,
      "Things": 7151,
      "##opher": 7152,
      "degrad": 7153,
      "spark": 7154,
      "spots": 7155,
      "enth": 7156,
      "agencies": 7157,
      "##ache": 7158,
      "##aches": 7159,
      "ending": 7160,
      "glaci": 7161,
      "smallpox": 7162,
      "handed": 7163,
      "2001": 7164,
      "2006": 7165,
      "settle": 7166,
      "confident": 7167,
      "globalization": 7168,
      "thirds": 7169,
      "experimental": 7170,
      "observ": 7171,
      "impacts": 7172,
      "sticks": 7173,
      "returned": 7174,
      "determined": 7175,
      "cryst": 7176,
      "physicist": 7177,
      "consequence": 7178,
      "hanging": 7179,
      "teenagers": 7180,
      "tribes": 7181,
      "ecosystems": 7182,
      "Obviously": 7183,
      "wheelch": 7184,
      "unlikely": 7185,
      "synthetic": 7186,
      "briefly": 7187,
      "federal": 7188,
      "Research": 7189,
      "dictionary": 7190,
      "Ethiopia": 7191,
      "Florida": 7192,
      "Bur": 7193,
      "Cont": 7194,
      "Lab": 7195,
      "Lib": 7196,
      "Put": 7197,
      "River": 7198,
      "Ser": 7199,
      "Ven": 7200,
      "bump": 7201,
      "lon": 7202,
      "sle": 7203,
      "##case": 7204,
      "##west": 7205,
      "##Talk": 7206,
      "##utch": 7207,
      "Third": 7208,
      "stores": 7209,
      "##oli": 7210,
      "##iel": 7211,
      "##aceutical": 7212,
      "agency": 7213,
      "cliff": 7214,
      "disag": 7215,
      "brib": 7216,
      "##ighter": 7217,
      "opens": 7218,
      "trag": 7219,
      "biod": 7220,
      "##ribly": 7221,
      "Isn": 7222,
      "TEDTalk": 7223,
      "landed": 7224,
      "sensory": 7225,
      "originally": 7226,
      "nucle": 7227,
      "Prize": 7228,
      "crossing": 7229,
      "Carol": 7230,
      "southern": 7231,
      "reminded": 7232,
      "resistant": 7233,
      "expanding": 7234,
      "repeated": 7235,
      "trucks": 7236,
      "##ogenesis": 7237,
      "constructed": 7238,
      "bathroom": 7239,
      "##iatric": 7240,
      "Department": 7241,
      "Antar": 7242,
      "welcome": 7243,
      "Virgin": 7244,
      "Bay": 7245,
      "Dere": 7246,
      "MT": 7247,
      "Miss": 7248,
      "Make": 7249,
      "Move": 7250,
      "Ro": 7251,
      "Sk": 7252,
      "Wal": 7253,
      "lit": 7254,
      "lux": 7255,
      "sulf": 7256,
      "##ihood": 7257,
      "##under": 7258,
      "##wor": 7259,
      "##zheimer": 7260,
      "threw": 7261,
      "thresh": 7262,
      "##atts": 7263,
      "##rey": 7264,
      "inches": 7265,
      "##omb": 7266,
      "beet": 7267,
      "doors": 7268,
      "##amine": 7269,
      "meal": 7270,
      "alcohol": 7271,
      "actor": 7272,
      "##ogether": 7273,
      "comprom": 7274,
      "clients": 7275,
      "##ober": 7276,
      "underlying": 7277,
      "persist": 7278,
      "drivers": 7279,
      "guide": 7280,
      "apple": 7281,
      "simult": 7282,
      "court": 7283,
      "mode": 7284,
      "caps": 7285,
      "discoveries": 7286,
      "Alzheimer": 7287,
      "positions": 7288,
      "sentences": 7289,
      "predicted": 7290,
      "facility": 7291,
      "brave": 7292,
      "ultra": 7293,
      "primarily": 7294,
      "Johns": 7295,
      "pushed": 7296,
      "assumptions": 7297,
      "oxytocin": 7298,
      "dinosaur": 7299,
      "rarely": 7300,
      "makers": 7301,
      "chaos": 7302,
      "nurses": 7303,
      "pyramid": 7304,
      "chromos": 7305,
      "vacuum": 7306,
      "October": 7307,
      "schizophren": 7308,
      "threshold": 7309,
      "Out": 7310,
      "Squ": 7311,
      "cert": 7312,
      "fool": 7313,
      "fract": 7314,
      "fought": 7315,
      "tro": 7316,
      "##vy": 7317,
      "##atom": 7318,
      "##aran": 7319,
      "ham": 7320,
      "Through": 7321,
      "##opard": 7322,
      "##ilit": 7323,
      "orb": 7324,
      "spa": 7325,
      "##aine": 7326,
      "##emen": 7327,
      "sacred": 7328,
      "reson": 7329,
      "##obs": 7330,
      "##obile": 7331,
      "arrow": 7332,
      "owner": 7333,
      "caring": 7334,
      "artistic": 7335,
      "served": 7336,
      "farming": 7337,
      "regener": 7338,
      "curren": 7339,
      "figuring": 7340,
      "measures": 7341,
      "holds": 7342,
      "Beij": 7343,
      "targets": 7344,
      "translated": 7345,
      "burst": 7346,
      "salt": 7347,
      "bubbles": 7348,
      "hackers": 7349,
      "shopping": 7350,
      "shelter": 7351,
      "reveal": 7352,
      "extended": 7353,
      "Saturn": 7354,
      "inevitable": 7355,
      "##capes": 7356,
      "##avery": 7357,
      "hemis": 7358,
      "begun": 7359,
      "genocide": 7360,
      "Sur": 7361,
      "Sure": 7362,
      "gases": 7363,
      "hip": 7364,
      "hitting": 7365,
      "mig": 7366,
      "sits": 7367,
      "##mble": 7368,
      "##bra": 7369,
      "##bru": 7370,
      "##BI": 7371,
      "##DA": 7372,
      "tone": 7373,
      "tooth": 7374,
      "##onia": 7375,
      "##arre": 7376,
      "##icious": 7377,
      "##urse": 7378,
      "##ola": 7379,
      "chairs": 7380,
      "butt": 7381,
      "outs": 7382,
      "exped": 7383,
      "clar": 7384,
      "partly": 7385,
      "acid": 7386,
      "scores": 7387,
      "incident": 7388,
      "##phere": 7389,
      "##phones": 7390,
      "writers": 7391,
      "lethal": 7392,
      "involve": 7393,
      "191": 7394,
      "attitude": 7395,
      "headed": 7396,
      "disturb": 7397,
      "answered": 7398,
      "programming": 7399,
      "objective": 7400,
      "focusing": 7401,
      "observation": 7402,
      "volcan": 7403,
      "promote": 7404,
      "1990s": 7405,
      "emerged": 7406,
      "primitive": 7407,
      "pupp": 7408,
      "throwing": 7409,
      "panels": 7410,
      "consistent": 7411,
      "permission": 7412,
      "flexible": 7413,
      "forgotten": 7414,
      "elderly": 7415,
      "expansion": 7416,
      "gonna": 7417,
      "Ap": 7418,
      "Acc": 7419,
      "Cle": 7420,
      "Mag": 7421,
      "Mah": 7422,
      "Sorry": 7423,
      "Titan": 7424,
      "bother": 7425,
      "cott": 7426,
      "hill": 7427,
      "rice": 7428,
      "sink": 7429,
      "sisters": 7430,
      "silly": 7431,
      "wired": 7432,
      "##rome": 7433,
      "##afe": 7434,
      "##uk": 7435,
      "##wl": 7436,
      "##liam": 7437,
      "##MS": 7438,
      "##erd": 7439,
      "##erved": 7440,
      "##ena": 7441,
      "##ora": 7442,
      "##ali": 7443,
      "##itudes": 7444,
      "whis": 7445,
      "abilities": 7446,
      "##ulum": 7447,
      "##ureau": 7448,
      "##apor": 7449,
      "lean": 7450,
      "leverage": 7451,
      "##obi": 7452,
      "##icks": 7453,
      "flour": 7454,
      "smarter": 7455,
      "##ails": 7456,
      "helpful": 7457,
      "founded": 7458,
      "imagery": 7459,
      "subtle": 7460,
      "regime": 7461,
      "warning": 7462,
      "2003": 7463,
      "proposed": 7464,
      "killer": 7465,
      "magical": 7466,
      "Somebody": 7467,
      "difficulty": 7468,
      "sensor": 7469,
      "audio": 7470,
      "operations": 7471,
      "nonp": 7472,
      "supported": 7473,
      "winning": 7474,
      "enterpr": 7475,
      "suggested": 7476,
      "array": 7477,
      "soldier": 7478,
      "sleeping": 7479,
      "participation": 7480,
      "graphic": 7481,
      "disappoint": 7482,
      "collaborative": 7483,
      "philanthrop": 7484,
      "documents": 7485,
      "1970s": 7486,
      "Play": 7487,
      "liberal": 7488,
      "diagnosed": 7489,
      "satellites": 7490,
      "tribe": 7491,
      "pursue": 7492,
      "CEO": 7493,
      "ensure": 7494,
      "resilience": 7495,
      "mysterious": 7496,
      "refriger": 7497,
      "manifest": 7498,
      "Den": 7499,
      "Det": 7500,
      "Sir": 7501,
      "Sund": 7502,
      "duck": 7503,
      "gee": 7504,
      "pione": 7505,
      "ts": 7506,
      "tear": 7507,
      "##den": 7508,
      "##ville": 7509,
      "##ye": 7510,
      "##bled": 7511,
      "##ET": 7512,
      "##EC": 7513,
      "theore": 7514,
      "##oning": 7515,
      "##othing": 7516,
      "stom": 7517,
      "stun": 7518,
      "washing": 7519,
      "whatso": 7520,
      "hey": 7521,
      "##allow": 7522,
      "plain": 7523,
      "plug": 7524,
      "compos": 7525,
      "##izer": 7526,
      "##izarre": 7527,
      "needle": 7528,
      "bucks": 7529,
      "##asses": 7530,
      "grat": 7531,
      "roots": 7532,
      "offs": 7533,
      "slavery": 7534,
      "highlight": 7535,
      "elite": 7536,
      "openness": 7537,
      "elected": 7538,
      "##inson": 7539,
      "assess": 7540,
      "expectancy": 7541,
      "radically": 7542,
      "failing": 7543,
      "explaining": 7544,
      "joint": 7545,
      "grandp": 7546,
      "keyboard": 7547,
      "photographed": 7548,
      "competitive": 7549,
      "Within": 7550,
      "immense": 7551,
      "domain": 7552,
      "immediate": 7553,
      "1980s": 7554,
      "buried": 7555,
      "struggling": 7556,
      "baseball": 7557,
      "victim": 7558,
      "gathering": 7559,
      "Russian": 7560,
      "shocked": 7561,
      "analyze": 7562,
      "skept": 7563,
      "additional": 7564,
      "millenn": 7565,
      "routine": 7566,
      "##atrix": 7567,
      "adopted": 7568,
      "dialogue": 7569,
      "elephants": 7570,
      "colonies": 7571,
      "perceive": 7572,
      "assembly": 7573,
      "merely": 7574,
      "exponential": 7575,
      "astonishing": 7576,
      "Jesus": 7577,
      "wheelchair": 7578,
      "biodiversity": 7579,
      "whatsoever": 7580,
      "Gates": 7581,
      "KB": 7582,
      "Power": 7583,
      "Sal": 7584,
      "Unt": 7585,
      "cats": 7586,
      "mood": 7587,
      "ub": 7588,
      "##tical": 7589,
      "##aving": 7590,
      "##yard": 7591,
      "ton": 7592,
      "##ani": 7593,
      "##itous": 7594,
      "chron": 7595,
      "convert": 7596,
      "spell": 7597,
      "agent": 7598,
      "##iban": 7599,
      "phosph": 7600,
      "flows": 7601,
      "basket": 7602,
      "completed": 7603,
      "serving": 7604,
      "mining": 7605,
      "interestingly": 7606,
      "proportion": 7607,
      "excl": 7608,
      "selfish": 7609,
      "Organ": 7610,
      "Brown": 7611,
      "successfully": 7612,
      "deliber": 7613,
      "supermark": 7614,
      "industries": 7615,
      "arrive": 7616,
      "exception": 7617,
      "translation": 7618,
      "fraction": 7619,
      "daughters": 7620,
      "demonstration": 7621,
      "climbing": 7622,
      "skelet": 7623,
      "informed": 7624,
      "fabulous": 7625,
      "tort": 7626,
      "##esthes": 7627,
      "Febru": 7628,
      "dolphin": 7629,
      "shifting": 7630,
      "refugees": 7631,
      "##rofit": 7632,
      "instructions": 7633,
      "stroke": 7634,
      "unbelievable": 7635,
      "Cambridge": 7636,
      "Derek": 7637,
      "##liament": 7638,
      "February": 7639,
      "Aug": 7640,
      "Fif": 7641,
      "LED": 7642,
      "Mother": 7643,
      "None": 7644,
      "Sar": 7645,
      "Som": 7646,
      "bizarre": 7647,
      "cig": 7648,
      "cable": 7649,
      "pir": 7650,
      "wider": 7651,
      "##mers": 7652,
      "##mates": 7653,
      "##erable": 7654,
      "tong": 7655,
      "##eday": 7656,
      "##olars": 7657,
      "shore": 7658,
      "cham": 7659,
      "decent": 7660,
      "##ifice": 7661,
      "trash": 7662,
      "##heres": 7663,
      "##abil": 7664,
      "##agos": 7665,
      "description": 7666,
      "imaging": 7667,
      "##aze": 7668,
      "capabilities": 7669,
      "publ": 7670,
      "curric": 7671,
      "profile": 7672,
      "confused": 7673,
      "invested": 7674,
      "surviv": 7675,
      "strongly": 7676,
      "architectural": 7677,
      "entering": 7678,
      "Without": 7679,
      "leaf": 7680,
      "Comp": 7681,
      "suffered": 7682,
      "representation": 7683,
      "methane": 7684,
      "physician": 7685,
      "tunnel": 7686,
      "surprisingly": 7687,
      "attractive": 7688,
      "Scott": 7689,
      "skeleton": 7690,
      "Norway": 7691,
      "defend": 7692,
      "synthes": 7693,
      "Greek": 7694,
      "refugee": 7695,
      "fortunate": 7696,
      "lawyer": 7697,
      "intrig": 7698,
      "hypothesis": 7699,
      "##oosing": 7700,
      "accomplish": 7701,
      "fragile": 7702,
      "correspond": 7703,
      "AB": 7704,
      "Bron": 7705,
      "Coun": 7706,
      "Lou": 7707,
      "List": 7708,
      "Love": 7709,
      "].": 7710,
      "ain": 7711,
      "boo": 7712,
      "nerve": 7713,
      "nurse": 7714,
      "rivers": 7715,
      "##rid": 7716,
      "##uity": 7717,
      "##MA": 7718,
      "##enly": 7719,
      "##organ": 7720,
      "##eda": 7721,
      "##isy": 7722,
      "bears": 7723,
      "stake": 7724,
      "##cember": 7725,
      "##opamine": 7726,
      "sew": 7727,
      "##illa": 7728,
      "##ested": 7729,
      "##estra": 7730,
      "choosing": 7731,
      "##umes": 7732,
      "##istically": 7733,
      "upd": 7734,
      "seeking": 7735,
      "compelling": 7736,
      "##cond": 7737,
      "simulation": 7738,
      "stranger": 7739,
      "homework": 7740,
      "weeke": 7741,
      "remembered": 7742,
      "##itution": 7743,
      "Arctic": 7744,
      "breaks": 7745,
      "tempt": 7746,
      "fastest": 7747,
      "institutional": 7748,
      "December": 7749,
      "threats": 7750,
      "terrorist": 7751,
      "cartoons": 7752,
      "printed": 7753,
      "infection": 7754,
      "Islands": 7755,
      "miracle": 7756,
      "prepare": 7757,
      "judgment": 7758,
      "microbial": 7759,
      "mixed": 7760,
      "golden": 7761,
      "tumors": 7762,
      "shelf": 7763,
      "Joe": 7764,
      "garage": 7765,
      "replicate": 7766,
      "nutrition": 7767,
      "lawyers": 7768,
      "Turkey": 7769,
      "discipline": 7770,
      "pharmaceutical": 7771,
      "squee": 7772,
      "uncertainty": 7773,
      "Professor": 7774,
      "Gore": 7775,
      "Id": 7776,
      "ah": 7777,
      "bored": 7778,
      "dumb": 7779,
      "fits": 7780,
      "nurt": 7781,
      "rats": 7782,
      "##bage": 7783,
      "##front": 7784,
      "##LA": 7785,
      "##ati": 7786,
      "inhab": 7787,
      "##stone": 7788,
      "shout": 7789,
      "ships": 7790,
      "neck": 7791,
      "orph": 7792,
      "spons": 7793,
      "enabled": 7794,
      "##ela": 7795,
      "##otherap": 7796,
      "realizing": 7797,
      "##pled": 7798,
      "brut": 7799,
      "genetically": 7800,
      "distingu": 7801,
      "membr": 7802,
      "restore": 7803,
      "restrict": 7804,
      "located": 7805,
      "expecting": 7806,
      "Leon": 7807,
      "affects": 7808,
      "experiencing": 7809,
      "gradually": 7810,
      "closing": 7811,
      "magnitude": 7812,
      "authorities": 7813,
      "intuition": 7814,
      "negoti": 7815,
      "professionals": 7816,
      "tackle": 7817,
      "senior": 7818,
      "Taliban": 7819,
      "paralyzed": 7820,
      "enthus": 7821,
      "Beijing": 7822,
      "Bet": 7823,
      "Dad": 7824,
      "Eric": 7825,
      "Moo": 7826,
      "Nic": 7827,
      "Sou": 7828,
      "cous": 7829,
      "cake": 7830,
      "sin": 7831,
      "wra": 7832,
      "west": 7833,
      "##power": 7834,
      "##kins": 7835,
      "##flies": 7836,
      "##reh": 7837,
      "##orus": 7838,
      "##asm": 7839,
      "##urable": 7840,
      "##opath": 7841,
      "##raph": 7842,
      "shots": 7843,
      "alph": 7844,
      "triv": 7845,
      "spont": 7846,
      "spray": 7847,
      "enables": 7848,
      "##emics": 7849,
      "leather": 7850,
      "pride": 7851,
      "aggreg": 7852,
      "unable": 7853,
      "uniform": 7854,
      "dism": 7855,
      "chances": 7856,
      "##seless": 7857,
      "deserve": 7858,
      "##angible": 7859,
      "Church": 7860,
      "remaining": 7861,
      "schem": 7862,
      "insist": 7863,
      "##ostic": 7864,
      "articles": 7865,
      "extinction": 7866,
      "metric": 7867,
      "foods": 7868,
      "forming": 7869,
      "demands": 7870,
      "addict": 7871,
      "charges": 7872,
      "cheese": 7873,
      "innocent": 7874,
      "occurs": 7875,
      "traditions": 7876,
      "improved": 7877,
      "staying": 7878,
      "included": 7879,
      "beneath": 7880,
      "covering": 7881,
      "jumped": 7882,
      "portion": 7883,
      "##yrus": 7884,
      "Trans": 7885,
      "profoundly": 7886,
      "widely": 7887,
      "fortune": 7888,
      "engineered": 7889,
      "homeless": 7890,
      "vulnerability": 7891,
      "Minister": 7892,
      "gods": 7893,
      "initially": 7894,
      "besides": 7895,
      "ownership": 7896,
      "conservative": 7897,
      "trajectory": 7898,
      "August": 7899,
      "Cra": 7900,
      "Dra": 7901,
      "Dutch": 7902,
      "Jud": 7903,
      "Mach": 7904,
      "Ray": 7905,
      "Saud": 7906,
      "Tim": 7907,
      "],": 7908,
      "dile": 7909,
      "gaps": 7910,
      "lap": 7911,
      "nom": 7912,
      "pairs": 7913,
      "wand": 7914,
      "##oe": 7915,
      "##rical": 7916,
      "##iences": 7917,
      "##reced": 7918,
      "##reement": 7919,
      "##onald": 7920,
      "##anish": 7921,
      "infer": 7922,
      "##ician": 7923,
      "##oples": 7924,
      "##adays": 7925,
      "comments": 7926,
      "chips": 7927,
      "peoples": 7928,
      "##ague": 7929,
      "diff": 7930,
      "coc": 7931,
      "loving": 7932,
      "##anged": 7933,
      "drone": 7934,
      "transcend": 7935,
      "##ype": 7936,
      "organizing": 7937,
      "preserve": 7938,
      "valid": 7939,
      "##otted": 7940,
      "musician": 7941,
      "secrets": 7942,
      "Peace": 7943,
      "##apped": 7944,
      "footage": 7945,
      "survived": 7946,
      "approaches": 7947,
      "civic": 7948,
      "observe": 7949,
      "steal": 7950,
      "facilities": 7951,
      "marry": 7952,
      "printer": 7953,
      "tracks": 7954,
      "reactions": 7955,
      "tendency": 7956,
      "errors": 7957,
      "detailed": 7958,
      "assumption": 7959,
      "influenced": 7960,
      "burned": 7961,
      "soup": 7962,
      "hunting": 7963,
      "physicists": 7964,
      "Charl": 7965,
      "frog": 7966,
      "##edding": 7967,
      "odds": 7968,
      "substance": 7969,
      "shrink": 7970,
      "conducted": 7971,
      "qualities": 7972,
      "Brook": 7973,
      "established": 7974,
      "glamorous": 7975,
      "Homo": 7976,
      "scenario": 7977,
      "pandemic": 7978,
      "tsun": 7979,
      "curriculum": 7980,
      "Bronx": 7981,
      "##recedented": 7982,
      "Camp": 7983,
      "Hy": 7984,
      "Kor": 7985,
      "Mike": 7986,
      "Medic": 7987,
      "Tes": 7988,
      "cub": 7989,
      "dow": 7990,
      "dies": 7991,
      "diving": 7992,
      "dung": 7993,
      "lone": 7994,
      "rh": 7995,
      "wrap": 7996,
      "##aa": 7997,
      "##list": 7998,
      "##lings": 7999,
      "##fast": 8000,
      "##ini": 8001,
      "##inarily": 8002,
      "##esign": 8003,
      "##arly": 8004,
      "##asy": 8005,
      "rehab": 8006,
      "anonymous": 8007,
      "##ading": 8008,
      "##aded": 8009,
      "##umble": 8010,
      "convey": 8011,
      "##atever": 8012,
      "##ifer": 8013,
      "outer": 8014,
      "engin": 8015,
      "Whatever": 8016,
      "##agen": 8017,
      "export": 8018,
      "clothing": 8019,
      "twist": 8020,
      "interf": 8021,
      "armed": 8022,
      "channels": 8023,
      "factories": 8024,
      "brows": 8025,
      "asks": 8026,
      "crop": 8027,
      "instantly": 8028,
      "mindset": 8029,
      "fung": 8030,
      "woke": 8031,
      "distract": 8032,
      "socially": 8033,
      "sixth": 8034,
      "defic": 8035,
      "excit": 8036,
      "Brun": 8037,
      "##ropy": 8038,
      "investing": 8039,
      "improving": 8040,
      "fears": 8041,
      "urge": 8042,
      "combat": 8043,
      "reducing": 8044,
      "flowing": 8045,
      "lifes": 8046,
      "delivery": 8047,
      "graphics": 8048,
      "detection": 8049,
      "significantly": 8050,
      "wildlife": 8051,
      "rolling": 8052,
      "optimism": 8053,
      "panel": 8054,
      "wealthy": 8055,
      "pigs": 8056,
      "gathered": 8057,
      "Northern": 8058,
      "substant": 8059,
      "insights": 8060,
      "unprecedented": 8061,
      "nutrients": 8062,
      "frustrated": 8063,
      "comparison": 8064,
      "queen": 8065,
      "interpretation": 8066,
      "neutral": 8067,
      "aggressive": 8068,
      "simultaneously": 8069,
      "grandparents": 8070,
      "dilem": 8071,
      "engines": 8072,
      "29": 8073,
      "Far": 8074,
      "Hen": 8075,
      "Met": 8076,
      "March": 8077,
      "Rock": 8078,
      "Under": 8079,
      "Walk": 8080,
      "Watch": 8081,
      "lions": 8082,
      "lake": 8083,
      "rays": 8084,
      "tune": 8085,
      "##ship": 8086,
      "##down": 8087,
      "##mony": 8088,
      "##30": 8089,
      "##inter": 8090,
      "toss": 8091,
      "##itage": 8092,
      "##owing": 8093,
      "bend": 8094,
      "bell": 8095,
      "##uty": 8096,
      "##sey": 8097,
      "##urd": 8098,
      "##road": 8099,
      "deck": 8100,
      "tends": 8101,
      "intensive": 8102,
      "##employ": 8103,
      "twe": 8104,
      "interrupt": 8105,
      "acoust": 8106,
      "##quis": 8107,
      "incl": 8108,
      "incor": 8109,
      "counting": 8110,
      "##arsh": 8111,
      "indig": 8112,
      "remained": 8113,
      "courses": 8114,
      "crick": 8115,
      "Howard": 8116,
      "extension": 8117,
      "healthier": 8118,
      "subway": 8119,
      "demographic": 8120,
      "profits": 8121,
      "morality": 8122,
      "kills": 8123,
      "structural": 8124,
      "bottles": 8125,
      "explains": 8126,
      "supporting": 8127,
      "Spanish": 8128,
      "medication": 8129,
      "arrange": 8130,
      "accounts": 8131,
      "threatened": 8132,
      "Govern": 8133,
      "strategic": 8134,
      "purposes": 8135,
      "expertise": 8136,
      "1960": 8137,
      "halluc": 8138,
      "cruel": 8139,
      "gentleman": 8140,
      "restaurants": 8141,
      "categories": 8142,
      "athe": 8143,
      "garbage": 8144,
      "rubber": 8145,
      "analogy": 8146,
      "Alexander": 8147,
      "adventure": 8148,
      "contemporary": 8149,
      "obstacles": 8150,
      "Saharan": 8151,
      "sacrifice": 8152,
      "Square": 8153,
      "##otherapy": 8154,
      "Both": 8155,
      "Cour": 8156,
      "Es": 8157,
      "Econom": 8158,
      "Jose": 8159,
      "Sn": 8160,
      "Scient": 8161,
      "boun": 8162,
      "dressed": 8163,
      "gear": 8164,
      "gate": 8165,
      "hors": 8166,
      "tie": 8167,
      "##rich": 8168,
      "##eon": 8169,
      "##xual": 8170,
      "##gence": 8171,
      "##hea": 8172,
      "##field": 8173,
      "##atar": 8174,
      "##oral": 8175,
      "inn": 8176,
      "beating": 8177,
      "recept": 8178,
      "canopy": 8179,
      "shipping": 8180,
      "##antom": 8181,
      "someday": 8182,
      "butter": 8183,
      "upside": 8184,
      "##oded": 8185,
      "##agon": 8186,
      "uncle": 8187,
      "impression": 8188,
      "gotta": 8189,
      "##athan": 8190,
      "drones": 8191,
      "reliable": 8192,
      "Str": 8193,
      "pointing": 8194,
      "recall": 8195,
      "infl": 8196,
      "proto": 8197,
      "Although": 8198,
      "nights": 8199,
      "trains": 8200,
      "versions": 8201,
      "drawings": 8202,
      "camps": 8203,
      "Spain": 8204,
      "compassionate": 8205,
      "fluores": 8206,
      "females": 8207,
      "2011": 8208,
      "ethnic": 8209,
      "reminds": 8210,
      "irre": 8211,
      "blogs": 8212,
      "classrooms": 8213,
      "iPod": 8214,
      "airplanes": 8215,
      "stimul": 8216,
      "cosmic": 8217,
      "ticket": 8218,
      "contrad": 8219,
      "Open": 8220,
      "stereotyp": 8221,
      "adapted": 8222,
      "currency": 8223,
      "nonprofit": 8224,
      "ubiqu": 8225,
      "Council": 8226,
      "Southern": 8227,
      "Saudi": 8228,
      "Age": 8229,
      "CD": 8230,
      "Eight": 8231,
      "dopamine": 8232,
      "file": 8233,
      "hal": 8234,
      "matrix": 8235,
      "pause": 8236,
      "tubes": 8237,
      "##oly": 8238,
      "##des": 8239,
      "##maker": 8240,
      "##yal": 8241,
      "##bits": 8242,
      "##born": 8243,
      "##kward": 8244,
      "##reens": 8245,
      "##omin": 8246,
      "islands": 8247,
      "##etr": 8248,
      "ongoing": 8249,
      "##olic": 8250,
      "##umin": 8251,
      "Italian": 8252,
      "mac": 8253,
      "##unction": 8254,
      "upload": 8255,
      "intim": 8256,
      "##asty": 8257,
      "clay": 8258,
      "##ipts": 8259,
      "resem": 8260,
      "bug": 8261,
      "loves": 8262,
      "genu": 8263,
      "genetics": 8264,
      "colored": 8265,
      "believes": 8266,
      "planes": 8267,
      "crew": 8268,
      "computation": 8269,
      "##otechnology": 8270,
      "entropy": 8271,
      "Indians": 8272,
      "connects": 8273,
      "redesign": 8274,
      "badly": 8275,
      "Newton": 8276,
      "continuing": 8277,
      "classical": 8278,
      "microph": 8279,
      "Shan": 8280,
      "performed": 8281,
      "eaten": 8282,
      "Whereas": 8283,
      "unfold": 8284,
      "bedroom": 8285,
      "awkward": 8286,
      "peaceful": 8287,
      "closest": 8288,
      "catching": 8289,
      "despair": 8290,
      "Secondly": 8291,
      "##forward": 8292,
      "scanner": 8293,
      "officer": 8294,
      "journalists": 8295,
      "poems": 8296,
      "altru": 8297,
      "incentive": 8298,
      "##anzee": 8299,
      "tower": 8300,
      "1950s": 8301,
      "branch": 8302,
      ".'\"": 8303,
      "rituals": 8304,
      "subsid": 8305,
      "stretch": 8306,
      "explosion": 8307,
      "vagina": 8308,
      "occasionally": 8309,
      "portrait": 8310,
      "NGOs": 8311,
      "column": 8312,
      "excellent": 8313,
      "Palestin": 8314,
      "passenger": 8315,
      "cigaret": 8316,
      "tongue": 8317,
      "excitement": 8318,
      "Bi": 8319,
      "Coll": 8320,
      "Hill": 8321,
      "Hall": 8322,
      "Same": 8323,
      "System": 8324,
      "bust": 8325,
      "bats": 8326,
      "fancy": 8327,
      "nerd": 8328,
      "tut": 8329,
      "##equ": 8330,
      "##war": 8331,
      "##min": 8332,
      "##sec": 8333,
      "##ctu": 8334,
      "##ctica": 8335,
      "stability": 8336,
      "##imal": 8337,
      "prol": 8338,
      "outl": 8339,
      "align": 8340,
      "##ghai": 8341,
      "percept": 8342,
      "client": 8343,
      "amate": 8344,
      "synch": 8345,
      "precious": 8346,
      "preval": 8347,
      "##anges": 8348,
      "##neys": 8349,
      "endanger": 8350,
      "carr": 8351,
      "terribly": 8352,
      "strike": 8353,
      "farms": 8354,
      "generous": 8355,
      "subt": 8356,
      "subur": 8357,
      "Asian": 8358,
      "passive": 8359,
      "signature": 8360,
      "propag": 8361,
      "continents": 8362,
      "devil": 8363,
      "viral": 8364,
      "investors": 8365,
      "opera": 8366,
      "lowest": 8367,
      "robotics": 8368,
      "approaching": 8369,
      "nearby": 8370,
      "editor": 8371,
      "prediction": 8372,
      "##adesh": 8373,
      "harness": 8374,
      "circuits": 8375,
      "spreads": 8376,
      "Develop": 8377,
      "ecological": 8378,
      "earliest": 8379,
      "magnific": 8380,
      "annual": 8381,
      "2012": 8382,
      "appearance": 8383,
      "package": 8384,
      "phenomena": 8385,
      "straightforward": 8386,
      "glasses": 8387,
      "applying": 8388,
      "tissues": 8389,
      "Technology": 8390,
      "paradox": 8391,
      "guns": 8392,
      "corporations": 8393,
      "prosth": 8394,
      "vegetables": 8395,
      "reinvent": 8396,
      "reconstruct": 8397,
      "fortunately": 8398,
      "dragon": 8399,
      "encouraged": 8400,
      "graduated": 8401,
      "items": 8402,
      "arrested": 8403,
      "collapsed": 8404,
      "impressive": 8405,
      "Delhi": 8406,
      "comedy": 8407,
      "##burgh": 8408,
      "monitoring": 8409,
      "tragic": 8410,
      "Antarctica": 8411,
      "luxury": 8412,
      "##working": 8413,
      "cotton": 8414,
      "Moore": 8415,
      "genuine": 8416,
      "Fort": 8417,
      "FBI": 8418,
      "IM": 8419,
      "Josh": 8420,
      "Mu": 8421,
      "RB": 8422,
      "Sud": 8423,
      "Tel": 8424,
      "Tanz": 8425,
      "Vict": 8426,
      "bind": 8427,
      "cath": 8428,
      "dating": 8429,
      "dough": 8430,
      "jew": 8431,
      "na": 8432,
      "rose": 8433,
      "vit": 8434,
      "wires": 8435,
      "##ugg": 8436,
      "##eron": 8437,
      "##isons": 8438,
      "##arians": 8439,
      "rethink": 8440,
      "##stage": 8441,
      "stamp": 8442,
      "ange": 8443,
      "neoc": 8444,
      "##ilty": 8445,
      "excess": 8446,
      "##umines": 8447,
      "mapping": 8448,
      "##ifully": 8449,
      "alb": 8450,
      "seemingly": 8451,
      "##astics": 8452,
      "manual": 8453,
      "managers": 8454,
      "cla": 8455,
      "unemploy": 8456,
      "coach": 8457,
      "disability": 8458,
      "loan": 8459,
      "phantom": 8460,
      "synd": 8461,
      "commission": 8462,
      "drown": 8463,
      "##ava": 8464,
      "scholars": 8465,
      "##ending": 8466,
      "192": 8467,
      "traits": 8468,
      "2050": 8469,
      "Indones": 8470,
      "register": 8471,
      "addiction": 8472,
      "redef": 8473,
      "News": 8474,
      "propose": 8475,
      "researcher": 8476,
      "speaks": 8477,
      "freely": 8478,
      "##aneous": 8479,
      "temporary": 8480,
      "discrim": 8481,
      "Being": 8482,
      "Twenty": 8483,
      "religions": 8484,
      "replaced": 8485,
      "compete": 8486,
      "affecting": 8487,
      "Prob": 8488,
      "annoy": 8489,
      "raped": 8490,
      "landscapes": 8491,
      "damn": 8492,
      "burden": 8493,
      "achievement": 8494,
      "Columb": 8495,
      "interviewed": 8496,
      "nuts": 8497,
      "broadcast": 8498,
      "alternatives": 8499,
      "philosopher": 8500,
      "manufactur": 8501,
      "customer": 8502,
      "teenager": 8503,
      "chimpanzee": 8504,
      "previously": 8505,
      "perceived": 8506,
      "password": 8507,
      "branches": 8508,
      "pedestr": 8509,
      "##itzer": 8510,
      "##ihad": 8511,
      "navigate": 8512,
      "Buddh": 8513,
      "sauce": 8514,
      "jellyfish": 8515,
      "Sunday": 8516,
      "##esthesia": 8517,
      "tsunami": 8518,
      "downt": 8519,
      "Shanghai": 8520,
      "synchron": 8521,
      "Tanzan": 8522,
      "55": 8523,
      "During": 8524,
      "Ford": 8525,
      "LG": 8526,
      "Little": 8527,
      "Nels": 8528,
      "Rand": 8529,
      "Sudd": 8530,
      "Tas": 8531,
      "bin": 8532,
      "bureau": 8533,
      "caves": 8534,
      "dys": 8535,
      "hiding": 8536,
      "native": 8537,
      "rope": 8538,
      "rape": 8539,
      "sized": 8540,
      "##hand": 8541,
      "##uke": 8542,
      "##yan": 8543,
      "##BM": 8544,
      "##nded": 8545,
      "##enh": 8546,
      "##orage": 8547,
      "inex": 8548,
      "##itative": 8549,
      "recess": 8550,
      "habits": 8551,
      "##idential": 8552,
      "static": 8553,
      "shit": 8554,
      "proven": 8555,
      "ups": 8556,
      "yourselves": 8557,
      "safer": 8558,
      "workforce": 8559,
      "##active": 8560,
      "##arest": 8561,
      "manager": 8562,
      "agents": 8563,
      "resolve": 8564,
      "pockets": 8565,
      "##pless": 8566,
      "offices": 8567,
      "obese": 8568,
      "##licit": 8569,
      "numer": 8570,
      "##ergy": 8571,
      "smallest": 8572,
      "hardest": 8573,
      "generating": 8574,
      "ski": 8575,
      "2002": 8576,
      "distances": 8577,
      "challenged": 8578,
      "##ushed": 8579,
      "collectively": 8580,
      "winds": 8581,
      "breakfast": 8582,
      "improv": 8583,
      "specialized": 8584,
      "destiny": 8585,
      "responses": 8586,
      "cycles": 8587,
      "campus": 8588,
      "silver": 8589,
      "transforming": 8590,
      "divor": 8591,
      "Geor": 8592,
      "offering": 8593,
      "prisoners": 8594,
      "Colle": 8595,
      "##iberia": 8596,
      "##anderth": 8597,
      "Supp": 8598,
      "diagnosis": 8599,
      "Neanderth": 8600,
      "flags": 8601,
      "Moz": 8602,
      "ratio": 8603,
      "maker": 8604,
      "assignment": 8605,
      "assistance": 8606,
      "administration": 8607,
      "asteroid": 8608,
      "procedure": 8609,
      "decrease": 8610,
      "guarantee": 8611,
      "fibers": 8612,
      "helicopter": 8613,
      "Johnson": 8614,
      "stomach": 8615,
      "Until": 8616,
      "Leonardo": 8617,
      "wandering": 8618,
      "Koran": 8619,
      "endangered": 8620,
      "Nelson": 8621,
      "37": 8622,
      "42": 8623,
      "Cap": 8624,
      "DV": 8625,
      "Half": 8626,
      "July": 8627,
      "Linc": 8628,
      "Mill": 8629,
      "Norm": 8630,
      "Sel": 8631,
      "Santa": 8632,
      "Ter": 8633,
      "Yemen": 8634,
      "drought": 8635,
      "fusion": 8636,
      "gained": 8637,
      "hired": 8638,
      "junk": 8639,
      "les": 8640,
      "pizz": 8641,
      "tab": 8642,
      "tatt": 8643,
      "##hop": 8644,
      "##kind": 8645,
      "##OL": 8646,
      "toes": 8647,
      "##section": 8648,
      "rect": 8649,
      "storage": 8650,
      "##che": 8651,
      "##oln": 8652,
      "##ulin": 8653,
      "deaf": 8654,
      "intended": 8655,
      "##ema": 8656,
      "sufficient": 8657,
      "##izers": 8658,
      "##abul": 8659,
      "clue": 8660,
      "coat": 8661,
      "interven": 8662,
      "interior": 8663,
      "ampl": 8664,
      "ads": 8665,
      "screw": 8666,
      "brid": 8667,
      "mayor": 8668,
      "builds": 8669,
      "relation": 8670,
      "##cont": 8671,
      "sciences": 8672,
      "Stage": 8673,
      "terrain": 8674,
      "slime": 8675,
      "slums": 8676,
      "bio": 8677,
      "explor": 8678,
      "stopping": 8679,
      "memes": 8680,
      "##eady": 8681,
      "##ashed": 8682,
      "locom": 8683,
      "discovering": 8684,
      "terrifying": 8685,
      "Brian": 8686,
      "##ometown": 8687,
      "Arist": 8688,
      "sensation": 8689,
      "audiences": 8690,
      "approved": 8691,
      "tempor": 8692,
      "encry": 8693,
      "predictable": 8694,
      "##venth": 8695,
      "stepped": 8696,
      "estate": 8697,
      "dominated": 8698,
      "fault": 8699,
      "mobility": 8700,
      "miserable": 8701,
      "unconscious": 8702,
      "wheat": 8703,
      "wheels": 8704,
      "Abra": 8705,
      "Except": 8706,
      "ignored": 8707,
      "parks": 8708,
      "Michel": 8709,
      "teenage": 8710,
      "cooperate": 8711,
      "succeeded": 8712,
      "empowered": 8713,
      "volunteer": 8714,
      "encouraging": 8715,
      "Acad": 8716,
      "estimates": 8717,
      "desperately": 8718,
      "hormone": 8719,
      "##copes": 8720,
      "mathematicians": 8721,
      "retirement": 8722,
      "schizophrenia": 8723,
      "troops": 8724,
      "hemisphere": 8725,
      "phosphorus": 8726,
      "trivial": 8727,
      "cocaine": 8728,
      "Henry": 8729,
      "ubiquitous": 8730,
      "Lincoln": 8731,
      "31": 8732,
      "Bol": 8733,
      "Bell": 8734,
      "Build": 8735,
      "Cur": 8736,
      "Dou": 8737,
      "Ext": 8738,
      "Gene": 8739,
      "Jon": 8740,
      "Men": 8741,
      "SP": 8742,
      "Sen": 8743,
      "Try": 8744,
      "fires": 8745,
      "jazz": 8746,
      "ven": 8747,
      "wedding": 8748,
      "##uce": 8749,
      "##wind": 8750,
      "##makers": 8751,
      "##bow": 8752,
      "##CA": 8753,
      "##inth": 8754,
      "##inery": 8755,
      "##ona": 8756,
      "##isc": 8757,
      "##uther": 8758,
      "anten": 8759,
      "worms": 8760,
      "shine": 8761,
      "heal": 8762,
      "Its": 8763,
      "knife": 8764,
      "spill": 8765,
      "##usiness": 8766,
      "plank": 8767,
      "byp": 8768,
      "##aby": 8769,
      "donor": 8770,
      "manner": 8771,
      "residents": 8772,
      "overnight": 8773,
      "coinc": 8774,
      "interconnected": 8775,
      "##ensus": 8776,
      "##eps": 8777,
      "##irect": 8778,
      "prevention": 8779,
      "##iously": 8780,
      "Stop": 8781,
      "bold": 8782,
      "trace": 8783,
      "artic": 8784,
      "infant": 8785,
      "formal": 8786,
      "sett": 8787,
      "sidewalk": 8788,
      "reasonable": 8789,
      "locally": 8790,
      "equations": 8791,
      "labs": 8792,
      "Friday": 8793,
      "retreat": 8794,
      "territory": 8795,
      "absence": 8796,
      "Yorker": 8797,
      "arguing": 8798,
      "request": 8799,
      "posted": 8800,
      "worthy": 8801,
      "marvel": 8802,
      "mainstream": 8803,
      "describes": 8804,
      "ecology": 8805,
      "safely": 8806,
      "Anyone": 8807,
      "Anybody": 8808,
      "dawn": 8809,
      "clinics": 8810,
      "concerns": 8811,
      "packed": 8812,
      "motivated": 8813,
      "scanning": 8814,
      "exerc": 8815,
      "puzzles": 8816,
      "Bangl": 8817,
      "bags": 8818,
      "kingdom": 8819,
      "pursuit": 8820,
      "Redwood": 8821,
      "blowing": 8822,
      "scenes": 8823,
      "continuous": 8824,
      "manipulate": 8825,
      "minimum": 8826,
      "reproduce": 8827,
      "observed": 8828,
      "contrary": 8829,
      "horizon": 8830,
      "whistle": 8831,
      "grasp": 8832,
      "constraints": 8833,
      "striking": 8834,
      "acknowledge": 8835,
      "convenient": 8836,
      "evalu": 8837,
      "unhappy": 8838,
      "Brooklyn": 8839,
      "Suddenly": 8840,
      "Aristot": 8841,
      "Elect": 8842,
      "Jane": 8843,
      "Lake": 8844,
      "Moon": 8845,
      "Sus": 8846,
      "Tony": 8847,
      "Wait": 8848,
      "Zeal": 8849,
      "fallen": 8850,
      "gif": 8851,
      "hub": 8852,
      "jet": 8853,
      "jihad": 8854,
      "mall": 8855,
      "ooh": 8856,
      "via": 8857,
      "##nes": 8858,
      "##gments": 8859,
      "##hh": 8860,
      "##uctor": 8861,
      "##itable": 8862,
      "##uts": 8863,
      "stored": 8864,
      "##ado": 8865,
      "##outs": 8866,
      "melt": 8867,
      "chains": 8868,
      "proved": 8869,
      "proceed": 8870,
      "mand": 8871,
      "##emies": 8872,
      "compound": 8873,
      "exposure": 8874,
      "aged": 8875,
      "##ulture": 8876,
      "sheets": 8877,
      "offers": 8878,
      "humanitarian": 8879,
      "indo": 8880,
      "relief": 8881,
      "sched": 8882,
      "strict": 8883,
      "biol": 8884,
      "economist": 8885,
      "corrupt": 8886,
      "Industrial": 8887,
      "headlines": 8888,
      "formula": 8889,
      "halfway": 8890,
      "valley": 8891,
      "protest": 8892,
      "config": 8893,
      "locations": 8894,
      "advances": 8895,
      "marketplace": 8896,
      "motors": 8897,
      "listened": 8898,
      "failures": 8899,
      "potato": 8900,
      "psychologist": 8901,
      "consumed": 8902,
      "stays": 8903,
      "cyl": 8904,
      "Leban": 8905,
      "1998": 8906,
      "attacked": 8907,
      "immun": 8908,
      "Compan": 8909,
      "consciously": 8910,
      "extraordinarily": 8911,
      "logical": 8912,
      "Carl": 8913,
      "infections": 8914,
      "calculations": 8915,
      "reflection": 8916,
      "contributed": 8917,
      "emails": 8918,
      "preparing": 8919,
      "honestly": 8920,
      "surrounding": 8921,
      "1960s": 8922,
      "doubled": 8923,
      "tension": 8924,
      "fatal": 8925,
      "assets": 8926,
      "Israeli": 8927,
      "##criptions": 8928,
      "bullet": 8929,
      "complain": 8930,
      "newspapers": 8931,
      "elementary": 8932,
      "transmit": 8933,
      "transmission": 8934,
      "jugg": 8935,
      "altitude": 8936,
      "palm": 8937,
      "limitations": 8938,
      "concentrated": 8939,
      "inevitably": 8940,
      "horizont": 8941,
      "electrodes": 8942,
      "Silicon": 8943,
      "barrier": 8944,
      "recycling": 8945,
      "geometry": 8946,
      "prosperity": 8947,
      "elegant": 8948,
      "Mandela": 8949,
      "Carolina": 8950,
      "claims": 8951,
      "downtown": 8952,
      "College": 8953,
      ",'": 8954,
      "350": 8955,
      "Da": 8956,
      "Fre": 8957,
      "Fore": 8958,
      "Hist": 8959,
      "Mur": 8960,
      "Roy": 8961,
      "SW": 8962,
      "Way": 8963,
      "aug": 8964,
      "bills": 8965,
      "cows": 8966,
      "fate": 8967,
      "fathers": 8968,
      "hometown": 8969,
      "loose": 8970,
      "nodes": 8971,
      "od": 8972,
      "pit": 8973,
      "rib": 8974,
      "rank": 8975,
      "rabb": 8976,
      "sons": 8977,
      "turb": 8978,
      "voting": 8979,
      "##oot": 8980,
      "##py": 8981,
      "##aired": 8982,
      "##like": 8983,
      "##eries": 8984,
      "##ativity": 8985,
      "##secut": 8986,
      "##cher": 8987,
      "##irts": 8988,
      "##ifact": 8989,
      "sperm": 8990,
      "enforce": 8991,
      "##cipe": 8992,
      "sail": 8993,
      "workplace": 8994,
      "lever": 8995,
      "impul": 8996,
      "disabled": 8997,
      "kindness": 8998,
      "ambit": 8999,
      "##icked": 9000,
      "Chile": 9001,
      "drum": 9002,
      "guard": 9003,
      "guilty": 9004,
      "crimes": 9005,
      "glimp": 9006,
      "insulin": 9007,
      "boats": 9008,
      "keys": 9009,
      "believing": 9010,
      "foundations": 9011,
      "highway": 9012,
      "mines": 9013,
      "cellular": 9014,
      "readers": 9015,
      "##cycl": 9016,
      "grave": 9017,
      "beautifully": 9018,
      "amazed": 9019,
      "Almost": 9020,
      "param": 9021,
      "50s": 9022,
      "amazingly": 9023,
      "follows": 9024,
      "deepest": 9025,
      "terrified": 9026,
      "...\"": 9027,
      "psychopath": 9028,
      "embry": 9029,
      "approached": 9030,
      "purple": 9031,
      "reactor": 9032,
      "##ynth": 9033,
      "##ynman": 9034,
      "1990": 9035,
      "activist": 9036,
      "selected": 9037,
      "physicians": 9038,
      "demonstrated": 9039,
      "correctly": 9040,
      "beaten": 9041,
      "ambig": 9042,
      "McD": 9043,
      "concentration": 9044,
      "installed": 9045,
      "installation": 9046,
      "Feynman": 9047,
      "Coast": 9048,
      "prostate": 9049,
      "toilets": 9050,
      "estimated": 9051,
      "initiative": 9052,
      "breeding": 9053,
      "gesture": 9054,
      "atomic": 9055,
      "Hawai": 9056,
      "storytelling": 9057,
      "mimic": 9058,
      "legitimate": 9059,
      "tropical": 9060,
      "girlf": 9061,
      "supermarket": 9062,
      "orphan": 9063,
      "cricket": 9064,
      "Court": 9065,
      "protocell": 9066,
      "Indonesia": 9067,
      "Probably": 9068,
      "Zealand": 9069,
      "47": 9070,
      "Coke": 9071,
      "Eve": 9072,
      "Had": 9073,
      "Hans": 9074,
      "Hong": 9075,
      "Lord": 9076,
      "Qa": 9077,
      "Rom": 9078,
      "Ros": 9079,
      "Tra": 9080,
      "Vi": 9081,
      "award": 9082,
      "dent": 9083,
      "drew": 9084,
      "ech": 9085,
      "hipp": 9086,
      "lanes": 9087,
      "nerves": 9088,
      "oct": 9089,
      "pale": 9090,
      "pills": 9091,
      "sir": 9092,
      "useless": 9093,
      "##gal": 9094,
      "##lihood": 9095,
      "##ker": 9096,
      "thread": 9097,
      "##inging": 9098,
      "##enous": 9099,
      "stones": 9100,
      "staring": 9101,
      "anatom": 9102,
      "canv": 9103,
      "cancers": 9104,
      "ash": 9105,
      "Social": 9106,
      "chop": 9107,
      "spat": 9108,
      "span": 9109,
      "enemies": 9110,
      "##ournal": 9111,
      "##odied": 9112,
      "##mented": 9113,
      "##ansas": 9114,
      "explicit": 9115,
      "overhead": 9116,
      "pole": 9117,
      "##enses": 9118,
      "contam": 9119,
      "##eller": 9120,
      "##elled": 9121,
      "blown": 9122,
      "##phony": 9123,
      "##rence": 9124,
      "guid": 9125,
      "glue": 9126,
      "gluc": 9127,
      "1900": 9128,
      "trail": 9129,
      "artifact": 9130,
      "behalf": 9131,
      "biologist": 9132,
      "supplies": 9133,
      "Nove": 9134,
      "educate": 9135,
      "proposition": 9136,
      "politically": 9137,
      "Shakes": 9138,
      "Someone": 9139,
      "##peare": 9140,
      "psychologists": 9141,
      "communicating": 9142,
      "calm": 9143,
      "calories": 9144,
      "personalized": 9145,
      "origins": 9146,
      "civilizations": 9147,
      "funds": 9148,
      "receiving": 9149,
      "princip": 9150,
      "hybr": 9151,
      "Security": 9152,
      "##bye": 9153,
      "Clint": 9154,
      "blindness": 9155,
      "enjoying": 9156,
      "correl": 9157,
      "Swiss": 9158,
      "narratives": 9159,
      "exhaust": 9160,
      "interviews": 9161,
      "orders": 9162,
      "denial": 9163,
      "bulb": 9164,
      "util": 9165,
      "therapies": 9166,
      "partnership": 9167,
      "summar": 9168,
      "##forestation": 9169,
      "illustrate": 9170,
      "telescopes": 9171,
      "intrins": 9172,
      "officials": 9173,
      "Portug": 9174,
      "glamour": 9175,
      "aspir": 9176,
      "renewable": 9177,
      "orchestra": 9178,
      "mosquito": 9179,
      "bench": 9180,
      "devastating": 9181,
      "punishment": 9182,
      "catastroph": 9183,
      "##oenix": 9184,
      "cabin": 9185,
      "expedition": 9186,
      "Detro": 9187,
      "magnificent": 9188,
      "Victor": 9189,
      "syndrome": 9190,
      "ambitious": 9191,
      "Qaeda": 9192,
      "glucose": 9193,
      "Shakespeare": 9194,
      "JH": 9195,
      "Know": 9196,
      "Math": 9197,
      "Media": 9198,
      "PC": 9199,
      "RS": 9200,
      "Rad": 9201,
      "Rather": 9202,
      "Vol": 9203,
      "batt": 9204,
      "binary": 9205,
      "je": 9206,
[...]
