{
  "version": "1.0",
  "truncation": null,
  "padding": null,
  "added_tokens": [
    {
      "id": 0,
      "content": "[UNK]",
      "single_word": false,
      "lstrip": false,
      "rstrip": false,
      "normalized": false,
      "special": true
    },
    {
      "id": 1,
      "content": "[SOS]",
      "single_word": false,
      "lstrip": false,
      "rstrip": false,
      "normalized": false,
      "special": true
    },
    {
      "id": 2,
      "content": "[PAD]",
      "single_word": false,
      "lstrip": false,
      "rstrip": false,
      "normalized": false,
      "special": true
    },
    {
      "id": 3,
      "content": "[EOS]",
      "single_word": false,
      "lstrip": false,
      "rstrip": false,
      "normalized": false,
      "special": true
    }
  ],
  "normalizer": null,
  "pre_tokenizer": {
    "type": "Whitespace"
  },
  "post_processor": null,
  "decoder": null,
  "model": {
    "type": "BPE",
    "dropout": null,
    "unk_token": "[UNK]",
    "continuing_subword_prefix": "##",
    "end_of_word_suffix": null,
    "fuse_unk": false,
    "byte_fallback": false,
    "ignore_merges": false,
    "vocab": {
      "[UNK]": 0,
      "[SOS]": 1,
      "[PAD]": 2,
      "[EOS]": 3,
      "!": 4,
      "\"": 5,
      "#": 6,
      "$": 7,
      "%": 8,
      "&": 9,
      "'": 10,
      "(": 11,
      ")": 12,
      "*": 13,
      "+": 14,
      ",": 15,
      "-": 16,
      ".": 17,
      "/": 18,
      "0": 19,
      "1": 20,
      "2": 21,
      "3": 22,
      "4": 23,
      "5": 24,
      "6": 25,
      "7": 26,
      "8": 27,
      "9": 28,
      ":": 29,
      ";": 30,
      "=": 31,
      "?": 32,
      "@": 33,
      "A": 34,
      "B": 35,
      "C": 36,
      "D": 37,
      "E": 38,
      "F": 39,
      "G": 40,
      "H": 41,
      "I": 42,
      "J": 43,
      "K": 44,
      "L": 45,
      "M": 46,
      "N": 47,
      "O": 48,
      "P": 49,
      "Q": 50,
      "R": 51,
      "S": 52,
      "T": 53,
      "U": 54,
      "V": 55,
      "W": 56,
      "X": 57,
      "Y": 58,
      "Z": 59,
      "[": 60,
      "]": 61,
      "^": 62,
      "_": 63,
      "`": 64,
      "a": 65,
      "b": 66,
      "c": 67,
      "d": 68,
      "e": 69,
      "f": 70,
      "g": 71,
      "h": 72,
      "i": 73,
      "j": 74,
      "k": 75,
      "l": 76,
      "m": 77,
      "n": 78,
      "o": 79,
      "p": 80,
      "q": 81,
      "r": 82,
      "s": 83,
      "t": 84,
      "u": 85,
      "v": 86,
      "w": 87,
      "x": 88,
      "y": 89,
      "z": 90,
      "": 91,
      "": 92,
      "": 93,
      "": 94,
      "¡": 95,
      "£": 96,
      "¥": 97,
      "©": 98,
      "«": 99,
      "­": 100,
      "®": 101,
      "°": 102,
      "²": 103,
      "³": 104,
      "´": 105,
      "¶": 106,
      "»": 107,
      "¼": 108,
      "½": 109,
      "¾": 110,
      "Á": 111,
      "Ä": 112,
      "Å": 113,
      "Ç": 114,
      "É": 115,
      "Ö": 116,
      "×": 117,
      "Ü": 118,
      "ß": 119,
      "à": 120,
      "á": 121,
      "â": 122,
      "ã": 123,
      "ä": 124,
      "ç": 125,
      "è": 126,
      "é": 127,
      "ê": 128,
      "ë": 129,
      "í": 130,
      "ï": 131,
      "ñ": 132,
      "ó": 133,
      "ô": 134,
      "ö": 135,
      "ø": 136,
      "ú": 137,
      "ü": 138,
      "ý": 139,
      "ā": 140,
      "ć": 141,
      "Č": 142,
      "ě": 143,
      "ī": 144,
      "œ": 145,
      "š": 146,
      "ū": 147,
      "Ű": 148,
      "β": 149,
      "к": 150,
      "Ӓ": 151,
      "‒": 152,
      "–": 153,
      "—": 154,
      "‘": 155,
      "’": 156,
      "‚": 157,
      "“": 158,
      "”": 159,
      "„": 160,
      "‟": 161,
      "…": 162,
      "‹": 163,
      "›": 164,
      "€": 165,
      "™": 166,
      "♪": 167,
      "♫": 168,
      "你": 169,
      "葱": 170,
      "送": 171,
      "﻿": 172,
      "，": 173,
      "##l": 174,
      "##e": 175,
      "##t": 176,
      "##r": 177,
      "##s": 178,
      "##i": 179,
      "##u": 180,
      "##g": 181,
      "##o": 182,
      "##n": 183,
      "##z": 184,
      "##a": 185,
      "##0": 186,
      "##m": 187,
      "##h": 188,
      "##ü": 189,
      "##d": 190,
      "##c": 191,
      "##p": 192,
      "##f": 193,
      "##ä": 194,
      "##k": 195,
      "##v": 196,
      "##ö": 197,
      "##b": 198,
      "##w": 199,
      "##q": 200,
      "##I": 201,
      "##S": 202,
      "##A": 203,
      "##y": 204,
      "##x": 205,
      "##ß": 206,
      "##.": 207,
      "##“": 208,
      "##]": 209,
      "##L": 210,
      "##C": 211,
      "##ë": 212,
      "##P": 213,
      "##á": 214,
      "##2": 215,
      "##9": 216,
      "##j": 217,
      "##N": 218,
      "##T": 219,
      "##E": 220,
      "##R": 221,
      "##O": 222,
      "##V": 223,
      "##6": 224,
      "##U": 225,
      "##D": 226,
      "##ã": 227,
      "##G": 228,
      "##5": 229,
      "##‘": 230,
      "##,": 231,
      "##8": 232,
      "##1": 233,
      "##3": 234,
      "##M": 235,
      "##♫": 236,
      "##β": 237,
      "##4": 238,
      "##7": 239,
      "##J": 240,
      "##é": 241,
      "##è": 242,
      "##?": 243,
      "##H": 244,
      "##B": 245,
      "##Q": 246,
      "##F": 247,
      "##ó": 248,
      "##ø": 249,
      "##W": 250,
      "##$": 251,
      "##í": 252,
      "##_": 253,
      "##-": 254,
      "##Y": 255,
      "##ô": 256,
      "##&": 257,
      "##K": 258,
      "##\"": 259,
      "##¥": 260,
      "##'": 261,
      "##‹": 262,
      "##Ä": 263,
      "##Z": 264,
      "##‟": 265,
      "##=": 266,
      "##ě": 267,
      "##”": 268,
      "##X": 269,
      "##»": 270,
      "##)": 271,
      "##™": 272,
      "##!": 273,
      "##;": 274,
      "##â": 275,
      "##`": 276,
      "##:": 277,
      "##ç": 278,
      "##«": 279,
      "##ñ": 280,
      "##ú": 281,
      "##à": 282,
      "##–": 283,
      "##©": 284,
      "##你": 285,
      "##葱": 286,
      "##—": 287,
      "###": 288,
      "##„": 289,
      "##ý": 290,
      "##@": 291,
      "##Ü": 292,
      "##ī": 293,
      "##/": 294,
      "##š": 295,
      "##¼": 296,
      "##ā": 297,
      "##…": 298,
      "##ê": 299,
      "##♪": 300,
      "##ï": 301,
      "##¶": 302,
      "##½": 303,
      "##[": 304,
      "##ć": 305,
      "##‚": 306,
      "##ū": 307,
      "##%": 308,
      "##en": 309,
      "##er": 310,
      "##ch": 311,
      "##ie": 312,
      "##in": 313,
      "##nd": 314,
      "##st": 315,
      "##ich": 316,
      "##as": 317,
      "##ei": 318,
      "die": 319,
      "ein": 320,
      "##te": 321,
      "##an": 322,
      "##es": 323,
      "##ir": 324,
      "##on": 325,
      "##ll": 326,
      "und": 327,
      "das": 328,
      "##ar": 329,
      "##ten": 330,
      "##un": 331,
      "##sch": 332,
      "##gen": 333,
      "##hr": 334,
      "zu": 335,
      "##em": 336,
      "der": 337,
      "##or": 338,
      "##ein": 339,
      "##at": 340,
      "##it": 341,
      "wir": 342,
      "##au": 343,
      "au": 344,
      "in": 345,
      "ist": 346,
      "##el": 347,
      "##icht": 348,
      "##al": 349,
      "##ge": 350,
      "##ach": 351,
      "##ier": 352,
      "##lich": 353,
      "##ben": 354,
      "##ber": 355,
      "##den": 356,
      "ich": 357,
      "##ter": 358,
      "##ur": 359,
      "##de": 360,
      "##eh": 361,
      "es": 362,
      "##ung": 363,
      "un": 364,
      "dies": 365,
      "er": 366,
      "sie": 367,
      "den": 368,
      "Sie": 369,
      "##ig": 370,
      "##ür": 371,
      "##mm": 372,
      "##et": 373,
      "##nen": 374,
      "##ro": 375,
      "nicht": 376,
      "ver": 377,
      "##der": 378,
      "##ls": 379,
      "##sen": 380,
      "dass": 381,
      "von": 382,
      "##eit": 383,
      "##is": 384,
      "eine": 385,
      "so": 386,
      "##ck": 387,
      "auf": 388,
      "ha": 389,
      "Und": 390,
      "##le": 391,
      "##ann": 392,
      "an": 393,
      "##nder": 394,
      "mit": 395,
      "##ion": 396,
      "##eu": 397,
      "##ind": 398,
      "wie": 399,
      "be": 400,
      "##isch": 401,
      "uns": 402,
      "##ra": 403,
      "##enn": 404,
      "##us": 405,
      "als": 406,
      "##am": 407,
      "war": 408,
      "sch": 409,
      "sich": 410,
      "Ich": 411,
      "##kt": 412,
      "##and": 413,
      "##ut": 414,
      "##ft": 415,
      "##ahr": 416,
      "##ol": 417,
      "sind": 418,
      "ge": 419,
      "##ön": 420,
      "##ehr": 421,
      "##re": 422,
      "haben": 423,
      "für": 424,
      "##be": 425,
      "##ag": 426,
      "##lle": 427,
      "hat": 428,
      "man": 429,
      "##tw": 430,
      "aus": 431,
      "##ste": 432,
      "St": 433,
      "um": 434,
      "##ehen": 435,
      "##il": 436,
      "##iel": 437,
      "##ik": 438,
      "##fen": 439,
      "über": 440,
      "Das": 441,
      "Die": 442,
      "##se": 443,
      "kön": 444,
      "##um": 445,
      "##eine": 446,
      "Es": 447,
      "##och": 448,
      "Wir": 449,
      "Sch": 450,
      "wer": 451,
      "##llen": 452,
      "##sten": 453,
      "##etz": 454,
      "##om": 455,
      "##hl": 456,
      "Er": 457,
      "da": 458,
      "##eil": 459,
      "diese": 460,
      "was": 461,
      "dem": 462,
      "im": 463,
      "##igen": 464,
      "##ern": 465,
      "##esch": 466,
      "In": 467,
      "##zen": 468,
      "ihr": 469,
      "wenn": 470,
      "##bt": 471,
      "##mmen": 472,
      "##chen": 473,
      "einen": 474,
      "Ver": 475,
      "##ien": 476,
      "##ieren": 477,
      "##und": 478,
      "##ensch": 479,
      "##rei": 480,
      "##elt": 481,
      "Pro": 482,
      "können": 483,
      "des": 484,
      "unser": 485,
      "Jahr": 486,
      "werden": 487,
      "oder": 488,
      "##sp": 489,
      "##iv": 490,
      "##wei": 491,
      "##ungen": 492,
      "vor": 493,
      "##hn": 494,
      "##eg": 495,
      "Ar": 496,
      "sein": 497,
      "##zu": 498,
      "##iert": 499,
      "##men": 500,
      "##rau": 501,
      "##ation": 502,
      "##nt": 503,
      "ander": 504,
      "##rü": 505,
      "kann": 506,
      "aber": 507,
      "wo": 508,
      "auch": 509,
      "Mensch": 510,
      "einer": 511,
      "Aber": 512,
      "##eben": 513,
      "##ät": 514,
      "einem": 515,
      "##scha": 516,
      "nach": 517,
      "Ein": 518,
      "mein": 519,
      "##ken": 520,
      "##ort": 521,
      "##ige": 522,
      "An": 523,
      "Ge": 524,
      "##ing": 525,
      "mach": 526,
      "nur": 527,
      "etw": 528,
      "wird": 529,
      "##aus": 530,
      "bei": 531,
      "sehr": 532,
      "##hnen": 533,
      "##uch": 534,
      "##os": 535,
      "##ischen": 536,
      "hier": 537,
      "all": 538,
      "Menschen": 539,
      "##ess": 540,
      "dar": 541,
      "##ör": 542,
      "##ech": 543,
      "##ibt": 544,
      "--": 545,
      "st": 546,
      "mich": 547,
      "##urch": 548,
      "##ff": 549,
      "##äch": 550,
      "gibt": 551,
      "##ot": 552,
      "##issen": 553,
      "##ze": 554,
      "##ed": 555,
      "Un": 556,
      "wur": 557,
      "dann": 558,
      "##ass": 559,
      "sp": 560,
      "also": 561,
      "##lau": 562,
      "##ffen": 563,
      "##ab": 564,
      "##ill": 565,
      "##og": 566,
      "##eute": 567,
      "##ang": 568,
      "noch": 569,
      "##hal": 570,
      "##bl": 571,
      "##ommen": 572,
      "etwas": 573,
      "##schaft": 574,
      "##ick": 575,
      "Sp": 576,
      "her": 577,
      "##mmer": 578,
      "##än": 579,
      "##ru": 580,
      "##tet": 581,
      "Welt": 582,
      "sehen": 583,
      "wei": 584,
      "habe": 585,
      "vie": 586,
      "sa": 587,
      "Als": 588,
      "mir": 589,
      "dieser": 590,
      "mehr": 591,
      "##ers": 592,
      "##00": 593,
      "kl": 594,
      "##bei": 595,
      "##heit": 596,
      "durch": 597,
      "##ul": 598,
      "##hen": 599,
      "##ische": 600,
      "##roß": 601,
      "sag": 602,
      "##op": 603,
      "##gt": 604,
      "Wenn": 605,
      "Be": 606,
      "##lichen": 607,
      "##keit": 608,
      "##etzt": 609,
      "gen": 610,
      "##mal": 611,
      "##all": 612,
      "##acht": 613,
      "viel": 614,
      "##tern": 615,
      "##ank": 616,
      "##ner": 617,
      "Leben": 618,
      "Au": 619,
      "##rie": 620,
      ".\"": 621,
      "##liche": 622,
      "##üs": 623,
      "##ent": 624,
      "alle": 625,
      "ent": 626,
      "##her": 627,
      "##uss": 628,
      "##ne": 629,
      "##är": 630,
      "gan": 631,
      "geh": 632,
      "##fach": 633,
      "##klich": 634,
      "zum": 635,
      "wurde": 636,
      "mö": 637,
      "Zeit": 638,
      "##he": 639,
      "##fü": 640,
      "wür": 641,
      "Ihnen": 642,
      "##ähr": 643,
      "##bst": 644,
      "##est": 645,
      "unter": 646,
      "ges": 647,
      "##assen": 648,
      "machen": 649,
      "##oll": 650,
      "ste": 651,
      "groß": 652,
      "Gesch": 653,
      "##end": 654,
      "zwei": 655,
      "am": 656,
      "ab": 657,
      "##ht": 658,
      "wirklich": 659,
      "##ungs": 660,
      "##ob": 661,
      "##for": 662,
      "##fl": 663,
      "einfach": 664,
      "immer": 665,
      "meine": 666,
      "##ri": 667,
      "##ad": 668,
      "##eln": 669,
      "je": 670,
      "##ekt": 671,
      "weil": 672,
      "##ndern": 673,
      "kon": 674,
      "Din": 675,
      "##wer": 676,
      "##bar": 677,
      "##br": 678,
      "##rück": 679,
      "tun": 680,
      "Also": 681,
      "fü": 682,
      "##mmt": 683,
      "##inder": 684,
      "Was": 685,
      "##aten": 686,
      "##art": 687,
      "##nte": 688,
      "neu": 689,
      "Ihr": 690,
      "hin": 691,
      "müs": 692,
      "hatte": 693,
      "##ap": 694,
      "##inden": 695,
      "bis": 696,
      "unsere": 697,
      "##ück": 698,
      "##chte": 699,
      "dieses": 700,
      "##ist": 701,
      "##ehmen": 702,
      "##iz": 703,
      "##per": 704,
      "##elbst": 705,
      "##leich": 706,
      "##lie": 707,
      "keine": 708,
      "##eiten": 709,
      "Leute": 710,
      "ihre": 711,
      "Gr": 712,
      "##che": 713,
      "##ger": 714,
      "##schie": 715,
      "##ntw": 716,
      "wissen": 717,
      "##ionen": 718,
      "##ichtig": 719,
      "##glich": 720,
      "müssen": 721,
      "##ingen": 722,
      "##stell": 723,
      "##unkt": 724,
      "##hlen": 725,
      "##cht": 726,
      "##ah": 727,
      "diesem": 728,
      "soll": 729,
      "##pt": 730,
      "##omp": 731,
      "Art": 732,
      "viele": 733,
      "So": 734,
      "waren": 735,
      "Ges": 736,
      "##ßen": 737,
      "dam": 738,
      "##itte": 739,
      "##olog": 740,
      "Dinge": 741,
      "sagen": 742,
      "sagte": 743,
      "Wie": 744,
      "##rä": 745,
      "Zu": 746,
      "##ke": 747,
      "##nde": 748,
      "Man": 749,
      "diesen": 750,
      "Jahren": 751,
      "##blem": 752,
      "##gend": 753,
      "weiter": 754,
      "Or": 755,
      "beg": 756,
      "lie": 757,
      "Re": 758,
      "bin": 759,
      "##ild": 760,
      "gew": 761,
      "##ammen": 762,
      "eines": 763,
      "##rach": 764,
      "Vor": 765,
      "andere": 766,
      "##kommen": 767,
      "##ats": 768,
      "Kon": 769,
      "##einen": 770,
      "jetzt": 771,
      "##nis": 772,
      "##iger": 773,
      "##äu": 774,
      "zei": 775,
      "ko": 776,
      "anderen": 777,
      "##ität": 778,
      "re": 779,
      "##unden": 780,
      "##im": 781,
      "wieder": 782,
      "##ver": 783,
      "##ichte": 784,
      "eigen": 785,
      "Bei": 786,
      "##lleicht": 787,
      "Der": 788,
      "würde": 789,
      "##angen": 790,
      "##auf": 791,
      "glau": 792,
      "Problem": 793,
      "Kinder": 794,
      "##über": 795,
      "Ch": 796,
      "vers": 797,
      "alles": 798,
      "Dies": 799,
      "zur": 800,
      "##pp": 801,
      "##ast": 802,
      "##zi": 803,
      "Aus": 804,
      "##echn": 805,
      "selbst": 806,
      "nie": 807,
      "damit": 808,
      "ar": 809,
      "##yst": 810,
      "du": 811,
      "##ere": 812,
      "wen": 813,
      "##auen": 814,
      "Mill": 815,
      "##ert": 816,
      "##amen": 817,
      "gem": 818,
      "geht": 819,
      "##under": 820,
      "##ant": 821,
      "Jahre": 822,
      "##kl": 823,
      "##ntwick": 824,
      "##geb": 825,
      "##ell": 826,
      "##tes": 827,
      "Auf": 828,
      "ob": 829,
      "Frau": 830,
      "##ystem": 831,
      "zurück": 832,
      "##tlich": 833,
      "gesch": 834,
      "##det": 835,
      "zw": 836,
      "##ale": 837,
      "##beit": 838,
      "ber": 839,
      "##ler": 840,
      "muss": 841,
      "zus": 842,
      "Pl": 843,
      "denn": 844,
      "wel": 845,
      "##ragen": 846,
      "##pf": 847,
      "##lt": 848,
      "Fr": 849,
      "Um": 850,
      "##spiel": 851,
      "##nten": 852,
      "ger": 853,
      "##tz": 854,
      "gut": 855,
      "##mer": 856,
      "##rö": 857,
      "##äre": 858,
      "Fl": 859,
      "##änder": 860,
      "schon": 861,
      "##igkeit": 862,
      "##ächlich": 863,
      "##egen": 864,
      "##ges": 865,
      "heraus": 866,
      "##zie": 867,
      "##zeu": 868,
      "Kl": 869,
      "##age": 870,
      "dav": 871,
      "##aar": 872,
      "verst": 873,
      "##off": 874,
      "möchte": 875,
      "ganz": 876,
      "##ok": 877,
      "Her": 878,
      "##zent": 879,
      "##halten": 880,
      "##stellen": 881,
      "##agen": 882,
      "best": 883,
      "##ierte": 884,
      "ihnen": 885,
      "##gel": 886,
      "##du": 887,
      "##fahr": 888,
      "vielleicht": 889,
      "##ahl": 890,
      "Geh": 891,
      "Teil": 892,
      "Nun": 893,
      "letz": 894,
      "bes": 895,
      "zusammen": 896,
      "pass": 897,
      "##ationen": 898,
      "##me": 899,
      "##ster": 900,
      "##imm": 901,
      "Ide": 902,
      "pro": 903,
      "br": 904,
      "##atsächlich": 905,
      "brau": 906,
      "Land": 907,
      "drei": 908,
      "##ßer": 909,
      "davon": 910,
      "##ün": 911,
      "##alt": 912,
      "Dank": 913,
      "dort": 914,
      "##vor": 915,
      "Techn": 916,
      "arbei": 917,
      "Wissen": 918,
      "##alen": 919,
      "##sam": 920,
      "##uchen": 921,
      "##ug": 922,
      "##rechen": 923,
      "bew": 924,
      "Hier": 925,
      "Grund": 926,
      "##hne": 927,
      "##itt": 928,
      "Tag": 929,
      "##ek": 930,
      "gleich": 931,
      "Bl": 932,
      "##änd": 933,
      "##utz": 934,
      "heute": 935,
      "##halb": 936,
      "hatten": 937,
      "Geschichte": 938,
      "genau": 939,
      "##asser": 940,
      "gel": 941,
      "Bild": 942,
      "##eld": 943,
      "##fr": 944,
      "##atür": 945,
      "##ak": 946,
      "##cken": 947,
      "##inn": 948,
      "##esen": 949,
      "For": 950,
      "##att": 951,
      "Reg": 952,
      "bet": 953,
      "verb": 954,
      "##form": 955,
      "inter": 956,
      "##ran": 957,
      "kein": 958,
      "##ater": 959,
      "##aut": 960,
      "##ichten": 961,
      "##mlich": 962,
      "##weise": 963,
      "##anden": 964,
      "Gen": 965,
      "jem": 966,
      "##ade": 967,
      "##aum": 968,
      "Arbeit": 969,
      "ihn": 970,
      "jed": 971,
      "##zä": 972,
      "könnte": 973,
      "Nach": 974,
      "##wo": 975,
      "ir": 976,
      "Diese": 977,
      "##ennen": 978,
      "##atz": 979,
      "Unter": 980,
      "##rage": 981,
      "##ielen": 982,
      "##äd": 983,
      "einz": 984,
      "einige": 985,
      "##ologie": 986,
      "wollen": 987,
      "##ud": 988,
      "##utzen": 989,
      "##esser": 990,
      "wichtig": 991,
      "Wei": 992,
      "##schen": 993,
      "##ine": 994,
      "paar": 995,
      "##oren": 996,
      "Ko": 997,
      "meiner": 998,
      "woll": 999,
      "gehen": 1000,
      "##fe": 1001,
      "wurden": 1002,
      "##reich": 1003,
      "wahr": 1004,
      "##irn": 1005,
      "darüber": 1006,
      "Mo": 1007,
      "nun": 1008,
      "##lei": 1009,
      "##rag": 1010,
      "verw": 1011,
      "werde": 1012,
      "##unktion": 1013,
      "ben": 1014,
      "##ha": 1015,
      "##für": 1016,
      "##hm": 1017,
      "##war": 1018,
      "tatsächlich": 1019,
      "sondern": 1020,
      "?\"": 1021,
      "Da": 1022,
      "Geb": 1023,
      "##gar": 1024,
      "Beispiel": 1025,
      "grö": 1026,
      "##schieden": 1027,
      "verl": 1028,
      "##ache": 1029,
      "zie": 1030,
      "##ährend": 1031,
      "besch": 1032,
      "weiß": 1033,
      "##atur": 1034,
      "##eisten": 1035,
      "Ab": 1036,
      "##anz": 1037,
      "##ett": 1038,
      "gab": 1039,
      "unserer": 1040,
      "##fol": 1041,
      "##atürlich": 1042,
      "##ativ": 1043,
      "gu": 1044,
      "##alten": 1045,
      "Mit": 1046,
      "##hren": 1047,
      "seine": 1048,
      "##ander": 1049,
      "##akt": 1050,
      "bede": 1051,
      "Al": 1052,
      "leben": 1053,
      "bek": 1054,
      "##ss": 1055,
      "wäre": 1056,
      "Ste": 1057,
      "Aut": 1058,
      "neue": 1059,
      "##gef": 1060,
      "Wer": 1061,
      "##dem": 1062,
      "dazu": 1063,
      "000": 1064,
      "vom": 1065,
      "Wasser": 1066,
      "19": 1067,
      "##schein": 1068,
      "denke": 1069,
      "gef": 1070,
      "##los": 1071,
      "will": 1072,
      "Ent": 1073,
      "##eite": 1074,
      "##achte": 1075,
      "hät": 1076,
      "lang": 1077,
      "##od": 1078,
      "##ite": 1079,
      "##eid": 1080,
      "irgend": 1081,
      "kommen": 1082,
      "##achen": 1083,
      "##hem": 1084,
      "Lebens": 1085,
      "##öglich": 1086,
      "finden": 1087,
      "denken": 1088,
      "20": 1089,
      "entwick": 1090,
      "sogar": 1091,
      "denen": 1092,
      "Des": 1093,
      "gegen": 1094,
      "macht": 1095,
      "##pro": 1096,
      "Hand": 1097,
      "##gie": 1098,
      "einmal": 1099,
      "hei": 1100,
      "##ittel": 1101,
      "##ma": 1102,
      "##eb": 1103,
      "zwischen": 1104,
      "##gehen": 1105,
      "Im": 1106,
      "gerade": 1107,
      "##gew": 1108,
      "##ult": 1109,
      "gemacht": 1110,
      "Über": 1111,
      "##ften": 1112,
      "##geben": 1113,
      "Frauen": 1114,
      "##ellen": 1115,
      "Mar": 1116,
      "glaube": 1117,
      "Freu": 1118,
      "##ierung": 1119,
      "erzä": 1120,
      "funktion": 1121,
      "interess": 1122,
      "geben": 1123,
      "##eiden": 1124,
      "Frage": 1125,
      "kommt": 1126,
      "ex": 1127,
      "Gehirn": 1128,
      "##erson": 1129,
      "besser": 1130,
      "##affen": 1131,
      "erst": 1132,
      "Mal": 1133,
      "##ika": 1134,
      "ohne": 1135,
      "##keiten": 1136,
      "Ne": 1137,
      "bedeu": 1138,
      "##lück": 1139,
      "##äh": 1140,
      "mus": 1141,
      "##hin": 1142,
      "jeder": 1143,
      "näch": 1144,
      "nichts": 1145,
      "letzten": 1146,
      "##ay": 1147,
      "##gan": 1148,
      "Ind": 1149,
      "Daten": 1150,
      "War": 1151,
      "##tschaft": 1152,
      "zeigen": 1153,
      "ihren": 1154,
      "##ören": 1155,
      "würden": 1156,
      "##ate": 1157,
      "Ex": 1158,
      "dafür": 1159,
      "##ic": 1160,
      "##ust": 1161,
      "##eist": 1162,
      "##zeit": 1163,
      "konnte": 1164,
      "##fer": 1165,
      "##aufen": 1166,
      "verschieden": 1167,
      "passiert": 1168,
      "##echt": 1169,
      "ersten": 1170,
      "sieht": 1171,
      "Med": 1172,
      "##schl": 1173,
      "##qu": 1174,
      "Prozent": 1175,
      "##etzen": 1176,
      "Wo": 1177,
      "##ys": 1178,
      "Eine": 1179,
      "schw": 1180,
      "mal": 1181,
      "##enden": 1182,
      "##ikan": 1183,
      "meisten": 1184,
      "Mon": 1185,
      "##stand": 1186,
      "ind": 1187,
      "Millionen": 1188,
      "verstehen": 1189,
      "##nell": 1190,
      "##ßt": 1191,
      "##pl": 1192,
      "während": 1193,
      "Me": 1194,
      "##immt": 1195,
      "daran": 1196,
      "Schl": 1197,
      "##rupp": 1198,
      "##weg": 1199,
      "Ihre": 1200,
      "##ändern": 1201,
      "10": 1202,
      "Ph": 1203,
      "##ingt": 1204,
      "etwa": 1205,
      "Mus": 1206,
      "##ischer": 1207,
      "##sel": 1208,
      "get": 1209,
      "##gr": 1210,
      "##gesch": 1211,
      "warum": 1212,
      "##iele": 1213,
      "erste": 1214,
      "lassen": 1215,
      "sollte": 1216,
      "##ße": 1217,
      "##ös": 1218,
      "##rank": 1219,
      "##ucht": 1220,
      "mensch": 1221,
      "##elle": 1222,
      "sollten": 1223,
      "Idee": 1224,
      "natürlich": 1225,
      "##agt": 1226,
      "Geld": 1227,
      "##ivers": 1228,
      "##eich": 1229,
      "##yp": 1230,
      "##jekt": 1231,
      "##essen": 1232,
      "##erst": 1233,
      "##cher": 1234,
      "##chten": 1235,
      "##ört": 1236,
      "##ign": 1237,
      "sicher": 1238,
      "##ord": 1239,
      "##ogen": 1240,
      "##üt": 1241,
      "##ange": 1242,
      "##iere": 1243,
      "meinen": 1244,
      "Ger": 1245,
      "##ark": 1246,
      "dr": 1247,
      "##innen": 1248,
      "##stellt": 1249,
      "Person": 1250,
      "Raum": 1251,
      "meinem": 1252,
      "System": 1253,
      "##teil": 1254,
      "könnten": 1255,
      "##ompu": 1256,
      "schnell": 1257,
      "##fte": 1258,
      "Weg": 1259,
      "ja": 1260,
      "komp": 1261,
      "wollte": 1262,
      "##aupt": 1263,
      "##igt": 1264,
      "große": 1265,
      "Stra": 1266,
      "ganze": 1267,
      "geb": 1268,
      "##ia": 1269,
      "##ramm": 1270,
      "jemand": 1271,
      "##schied": 1272,
      "##ide": 1273,
      "Ber": 1274,
      "##ält": 1275,
      "##ckt": 1276,
      "##licher": 1277,
      "sprechen": 1278,
      "##örper": 1279,
      "ziemlich": 1280,
      "##ären": 1281,
      "klein": 1282,
      "ins": 1283,
      "Inform": 1284,
      "Doll": 1285,
      "Schw": 1286,
      "Se": 1287,
      "##adt": 1288,
      "##emein": 1289,
      "bekommen": 1290,
      "Bo": 1291,
      "ihrer": 1292,
      "##llt": 1293,
      "##als": 1294,
      "arbeiten": 1295,
      "Dollar": 1296,
      "##amm": 1297,
      "##hrt": 1298,
      "dabei": 1299,
      "ging": 1300,
      "sagt": 1301,
      "##ktiv": 1302,
      "kam": 1303,
      "Gew": 1304,
      "Compu": 1305,
      "Plan": 1306,
      "##ernen": 1307,
      "##eht": 1308,
      "##lung": 1309,
      "Univers": 1310,
      "##äng": 1311,
      "##mus": 1312,
      "##kun": 1313,
      "Ro": 1314,
      "##ierten": 1315,
      "sol": 1316,
      "##twort": 1317,
      "le": 1318,
      "darauf": 1319,
      "Wissenschaft": 1320,
      "##scheinlich": 1321,
      "nehmen": 1322,
      "##onder": 1323,
      "##sicht": 1324,
      "200": 1325,
      "##amil": 1326,
      "Mann": 1327,
      "##io": 1328,
      "##olut": 1329,
      "##laub": 1330,
      "##utter": 1331,
      "##ktur": 1332,
      "##äter": 1333,
      "Kind": 1334,
      "##richt": 1335,
      "Ja": 1336,
      "##iss": 1337,
      "El": 1338,
      "Ende": 1339,
      "Ener": 1340,
      "bereit": 1341,
      "Mein": 1342,
      "##finden": 1343,
      "##id": 1344,
      "##olit": 1345,
      "##kte": 1346,
      "Verb": 1347,
      "weniger": 1348,
      "##reiben": 1349,
      "Qu": 1350,
      "Technologie": 1351,
      "doch": 1352,
      "##urz": 1353,
      "kleinen": 1354,
      "##str": 1355,
      "\".": 1356,
      "Men": 1357,
      "Min": 1358,
      "##fühl": 1359,
      "Dann": 1360,
      "vier": 1361,
      "##fall": 1362,
      "##itz": 1363,
      "##kunft": 1364,
      "##enz": 1365,
      "##orden": 1366,
      "Te": 1367,
      "##ker": 1368,
      "bedeutet": 1369,
      "ung": 1370,
      "Computer": 1371,
      "Famil": 1372,
      "##sst": 1373,
      "US": 1374,
      "All": 1375,
      "Lie": 1376,
      "##rat": 1377,
      "##oten": 1378,
      "##arbei": 1379,
      "Rei": 1380,
      "unseren": 1381,
      "Sache": 1382,
      "##imen": 1383,
      "##ng": 1384,
      "schl": 1385,
      "##ennt": 1386,
      "dir": 1387,
      "##nah": 1388,
      "##ial": 1389,
      "##isten": 1390,
      "Energie": 1391,
      "##orgen": 1392,
      "##annt": 1393,
      "Denn": 1394,
      "Möglich": 1395,
      "##ho": 1396,
      "##ganis": 1397,
      "beh": 1398,
      "##asch": 1399,
      "##usst": 1400,
      "Warum": 1401,
      "dachte": 1402,
      "##wie": 1403,
      "Vers": 1404,
      "##ce": 1405,
      "##äft": 1406,
      "welche": 1407,
      "Inter": 1408,
      "##ald": 1409,
      "seit": 1410,
      "##äl": 1411,
      "bringen": 1412,
      "größ": 1413,
      "Mom": 1414,
      "ihm": 1415,
      "##sehen": 1416,
      "##ruck": 1417,
      "brauchen": 1418,
      "Ha": 1419,
      "##tete": 1420,
      "kleine": 1421,
      "möglich": 1422,
      "Kre": 1423,
      "eigentlich": 1424,
      "Seite": 1425,
      "gesehen": 1426,
      "##..": 1427,
      "##halt": 1428,
      "Män": 1429,
      "Am": 1430,
      "##wir": 1431,
      "Fall": 1432,
      "##bs": 1433,
      "##rin": 1434,
      "##lo": 1435,
      "##ition": 1436,
      "##ive": 1437,
      "##achsen": 1438,
      "##raft": 1439,
      "Ma": 1440,
      "##ständ": 1441,
      "großen": 1442,
      "Groß": 1443,
      "##ga": 1444,
      "Stadt": 1445,
      "##undert": 1446,
      "gest": 1447,
      "##ilder": 1448,
      "##rad": 1449,
      "wenig": 1450,
      "Je": 1451,
      "Kar": 1452,
      "Schu": 1453,
      "jeden": 1454,
      "Spiel": 1455,
      "Du": 1456,
      "Weise": 1457,
      "##unter": 1458,
      "##uten": 1459,
      "Grupp": 1460,
      "##achten": 1461,
      "Licht": 1462,
      "##alis": 1463,
      "##schaften": 1464,
      "ganzen": 1465,
      "##ef": 1466,
      "schle": 1467,
      "\",": 1468,
      "fin": 1469,
      "##net": 1470,
      "##icher": 1471,
      "...": 1472,
      "Körper": 1473,
      "##opf": 1474,
      "keinen": 1475,
      "##iges": 1476,
      "Fil": 1477,
      "außer": 1478,
      "##raf": 1479,
      "##folg": 1480,
      "hätte": 1481,
      "al": 1482,
      "Woch": 1483,
      "##nung": 1484,
      "hoch": 1485,
      "voll": 1486,
      "Menge": 1487,
      "##no": 1488,
      "Zukunft": 1489,
      "Entwick": 1490,
      "##hlt": 1491,
      "Intern": 1492,
      "später": 1493,
      "##tro": 1494,
      "gesagt": 1495,
      "versuchen": 1496,
      "Ged": 1497,
      "Ort": 1498,
      "##stellung": 1499,
      "fün": 1500,
      "##ard": 1501,
      "##ultur": 1502,
      "Gemein": 1503,
      "##fft": 1504,
      "##ernt": 1505,
      "##ph": 1506,
      "gern": 1507,
      "glauben": 1508,
      "Buch": 1509,
      "Den": 1510,
      "##our": 1511,
      "##land": 1512,
      "Danke": 1513,
      "##eten": 1514,
      "Stud": 1515,
      "##ies": 1516,
      "##rieben": 1517,
      "##denken": 1518,
      "verm": 1519,
      "##ütz": 1520,
      "##ormal": 1521,
      "Untern": 1522,
      "##leben": 1523,
      "##wohl": 1524,
      "Vielen": 1525,
      "##pr": 1526,
      "##undheit": 1527,
      "vielen": 1528,
      "sei": 1529,
      "beim": 1530,
      "unglaub": 1531,
      "##lex": 1532,
      "Augen": 1533,
      "##gang": 1534,
      "##iar": 1535,
      "##echs": 1536,
      "##aden": 1537,
      "##lekt": 1538,
      "Moment": 1539,
      "##ip": 1540,
      "stellen": 1541,
      "konnten": 1542,
      "##onnen": 1543,
      "##ausen": 1544,
      "Pat": 1545,
      "##alität": 1546,
      "##schw": 1547,
      "##eilen": 1548,
      "100": 1549,
      "fest": 1550,
      "##reis": 1551,
      "heißt": 1552,
      "sozi": 1553,
      "##fahren": 1554,
      "lernen": 1555,
      "##gramm": 1556,
      "eigenen": 1557,
      "oft": 1558,
      "besonder": 1559,
      "Afr": 1560,
      "fast": 1561,
      "##nisse": 1562,
      "Jetzt": 1563,
      "##asse": 1564,
      "funktioniert": 1565,
      "##bringen": 1566,
      "##zeug": 1567,
      "Natur": 1568,
      "##elfen": 1569,
      "##ruktur": 1570,
      "fünf": 1571,
      "##kel": 1572,
      "indem": 1573,
      "##öl": 1574,
      "##reichen": 1575,
      "Kam": 1576,
      "##nden": 1577,
      "jedes": 1578,
      "##ritt": 1579,
      "schaffen": 1580,
      "wunder": 1581,
      "##dr": 1582,
      "Sprach": 1583,
      "##ließ": 1584,
      "##eut": 1585,
      "Schul": 1586,
      "Produ": 1587,
      "##allen": 1588,
      "##ib": 1589,
      "At": 1590,
      "offen": 1591,
      "##eile": 1592,
      "Mutter": 1593,
      "Milliar": 1594,
      "Haus": 1595,
      "##zeich": 1596,
      "nä": 1597,
      "Erde": 1598,
      "Br": 1599,
      "##itten": 1600,
      "Probleme": 1601,
      "##ium": 1602,
      "gute": 1603,
      "##ott": 1604,
      "##ellschaft": 1605,
      "Ob": 1606,
      "schwer": 1607,
      "Vide": 1608,
      "Internet": 1609,
      "nutzen": 1610,
      "##satz": 1611,
      "##inner": 1612,
      "bef": 1613,
      "Wahr": 1614,
      "gl": 1615,
      "Gesundheit": 1616,
      "##ief": 1617,
      "##stoff": 1618,
      "##ause": 1619,
      "##hle": 1620,
      "##zahl": 1621,
      "##gefähr": 1622,
      "Musik": 1623,
      "##euten": 1624,
      "##schn": 1625,
      "Amer": 1626,
      "seiner": 1627,
      "Ang": 1628,
      "##forder": 1629,
      "##unde": 1630,
      "Co": 1631,
      "##isches": 1632,
      "wahrscheinlich": 1633,
      "Stu": 1634,
      "aller": 1635,
      "##volut": 1636,
      "Sta": 1637,
      "sah": 1638,
      "helfen": 1639,
      "##so": 1640,
      "Lehr": 1641,
      "allen": 1642,
      "##ahlen": 1643,
      "##itu": 1644,
      "Uns": 1645,
      "Ok": 1646,
      "weg": 1647,
      "##eim": 1648,
      "Form": 1649,
      "weit": 1650,
      "anders": 1651,
      "Le": 1652,
      "fol": 1653,
      "##erv": 1654,
      "Met": 1655,
      "##nehmen": 1656,
      "##kon": 1657,
      "genug": 1658,
      "richtig": 1659,
      "frü": 1660,
      "##hol": 1661,
      "##heiten": 1662,
      "##ED": 1663,
      "##ünst": 1664,
      "schön": 1665,
      "herum": 1666,
      "zeigt": 1667,
      "50": 1668,
      "lange": 1669,
      "unserem": 1670,
      "30": 1671,
      "##fä": 1672,
      "##chmal": 1673,
      "neuen": 1674,
      "##dent": 1675,
      "Projekt": 1676,
      "erzählen": 1677,
      "15": 1678,
      "pl": 1679,
      "klar": 1680,
      "##volution": 1681,
      "Nicht": 1682,
      "##öt": 1683,
      "##ina": 1684,
      "USA": 1685,
      "verk": 1686,
      "nächsten": 1687,
      "Dar": 1688,
      "Entsch": 1689,
      "##unst": 1690,
      "##mp": 1691,
      "##gleich": 1692,
      "##welt": 1693,
      "##euer": 1694,
      "begann": 1695,
      "Design": 1696,
      "kennen": 1697,
      "Rob": 1698,
      "Gegen": 1699,
      "ho": 1700,
      "Wor": 1701,
      "##rieg": 1702,
      "Bilder": 1703,
      "##auer": 1704,
      "Patien": 1705,
      "##ielt": 1706,
      "Su": 1707,
      "##uft": 1708,
      "##raum": 1709,
      "nah": 1710,
      "Bür": 1711,
      "wus": 1712,
      "ungefähr": 1713,
      "ange": 1714,
      "Vie": 1715,
      "##zess": 1716,
      "star": 1717,
      "betrach": 1718,
      "jede": 1719,
      "New": 1720,
      "##gangen": 1721,
      "bauen": 1722,
      "Kopf": 1723,
      "Selbst": 1724,
      "##ko": 1725,
      "##ösen": 1726,
      "Fot": 1727,
      "Kunst": 1728,
      "##umen": 1729,
      "##kennen": 1730,
      "Forsch": 1731,
      "##liches": 1732,
      "##itzen": 1733,
      "##zieh": 1734,
      "Hin": 1735,
      "bevor": 1736,
      "blei": 1737,
      "Planeten": 1738,
      "gemein": 1739,
      "Schule": 1740,
      "Zus": 1741,
      "##ens": 1742,
      "##reffen": 1743,
      "##legen": 1744,
      "liegt": 1745,
      "Für": 1746,
      "##bracht": 1747,
      "Ideen": 1748,
      "Unternehmen": 1749,
      "normal": 1750,
      "bisschen": 1751,
      "Fäh": 1752,
      "Gl": 1753,
      "Leuten": 1754,
      "Mater": 1755,
      "##igkeiten": 1756,
      "hö": 1757,
      "##mmun": 1758,
      "##ekte": 1759,
      "Pu": 1760,
      "gar": 1761,
      "seinen": 1762,
      "Sy": 1763,
      "fal": 1764,
      "Mode": 1765,
      "##elten": 1766,
      "##iker": 1767,
      "veränder": 1768,
      "##äche": 1769,
      "kurz": 1770,
      "The": 1771,
      "Informationen": 1772,
      "##anken": 1773,
      "Erfahr": 1774,
      "TED": 1775,
      "##asst": 1776,
      "recht": 1777,
      "##onen": 1778,
      "verändern": 1779,
      "##glichen": 1780,
      "kompl": 1781,
      "Vort": 1782,
      "überall": 1783,
      "##ädchen": 1784,
      "Bü": 1785,
      "Netz": 1786,
      "Meine": 1787,
      "##sy": 1788,
      "Wirtschaft": 1789,
      "Exper": 1790,
      "Bed": 1791,
      "ern": 1792,
      "Punkt": 1793,
      "##eren": 1794,
      "##ren": 1795,
      "##llig": 1796,
      "##egt": 1797,
      "stehen": 1798,
      "sagten": 1799,
      "Krank": 1800,
      "##utzt": 1801,
      "##ieht": 1802,
      "##mpf": 1803,
      "Arten": 1804,
      "inner": 1805,
      "Bi": 1806,
      "##mö": 1807,
      "Fragen": 1808,
      "Lin": 1809,
      "gehört": 1810,
      "Milliarden": 1811,
      "##tr": 1812,
      "Bet": 1813,
      "erkl": 1814,
      "Antwort": 1815,
      "versuch": 1816,
      "##anzen": 1817,
      "erh": 1818,
      "Männer": 1819,
      "##kten": 1820,
      "hinter": 1821,
      "darum": 1822,
      "verd": 1823,
      "Zwei": 1824,
      "nennen": 1825,
      "##ismus": 1826,
      "Gebäu": 1827,
      "Mädchen": 1828,
      "##mittel": 1829,
      "schwier": 1830,
      "##sche": 1831,
      "##lichkeit": 1832,
      "##immen": 1833,
      "##ände": 1834,
      "eben": 1835,
      "musste": 1836,
      "Dieses": 1837,
      "ihrem": 1838,
      "Glück": 1839,
      "reden": 1840,
      "##ichtige": 1841,
      "anf": 1842,
      "Geschichten": 1843,
      "##rieb": 1844,
      "##werk": 1845,
      "Afrika": 1846,
      "Kön": 1847,
      "##änger": 1848,
      "anderes": 1849,
      "##ätz": 1850,
      "##izin": 1851,
      "dich": 1852,
      "##mand": 1853,
      "##zept": 1854,
      "hal": 1855,
      "Universum": 1856,
      "bereits": 1857,
      "bem": 1858,
      "Jahrh": 1859,
      "großart": 1860,
      "euch": 1861,
      "##ienen": 1862,
      "##gung": 1863,
      "Zusammen": 1864,
      "Lös": 1865,
      "Minuten": 1866,
      "ausge": 1867,
      "##andel": 1868,
      "##pen": 1869,
      "Nein": 1870,
      "##amens": 1871,
      "##sk": 1872,
      "##cke": 1873,
      "entwickelt": 1874,
      "##ffent": 1875,
      "##riff": 1876,
      "Kor": 1877,
      "fragen": 1878,
      "##licht": 1879,
      "##einander": 1880,
      "erkennen": 1881,
      "##twor": 1882,
      "Gesellschaft": 1883,
      "erreichen": 1884,
      "##voll": 1885,
      "Verhalten": 1886,
      "Beweg": 1887,
      "Familie": 1888,
      "frag": 1889,
      "##zus": 1890,
      "##öhn": 1891,
      "Auto": 1892,
      "Film": 1893,
      "steht": 1894,
      "##zentr": 1895,
      "besonders": 1896,
      "ähn": 1897,
      "##zei": 1898,
      "halten": 1899,
      "oben": 1900,
      "entw": 1901,
      "##oter": 1902,
      "namens": 1903,
      "spielen": 1904,
      "entde": 1905,
      "benutzen": 1906,
      "verschiedene": 1907,
      "Gruppe": 1908,
      "hätten": 1909,
      "Macht": 1910,
      "##fang": 1911,
      "seinem": 1912,
      "gerne": 1913,
      "##ts": 1914,
      "##ome": 1915,
      "entsch": 1916,
      "Fir": 1917,
      "eins": 1918,
      "Ant": 1919,
      "##if": 1920,
      "##ilfe": 1921,
      "Indien": 1922,
      "Entscheid": 1923,
      "Oder": 1924,
      "Stück": 1925,
      "Video": 1926,
      "##annte": 1927,
      "Them": 1928,
      "##aun": 1929,
      "##indung": 1930,
      "machte": 1931,
      "Herz": 1932,
      "Beg": 1933,
      "Sü": 1934,
      "hören": 1935,
      "Far": 1936,
      "##des": 1937,
      "##inde": 1938,
      "##etten": 1939,
      "darin": 1940,
      "Fol": 1941,
      "##grund": 1942,
      "Flug": 1943,
      "Vielleicht": 1944,
      "De": 1945,
      "Dr": 1946,
      "Dem": 1947,
      "Organis": 1948,
      "##mo": 1949,
      "Weil": 1950,
      "##rom": 1951,
      "##inen": 1952,
      "erw": 1953,
      "Grü": 1954,
      "Di": 1955,
      "##anten": 1956,
      "na": 1957,
      "##akter": 1958,
      "Patienten": 1959,
      "sechs": 1960,
      "glob": 1961,
      "Doch": 1962,
      "statt": 1963,
      "Ur": 1964,
      "Ergeb": 1965,
      "##ffentlich": 1966,
      "anzu": 1967,
      "Angst": 1968,
      "##unge": 1969,
      "wohl": 1970,
      "Fü": 1971,
      "##err": 1972,
      "beein": 1973,
      "##deut": 1974,
      "##ks": 1975,
      "##gestellt": 1976,
      "##ahn": 1977,
      "jedem": 1978,
      "Beh": 1979,
      "Kultur": 1980,
      "##richten": 1981,
      "##bare": 1982,
      "braucht": 1983,
      "##ölker": 1984,
      "##kehr": 1985,
      "##endet": 1986,
      "bestimm": 1987,
      "Durch": 1988,
      "##ktion": 1989,
      "Stunden": 1990,
      "##ings": 1991,
      "Bau": 1992,
      "##urs": 1993,
      "gesam": 1994,
      "##ereich": 1995,
      "##ließlich": 1996,
      "##bild": 1997,
      "##dern": 1998,
      "Masch": 1999,
      "Arm": 2000,
      "Luft": 2001,
      "or": 2002,
      "##mals": 2003,
      "##ützen": 2004,
      "Sprache": 2005,
      "glück": 2006,
      "##ächt": 2007,
      "Jahrhundert": 2008,
      "Richt": 2009,
      "ries": 2010,
      "tro": 2011,
      "vorstellen": 2012,
      "##ume": 2013,
      "Freund": 2014,
      "Gott": 2015,
      "##ote": 2016,
      "##zug": 2017,
      "Regierung": 2018,
      "##sych": 2019,
      "Gefühl": 2020,
      "Po": 2021,
      "mag": 2022,
      "##ante": 2023,
      "##führt": 2024,
      "Eigen": 2025,
      "Kn": 2026,
      "##ohn": 2027,
      "Okay": 2028,
      "##ack": 2029,
      "##ehe": 2030,
      "Vater": 2031,
      "flie": 2032,
      "##punkt": 2033,
      "##ikro": 2034,
      "Möglichkeit": 2035,
      "##genommen": 2036,
      "##omen": 2037,
      "Part": 2038,
      "##ezie": 2039,
      "einigen": 2040,
      "erhalten": 2041,
      "bewegen": 2042,
      "größer": 2043,
      "irgendwie": 2044,
      "##sw": 2045,
      "Roboter": 2046,
      "bel": 2047,
      "##aff": 2048,
      "entwickeln": 2049,
      "abs": 2050,
      "##ock": 2051,
      "Gener": 2052,
      "##ider": 2053,
      "##urop": 2054,
      "Veränder": 2055,
      "Rück": 2056,
      "Sicher": 2057,
      "grü": 2058,
      "##iken": 2059,
      "verschiedenen": 2060,
      "##ont": 2061,
      "##ette": 2062,
      "##reten": 2063,
      "manchmal": 2064,
      "Wort": 2065,
      "##ässt": 2066,
      "beiden": 2067,
      "##ersön": 2068,
      "##uß": 2069,
      "##annen": 2070,
      "##igung": 2071,
      "Städ": 2072,
      "Neu": 2073,
      "##system": 2074,
      "##th": 2075,
      "##haupt": 2076,
      "##zeugen": 2077,
      "Bereich": 2078,
      "erf": 2079,
      "Eltern": 2080,
      "alt": 2081,
      "##eig": 2082,
      "##okrat": 2083,
      "produ": 2084,
      "Gel": 2085,
      "##uster": 2086,
      "##inieren": 2087,
      "wollten": 2088,
      "##indet": 2089,
      "##esse": 2090,
      "führen": 2091,
      "##stehen": 2092,
      "ändern": 2093,
      "##äten": 2094,
      "Yor": 2095,
      "Bezieh": 2096,
      "Meer": 2097,
      "drau": 2098,
      "erk": 2099,
      "stell": 2100,
      "Sol": 2101,
      "besten": 2102,
      "auss": 2103,
      "Komp": 2104,
      "##zieren": 2105,
      "nämlich": 2106,
      "einzige": 2107,
      "Fahr": 2108,
      "##kü": 2109,
      "einzel": 2110,
      "Hause": 2111,
      "##vest": 2112,
      "##lossen": 2113,
      "bemer": 2114,
      "Sinn": 2115,
      "Sachen": 2116,
      "##blik": 2117,
      "Krebs": 2118,
      "##one": 2119,
      "frei": 2120,
      "##isk": 2121,
      "We": 2122,
      "unterschied": 2123,
      "hand": 2124,
      "Gesicht": 2125,
      "verwenden": 2126,
      "Hö": 2127,
      "per": 2128,
      "##trau": 2129,
      "##nor": 2130,
      "China": 2131,
      "verändert": 2132,
      "Eng": 2133,
      "eher": 2134,
      "##häng": 2135,
      "Gebäude": 2136,
      "unglaublich": 2137,
      "Pol": 2138,
      "##erweise": 2139,
      "##zustellen": 2140,
      "Gleich": 2141,
      "Arch": 2142,
      "sage": 2143,
      "##ure": 2144,
      "Heraus": 2145,
      "menschlichen": 2146,
      "fr": 2147,
      "##lin": 2148,
      "innerhalb": 2149,
      "##stens": 2150,
      "##hlte": 2151,
      "##führ": 2152,
      "Dieser": 2153,
      "Krieg": 2154,
      "##zt": 2155,
      "##erk": 2156,
      "beginnen": 2157,
      "fand": 2158,
      "Kindern": 2159,
      "Aufga": 2160,
      "Werk": 2161,
      "Länder": 2162,
      "##teten": 2163,
      "##igten": 2164,
      "Bab": 2165,
      "##gal": 2166,
      "Lab": 2167,
      "wegen": 2168,
      "welch": 2169,
      "Nu": 2170,
      "überhaupt": 2171,
      "Par": 2172,
      "##sent": 2173,
      "Na": 2174,
      "brach": 2175,
      "los": 2176,
      "##icken": 2177,
      "Ziel": 2178,
      "##ase": 2179,
      "getan": 2180,
      "##nov": 2181,
      "##ehn": 2182,
      "Str": 2183,
      "##hemat": 2184,
      "##ustrie": 2185,
      "Mat": 2186,
      "##reifen": 2187,
      "for": 2188,
      "##druck": 2189,
      "##denten": 2190,
      "##berfl": 2191,
      "Programm": 2192,
      "18": 2193,
      "##mme": 2194,
      "##erikan": 2195,
      "##tem": 2196,
      "gleichen": 2197,
      "##führen": 2198,
      "beob": 2199,
      "Umwelt": 2200,
      "Material": 2201,
      "Nacht": 2202,
      "Tel": 2203,
      "schein": 2204,
      "Chr": 2205,
      "##enzen": 2206,
      "versucht": 2207,
      "zwar": 2208,
      "schauen": 2209,
      "Entwicklung": 2210,
      "Rest": 2211,
      "ansch": 2212,
      "Kr": 2213,
      "Lage": 2214,
      "Oh": 2215,
      "##völker": 2216,
      "##get": 2217,
      "Stellen": 2218,
      "Herausforder": 2219,
      "40": 2220,
      "Inst": 2221,
      "##ivi": 2222,
      "Anfang": 2223,
      "##ffekt": 2224,
      "##ans": 2225,
      "unbe": 2226,
      "Prozess": 2227,
      "Grö": 2228,
      "Bes": 2229,
      "##äus": 2230,
      "weltw": 2231,
      "Publik": 2232,
      "polit": 2233,
      "allem": 2234,
      "##ative": 2235,
      "Pap": 2236,
      "gr": 2237,
      "treffen": 2238,
      "Wochen": 2239,
      "##schnitt": 2240,
      "Kap": 2241,
      "Prä": 2242,
      "Lehrer": 2243,
      "Li": 2244,
      "##han": 2245,
      "Zum": 2246,
      "jen": 2247,
      "Tod": 2248,
      "##ängt": 2249,
      "##orie": 2250,
      "Essen": 2251,
      "##arten": 2252,
      "Erfahrung": 2253,
      "Experimen": 2254,
      "##ient": 2255,
      "niemand": 2256,
      "Son": 2257,
      "##ow": 2258,
      "##olle": 2259,
      "##ziehen": 2260,
      "Pr": 2261,
      "Tiere": 2262,
      "mo": 2263,
      "##wert": 2264,
      "Tier": 2265,
      "meines": 2266,
      "mussten": 2267,
      "Publikum": 2268,
      "bl": 2269,
      "##haus": 2270,
      "##ument": 2271,
      "Geschäft": 2272,
      "##baren": 2273,
      "Dam": 2274,
      "##achst": 2275,
      "##andeln": 2276,
      "##elig": 2277,
      "wusste": 2278,
      "12": 2279,
      "##son": 2280,
      "##uren": 2281,
      "Dingen": 2282,
      "Sicherheit": 2283,
      "lin": 2284,
      "##gem": 2285,
      "Tages": 2286,
      "##möglich": 2287,
      "##innern": 2288,
      "Freunde": 2289,
      "##nahme": 2290,
      "Web": 2291,
      "kamen": 2292,
      "##wär": 2293,
      "##enne": 2294,
      "##auso": 2295,
      "##ute": 2296,
      "Struktur": 2297,
      "weitere": 2298,
      "##elbe": 2299,
      "entf": 2300,
      "Frei": 2301,
      "Verein": 2302,
      "Situ": 2303,
      "##itze": 2304,
      "nächste": 2305,
      "folgen": 2306,
      "##sein": 2307,
      "##eigen": 2308,
      "##gegen": 2309,
      "##zellen": 2310,
      "##entr": 2311,
      "##rim": 2312,
      "Mittel": 2313,
      "ersch": 2314,
      "##ager": 2315,
      "##schaffen": 2316,
      "leicht": 2317,
      "Denken": 2318,
      "Pf": 2319,
      "##af": 2320,
      "##itiv": 2321,
      "Res": 2322,
      "vö": 2323,
      "ster": 2324,
      "##ächst": 2325,
      "fühlen": 2326,
      "Klim": 2327,
      "Typ": 2328,
      "tut": 2329,
      "##gte": 2330,
      "##arbeit": 2331,
      "##ehl": 2332,
      "Ist": 2333,
      "##ötz": 2334,
      "beko": 2335,
      "##iff": 2336,
      "erre": 2337,
      "verh": 2338,
      "Mikro": 2339,
      "##yn": 2340,
      "##iet": 2341,
      "Kont": 2342,
      "solche": 2343,
      "##achstum": 2344,
      "##bo": 2345,
      "##anach": 2346,
      "##annten": 2347,
      "fl": 2348,
      "##ac": 2349,
      "Verl": 2350,
      "Grunde": 2351,
      "##ranken": 2352,
      "##eder": 2353,
      "##antwort": 2354,
      "unten": 2355,
      "##rieden": 2356,
      "menschliche": 2357,
      "DN": 2358,
      "Tr": 2359,
      "eigene": 2360,
      "falsch": 2361,
      "Haupt": 2362,
      "##ragt": 2363,
      "Sk": 2364,
      "Sek": 2365,
      "##we": 2366,
      "##ransp": 2367,
      "York": 2368,
      "worden": 2369,
      "Is": 2370,
      "Lassen": 2371,
      "erstaun": 2372,
      "wor": 2373,
      "##tell": 2374,
      "##sph": 2375,
      "##ational": 2376,
      "unters": 2377,
      "Unterschied": 2378,
      "##falls": 2379,
      "Möglichkeiten": 2380,
      "##lektr": 2381,
      "25": 2382,
      "lässt": 2383,
      "deren": 2384,
      "##ehm": 2385,
      "letzte": 2386,
      "Boden": 2387,
      "##ende": 2388,
      "erwar": 2389,
      "Polit": 2390,
      "aufzu": 2391,
      "wären": 2392,
      "##uer": 2393,
      "verschw": 2394,
      "damals": 2395,
      "bringt": 2396,
      "jedoch": 2397,
      "Hilfe": 2398,
      "##lungs": 2399,
      "Modell": 2400,
      "Fern": 2401,
      "hervor": 2402,
      "amerikan": 2403,
      "obwohl": 2404,
      "Team": 2405,
      "Gedanken": 2406,
      "Markt": 2407,
      "Kü": 2408,
      "##ala": 2409,
      "erlau": 2410,
      "##izieren": 2411,
      "##aschen": 2412,
      "schreiben": 2413,
      "grund": 2414,
      "völlig": 2415,
      "##ian": 2416,
      "Ander": 2417,
      "Job": 2418,
      "auszu": 2419,
      "##haft": 2420,
      "exist": 2421,
      "##sichtlich": 2422,
      "##troll": 2423,
      "Thema": 2424,
      "##drück": 2425,
      "##tens": 2426,
      "berü": 2427,
      "##nahmen": 2428,
      "##statt": 2429,
      "##elte": 2430,
      "gleiche": 2431,
      "Staaten": 2432,
      "Fort": 2433,
      "##xt": 2434,
      "Gesetz": 2435,
      "Woche": 2436,
      "##ksam": 2437,
      "##imme": 2438,
      "entscheiden": 2439,
      "##äss": 2440,
      "fragte": 2441,
      "##ötzlich": 2442,
      "Per": 2443,
      "Ru": 2444,
      "direkt": 2445,
      "##vers": 2446,
      "##innt": 2447,
      "##spro": 2448,
      "bleiben": 2449,
      "Go": 2450,
      "teil": 2451,
      "##bauen": 2452,
      "##fluss": 2453,
      "Prin": 2454,
      "ph": 2455,
      "##uche": 2456,
      "##ograf": 2457,
      "gemeinsam": 2458,
      "lösen": 2459,
      "dessen": 2460,
      "Zahl": 2461,
      "##bend": 2462,
      "##iziert": 2463,
      "##ologien": 2464,
      "Kat": 2465,
      "Tage": 2466,
      "##ations": 2467,
      "##zip": 2468,
      "Monate": 2469,
      "##els": 2470,
      "erinner": 2471,
      "##blick": 2472,
      "besteht": 2473,
      "suchen": 2474,
      "##ichtigen": 2475,
      "sollen": 2476,
      "##inger": 2477,
      "##ließen": 2478,
      "Neur": 2479,
      "hoff": 2480,
      "##flanzen": 2481,
      "funktionieren": 2482,
      "Namen": 2483,
      "Oze": 2484,
      "Viele": 2485,
      "dank": 2486,
      "##zogen": 2487,
      "stark": 2488,
      "##bau": 2489,
      "##ahren": 2490,
      "##rakt": 2491,
      "betrachten": 2492,
      "reg": 2493,
      "##mot": 2494,
      "##fort": 2495,
      "##wusst": 2496,
      "##scht": 2497,
      "Liebe": 2498,
      "##av": 2499,
      "##hören": 2500,
      "##cen": 2501,
      "##are": 2502,
      "##aur": 2503,
      "##ilden": 2504,
      "aufge": 2505,
      "genauso": 2506,
      "Lösung": 2507,
      "Bewegung": 2508,
      "Nahr": 2509,
      "Test": 2510,
      "teilen": 2511,
      "##alien": 2512,
      "##ausende": 2513,
      "Zellen": 2514,
      "##ikaner": 2515,
      "##wirk": 2516,
      "Labor": 2517,
      "Öl": 2518,
      "zuvor": 2519,
      "sprach": 2520,
      "##gebung": 2521,
      "Kraft": 2522,
      "Ländern": 2523,
      "##ählen": 2524,
      "Erfolg": 2525,
      "##aktion": 2526,
      "Medik": 2527,
      "##trem": 2528,
      "schwierig": 2529,
      "persön": 2530,
      "##setzen": 2531,
      "Stand": 2532,
      "vorher": 2533,
      "##opp": 2534,
      "##zü": 2535,
      "##arbeitet": 2536,
      "##dlich": 2537,
      "##chter": 2538,
      "stellt": 2539,
      "interessant": 2540,
      "rech": 2541,
      "trotz": 2542,
      "Bro": 2543,
      "Tats": 2544,
      "##bung": 2545,
      "Gef": 2546,
      "##rifft": 2547,
      "Gemeinschaft": 2548,
      "##ool": 2549,
      "benöt": 2550,
      "Autos": 2551,
      "Familien": 2552,
      "ermö": 2553,
      "führt": 2554,
      "##zeigt": 2555,
      "Archite": 2556,
      "Innov": 2557,
      "gefunden": 2558,
      "Heute": 2559,
      "##ament": 2560,
      "Mil": 2561,
      "Wahl": 2562,
      "##wend": 2563,
      "##ieg": 2564,
      "zweite": 2565,
      "Ihren": 2566,
      "Gol": 2567,
      "ne": 2568,
      "##aren": 2569,
      "unseres": 2570,
      "Sehen": 2571,
      "##ai": 2572,
      "##rop": 2573,
      "##uld": 2574,
      "##telligen": 2575,
      "sel": 2576,
      "##ieten": 2577,
      "##cker": 2578,
      "##weisen": 2579,
      "##äuf": 2580,
      "verbunden": 2581,
      "##atten": 2582,
      "Wissenschaftler": 2583,
      "größten": 2584,
      "Unsere": 2585,
      "Fähigkeit": 2586,
      "##spr": 2587,
      "Blut": 2588,
      "bitte": 2589,
      "##spiele": 2590,
      "kaufen": 2591,
      "##zw": 2592,
      "sieben": 2593,
      "sterben": 2594,
      "##zeuge": 2595,
      "##berfläche": 2596,
      "##aw": 2597,
      "##alter": 2598,
      "komplex": 2599,
      "Bru": 2600,
      "Jeder": 2601,
      "scheint": 2602,
      "Vir": 2603,
      "##jekte": 2604,
      "##reck": 2605,
      "##itein": 2606,
      "größte": 2607,
      "##andelt": 2608,
      "liebe": 2609,
      "##tworten": 2610,
      "lesen": 2611,
      "##aler": 2612,
      "anderer": 2613,
      "langsam": 2614,
      "60": 2615,
      "Eis": 2616,
      "##az": 2617,
      "Studenten": 2618,
      "gro": 2619,
      "Är": 2620,
      "##bte": 2621,
      "##spir": 2622,
      "herauszu": 2623,
      "draußen": 2624,
      "##si": 2625,
      "##man": 2626,
      "##auft": 2627,
      "versch": 2628,
      "welches": 2629,
      "Europ": 2630,
      "##bes": 2631,
      "##ätze": 2632,
      "Natürlich": 2633,
      "dein": 2634,
      "##rän": 2635,
      "hast": 2636,
      "Bedeut": 2637,
      "führ": 2638,
      "Alter": 2639,
      "Medien": 2640,
      "beeinfl": 2641,
      "##völkerung": 2642,
      "##line": 2643,
      "##ffiz": 2644,
      "##prochen": 2645,
      "mitein": 2646,
      "##ey": 2647,
      "##unehmen": 2648,
      "##äuft": 2649,
      "##hält": 2650,
      "erinnern": 2651,
      "Alles": 2652,
      "Bürger": 2653,
      "##reiten": 2654,
      "nahm": 2655,
      "Muster": 2656,
      "Char": 2657,
      "Wert": 2658,
      "glücklich": 2659,
      "schließlich": 2660,
      "gelernt": 2661,
      "Verbindung": 2662,
      "Eben": 2663,
      "Kranken": 2664,
      "hinein": 2665,
      "##ance": 2666,
      "##ity": 2667,
      "erschaffen": 2668,
      "gewesen": 2669,
      "Technologien": 2670,
      "80": 2671,
      "##setz": 2672,
      "##jen": 2673,
      "##ore": 2674,
      "bewusst": 2675,
      "verbess": 2676,
      "Führ": 2677,
      "Lo": 2678,
      "##agieren": 2679,
      "##ochen": 2680,
      "##gesetzt": 2681,
      "Technik": 2682,
      "##ware": 2683,
      "##ünstler": 2684,
      "Ozean": 2685,
      "fanden": 2686,
      "##ub": 2687,
      "##sta": 2688,
      "Schritt": 2689,
      "Erk": 2690,
      "Recht": 2691,
      "sehe": 2692,
      "essen": 2693,
      "erfolg": 2694,
      "##iko": 2695,
      "Erw": 2696,
      "passieren": 2697,
      "schwar": 2698,
      "##ift": 2699,
      "##inne": 2700,
      "Reihe": 2701,
      "erklären": 2702,
      "Süd": 2703,
      "öffent": 2704,
      "gegenüber": 2705,
      "kü": 2706,
      "länger": 2707,
      "##onst": 2708,
      "Platz": 2709,
      "Alle": 2710,
      "fort": 2711,
      "erle": 2712,
      "wachsen": 2713,
      "##olz": 2714,
      "Bel": 2715,
      "Wahrheit": 2716,
      "Tatsache": 2717,
      "CA": 2718,
      "##weis": 2719,
      "jemals": 2720,
      "schlecht": 2721,
      "Ris": 2722,
      "bist": 2723,
      "##lang": 2724,
      "##afft": 2725,
      "##äß": 2726,
      "daraus": 2727,
      "unterst": 2728,
      "wissenschaft": 2729,
      "geworden": 2730,
      "##gewöhn": 2731,
      "Mag": 2732,
      "##itut": 2733,
      "##ehler": 2734,
      "gebaut": 2735,
      "nimmt": 2736,
      "übr": 2737,
      "##immer": 2738,
      "Richtung": 2739,
      "##lassen": 2740,
      "##fern": 2741,
      "##itäten": 2742,
      "konzentr": 2743,
      "hinaus": 2744,
      "##gessen": 2745,
      "##älfte": 2746,
      "To": 2747,
      "ged": 2748,
      "##rift": 2749,
      "Besch": 2750,
      "tief": 2751,
      "##iniert": 2752,
      "deshalb": 2753,
      "##aß": 2754,
      "##gefühl": 2755,
      "Anzahl": 2756,
      "Krankheit": 2757,
      "##ividu": 2758,
      "miteinander": 2759,
      "##ose": 2760,
      "aussehen": 2761,
      "nachdem": 2762,
      "möchten": 2763,
      "neben": 2764,
      "tö": 2765,
      "##lter": 2766,
      "##ise": 2767,
      "##reibt": 2768,
      "Blick": 2769,
      "Kamer": 2770,
      "Metho": 2771,
      "##oral": 2772,
      "bed": 2773,
      "##zeugt": 2774,
      "verloren": 2775,
      "Hoff": 2776,
      "Tatsächlich": 2777,
      "##ämp": 2778,
      "mache": 2779,
      "kleines": 2780,
      "Einige": 2781,
      "beginnt": 2782,
      "Sh": 2783,
      "##ement": 2784,
      "wert": 2785,
      "##örter": 2786,
      "anfangen": 2787,
      "##wegen": 2788,
      "##lauf": 2789,
      "raus": 2790,
      "##ja": 2791,
      "##igit": 2792,
      "kleiner": 2793,
      "Vortrag": 2794,
      "Fuß": 2795,
      "Sicht": 2796,
      "##ativen": 2797,
      "perf": 2798,
      "Situation": 2799,
      "Mot": 2800,
      "qu": 2801,
      "sofort": 2802,
      "überr": 2803,
      "Stimme": 2804,
      "Aufgabe": 2805,
      "##merksam": 2806,
      "plötzlich": 2807,
      "danach": 2808,
      "##co": 2809,
      "schrieb": 2810,
      "##ktu": 2811,
      "gezeigt": 2812,
      "##recht": 2813,
      "Wirklich": 2814,
      "##ängen": 2815,
      "##wohn": 2816,
      "Gewalt": 2817,
      "findet": 2818,
      "hil": 2819,
      "##eider": 2820,
      "Bildung": 2821,
      "Städte": 2822,
      "Viel": 2823,
      "zehn": 2824,
      "##fäh": 2825,
      "##urt": 2826,
      "##rauch": 2827,
      "Umgebung": 2828,
      "Deshalb": 2829,
      "Nie": 2830,
      "##ator": 2831,
      "Ihrem": 2832,
      "guten": 2833,
      "stellte": 2834,
      "laufen": 2835,
      "##uf": 2836,
      "##asen": 2837,
      "Studie": 2838,
      "Aktiv": 2839,
      "##prä": 2840,
      "##ese": 2841,
      "##spekt": 2842,
      "Bar": 2843,
      "bi": 2844,
      "##ons": 2845,
      "##ele": 2846,
      "Forschung": 2847,
      "##unkte": 2848,
      "Ihrer": 2849,
      "beschäft": 2850,
      "Teile": 2851,
      "acht": 2852,
      "##zeitig": 2853,
      "Dro": 2854,
      "aktiv": 2855,
      "Rolle": 2856,
      "Veränderung": 2857,
      "hör": 2858,
      "genannt": 2859,
      "Vorstellung": 2860,
      "##asz": 2861,
      "bekommt": 2862,
      "Ho": 2863,
      "##eisen": 2864,
      "allein": 2865,
      "##echan": 2866,
      "##wusstsein": 2867,
      "##chn": 2868,
      "##itter": 2869,
      "Reise": 2870,
      "höher": 2871,
      "entfernt": 2872,
      "Do": 2873,
      "Tem": 2874,
      "##ezi": 2875,
      "Demokrat": 2876,
      "Bedeutung": 2877,
      "Mitte": 2878,
      "Während": 2879,
      "##kraft": 2880,
      "verwendet": 2881,
      "Größe": 2882,
      "Sonnen": 2883,
      "egal": 2884,
      "verö": 2885,
      "Entwicklungs": 2886,
      "Foto": 2887,
      "App": 2888,
      "Hälfte": 2889,
      "##min": 2890,
      "Preis": 2891,
      "sonst": 2892,
      "##uh": 2893,
      "##sprechen": 2894,
      "DNA": 2895,
      "techn": 2896,
      "Erd": 2897,
      "nachzu": 2898,
      "##änge": 2899,
      "Realität": 2900,
      "Mathemat": 2901,
      "Fä": 2902,
      "schau": 2903,
      "##edizin": 2904,
      "samm": 2905,
      "##ändig": 2906,
      "Herausforderung": 2907,
      ".“": 2908,
      "Rad": 2909,
      "##iegen": 2910,
      "nachdenken": 2911,
      "benutzt": 2912,
      "Fisch": 2913,
      "##esent": 2914,
      "##ierungen": 2915,
      "Kolle": 2916,
      "gefähr": 2917,
      "##radition": 2918,
      "Gra": 2919,
      "Tür": 2920,
      "Prof": 2921,
      "reich": 2922,
      "199": 2923,
      "Straßen": 2924,
      "Kil": 2925,
      "##nline": 2926,
      "niemals": 2927,
      "##durch": 2928,
      "##andlung": 2929,
      "Meinung": 2930,
      "Prinzip": 2931,
      "hoffe": 2932,
      "##ufen": 2933,
      "##ichtet": 2934,
      "Schü": 2935,
      "##iver": 2936,
      "beide": 2937,
      "Maschine": 2938,
      "rein": 2939,
      "tat": 2940,
      "##ve": 2941,
      "end": 2942,
      "öff": 2943,
      "##lagen": 2944,
      "soziale": 2945,
      "Inf": 2946,
      "jemanden": 2947,
      "Information": 2948,
      "Entscheidungen": 2949,
      "##sphäre": 2950,
      "##stra": 2951,
      "einge": 2952,
      "beste": 2953,
      "##rans": 2954,
      "##ysik": 2955,
      "##imens": 2956,
      "Amerika": 2957,
      "weltweit": 2958,
      "##les": 2959,
      "##iten": 2960,
      "##ollen": 2961,
      "##wasser": 2962,
      "verrück": 2963,
      "Chem": 2964,
      "##trolle": 2965,
      "erreicht": 2966,
      "11": 2967,
      "Kal": 2968,
      "Nord": 2969,
      "##roffen": 2970,
      "bekam": 2971,
      "bekannt": 2972,
      "##wirtschaft": 2973,
      "Druck": 2974,
      "Wachstum": 2975,
      "zerst": 2976,
      "##etter": 2977,
      "erfolgreich": 2978,
      "##stet": 2979,
      "mögen": 2980,
      "Meter": 2981,
      "Ju": 2982,
      "blau": 2983,
      "##eister": 2984,
      "ans": 2985,
      "extrem": 2986,
      "alten": 2987,
      "fliegen": 2988,
      "gingen": 2989,
      "##zeh": 2990,
      "##mit": 2991,
      "##eutz": 2992,
      "##uchs": 2993,
      "ziehen": 2994,
      "Medizin": 2995,
      "ur": 2996,
      "##pe": 2997,
      "verbr": 2998,
      "##utage": 2999,
      "zeige": 3000,
      "##ppe": 3001,
      "komplett": 3002,
      "##eutzutage": 3003,
      "Bä": 3004,
      "Zahlen": 3005,
      "Straße": 3006,
      "Nur": 3007,
      "toll": 3008,
      "Dor": 3009,
      "eng": 3010,
      "##omb": 3011,
      "kontroll": 3012,
      "Firma": 3013,
      "Geist": 3014,
      "Zeu": 3015,
      "##lage": 3016,
      "gegeben": 3017,
      "Stat": 3018,
      "Strom": 3019,
      "Schauen": 3020,
      "daher": 3021,
      "genommen": 3022,
      "liegen": 3023,
      "##arbeiten": 3024,
      "Tat": 3025,
      "##ertig": 3026,
      "Kosten": 3027,
      "!\"": 3028,
      "ak": 3029,
      "bas": 3030,
      "te": 3031,
      "##tu": 3032,
      "Nachrichten": 3033,
      "Sc": 3034,
      "fahren": 3035,
      "Generation": 3036,
      "pos": 3037,
      "stand": 3038,
      "schneller": 3039,
      "Sonne": 3040,
      "##ologen": 3041,
      "entst": 3042,
      "Karte": 3043,
      "Ding": 3044,
      "Miss": 3045,
      "Von": 3046,
      "##ame": 3047,
      "##alls": 3048,
      "##itel": 3049,
      "##bildung": 3050,
      "Bakter": 3051,
      "lau": 3052,
      "aut": 3053,
      "##lekü": 3054,
      "Papier": 3055,
      "Goog": 3056,
      "Har": 3057,
      "##roh": 3058,
      "machten": 3059,
      "##antast": 3060,
      "##jenigen": 3061,
      "empf": 3062,
      "setzen": 3063,
      "##tra": 3064,
      "##sprü": 3065,
      "##itzt": 3066,
      "Maß": 3067,
      "OK": 3068,
      "##ogra": 3069,
      "hinzu": 3070,
      "Soft": 3071,
      "interessiert": 3072,
      "Hinter": 3073,
      "Fähigkeiten": 3074,
      "Bücher": 3075,
      "##atte": 3076,
      "##istan": 3077,
      "Revolution": 3078,
      "geschieht": 3079,
      "Beziehung": 3080,
      "brachte": 3081,
      "Vereinigten": 3082,
      "##ari": 3083,
      "##ram": 3084,
      "##ätzen": 3085,
      "Einz": 3086,
      "##ister": 3087,
      "Oberfläche": 3088,
      "##ällt": 3089,
      "##ester": 3090,
      "geboren": 3091,
      "Ergebnis": 3092,
      "herauszufinden": 3093,
      "Gu": 3094,
      "Wel": 3095,
      "##öst": 3096,
      "##stück": 3097,
      "Bas": 3098,
      "##zte": 3099,
      "##stein": 3100,
      "Kommun": 3101,
      "Fehler": 3102,
      "Hoch": 3103,
      "Zeich": 3104,
      "dun": 3105,
      "fasz": 3106,
      "500": 3107,
      "90": 3108,
      "Park": 3109,
      "Sau": 3110,
      "nennt": 3111,
      "##fel": 3112,
      "##ienst": 3113,
      "Männ": 3114,
      "tot": 3115,
      "##kr": 3116,
      "##struktur": 3117,
      "früher": 3118,
      "absolut": 3119,
      "Tro": 3120,
      "Jahrzeh": 3121,
      "stimmt": 3122,
      "Europa": 3123,
      "de": 3124,
      "nein": 3125,
      "##ct": 3126,
      "##indungen": 3127,
      "lieben": 3128,
      "Fortsch": 3129,
      "Kan": 3130,
      "enor": 3131,
      "##viel": 3132,
      "Gruppen": 3133,
      "Sym": 3134,
      "Ad": 3135,
      "Psych": 3136,
      "##bel": 3137,
      "##wind": 3138,
      "kre": 3139,
      "##ente": 3140,
      "##arkt": 3141,
      "##essour": 3142,
      "einfache": 3143,
      "neues": 3144,
      "Super": 3145,
      "gesamte": 3146,
      "##pfen": 3147,
      "wirtschaft": 3148,
      "##obil": 3149,
      "Politik": 3150,
      "##daten": 3151,
      "sozialen": 3152,
      "moder": 3153,
      "Hoffnung": 3154,
      "Auch": 3155,
      "digit": 3156,
      "##wesen": 3157,
      "##ehmer": 3158,
      "##wirkungen": 3159,
      "Seiten": 3160,
      "dachten": 3161,
      "def": 3162,
      "##abhäng": 3163,
      "begannen": 3164,
      "Universität": 3165,
      "lok": 3166,
      "##ex": 3167,
      "##ue": 3168,
      "intern": 3169,
      "##üss": 3170,
      "Künstler": 3171,
      "Terr": 3172,
      "##glie": 3173,
      "geschrieben": 3174,
      "Studien": 3175,
      "##seite": 3176,
      "verurs": 3177,
      "Wieder": 3178,
      "Genau": 3179,
      "Sex": 3180,
      "Produkt": 3181,
      "zer": 3182,
      "##inz": 3183,
      "##gest": 3184,
      "##edu": 3185,
      "wichtiger": 3186,
      "##merksamkeit": 3187,
      "Google": 3188,
      "Evolution": 3189,
      "##ikation": 3190,
      "Schön": 3191,
      "Bewusstsein": 3192,
      "Schulen": 3193,
      "##ämpfen": 3194,
      "16": 3195,
      "Ir": 3196,
      "tragen": 3197,
      "##ziert": 3198,
      "zuerst": 3199,
      "anstatt": 3200,
      "Erinner": 3201,
      "gesprochen": 3202,
      "##gendes": 3203,
      "Glau": 3204,
      "Wind": 3205,
      "elektr": 3206,
      "heut": 3207,
      "jähr": 3208,
      "##eller": 3209,
      "Aufmerksamkeit": 3210,
      "Pflanzen": 3211,
      "Uhr": 3212,
      "einzu": 3213,
      "##isst": 3214,
      "gebe": 3215,
      "##rech": 3216,
      "##igens": 3217,
      "##üssel": 3218,
      "Wohl": 3219,
      "##lungen": 3220,
      "##feld": 3221,
      "##igte": 3222,
      "##ussen": 3223,
      "Bevölkerung": 3224,
      "ernst": 3225,
      "Dorf": 3226,
      "Leiden": 3227,
      "lern": 3228,
      "prä": 3229,
      "##enk": 3230,
      "##raten": 3231,
      "übert": 3232,
      "großer": 3233,
      "##indest": 3234,
      "Frü": 3235,
      "##vent": 3236,
      "##isu": 3237,
      "##ime": 3238,
      "bewegt": 3239,
      "ähnlich": 3240,
      "Experiment": 3241,
      "Wörter": 3242,
      "bein": 3243,
      "##iesen": 3244,
      "##ales": 3245,
      "##ikel": 3246,
      "##verb": 3247,
      "gleichzeitig": 3248,
      "irgendw": 3249,
      "Telef": 3250,
      "Institut": 3251,
      "Software": 3252,
      "Wür": 3253,
      "##geh": 3254,
      "abzu": 3255,
      "passierte": 3256,
      "Ressour": 3257,
      "verg": 3258,
      "überw": 3259,
      "sahen": 3260,
      "##pfer": 3261,
      "älter": 3262,
      "##gende": 3263,
      "##auber": 3264,
      "##immel": 3265,
      "Regeln": 3266,
      "erwä": 3267,
      "##trauen": 3268,
      "##beh": 3269,
      "##ivil": 3270,
      "##nete": 3271,
      "finde": 3272,
      "Demokratie": 3273,
      "##deck": 3274,
      "Zugang": 3275,
      "kosten": 3276,
      "##underte": 3277,
      "Ster": 3278,
      "##iot": 3279,
      "##altung": 3280,
      "verlassen": 3281,
      "Mitgefühl": 3282,
      "Versuch": 3283,
      "beobachten": 3284,
      "14": 3285,
      "Elekt": 3286,
      "Hü": 3287,
      "Th": 3288,
      "sitzen": 3289,
      "wichtige": 3290,
      "vorbei": 3291,
      "bestimmt": 3292,
      "bestimmten": 3293,
      "Medikamen": 3294,
      "En": 3295,
      "leb": 3296,
      "##ile": 3297,
      "##ins": 3298,
      "stud": 3299,
      "##gesehen": 3300,
      "schlechte": 3301,
      "Können": 3302,
      "Hig": 3303,
      "Regen": 3304,
      "##schlag": 3305,
      "Bill": 3306,
      "Baum": 3307,
      "Rech": 3308,
      "verfü": 3309,
      "vorh": 3310,
      "##essere": 3311,
      "##ickt": 3312,
      "##imul": 3313,
      "versuchte": 3314,
      "junge": 3315,
      "gearbeitet": 3316,
      "Orte": 3317,
      "näher": 3318,
      "Armut": 3319,
      "Fin": 3320,
      "Hel": 3321,
      "Mehr": 3322,
      "ansehen": 3323,
      "Spezie": 3324,
      "Kontrolle": 3325,
      "Wohn": 3326,
      "Phil": 3327,
      "##affe": 3328,
      "##lern": 3329,
      "##kam": 3330,
      "erfor": 3331,
      "Einfluss": 3332,
      "Arbeits": 3333,
      "Molekü": 3334,
      "Monaten": 3335,
      "Zw": 3336,
      "blo": 3337,
      "ehr": 3338,
      "kur": 3339,
      "##tel": 3340,
      "ständig": 3341,
      "##ologische": 3342,
      "##schung": 3343,
      "##orfen": 3344,
      "##rab": 3345,
      "##kle": 3346,
      "inspir": 3347,
      "##mmern": 3348,
      "##reg": 3349,
      "Schn": 3350,
      "untersch": 3351,
      "bedeuten": 3352,
      "Amerikaner": 3353,
      "nahe": 3354,
      "Gut": 3355,
      "HI": 3356,
      "John": 3357,
      "Ton": 3358,
      "änder": 3359,
      "##gliche": 3360,
      "Sohn": 3361,
      "Konzept": 3362,
      "Theorie": 3363,
      "Lauf": 3364,
      "Morgen": 3365,
      "spezie": 3366,
      "##imp": 3367,
      "Mü": 3368,
      "fantast": 3369,
      "##rate": 3370,
      "Vol": 3371,
      "bald": 3372,
      "natür": 3373,
      "##twas": 3374,
      "bessere": 3375,
      "##öff": 3376,
      "Menschheit": 3377,
      "Eines": 3378,
      "Poliz": 3379,
      "Bus": 3380,
      "Stern": 3381,
      "Zentr": 3382,
      "falls": 3383,
      "medizin": 3384,
      "erg": 3385,
      "Prote": 3386,
      "##herap": 3387,
      "##apan": 3388,
      "offensichtlich": 3389,
      "verbessern": 3390,
      "Abend": 3391,
      "richtige": 3392,
      "invest": 3393,
      "##ama": 3394,
      "dahin": 3395,
      "Nachbar": 3396,
      "Trä": 3397,
      "prakt": 3398,
      "richtigen": 3399,
      "wider": 3400,
      "##ix": 3401,
      "Stelle": 3402,
      "201": 3403,
      "Schüler": 3404,
      "Car": 3405,
      "##atisch": 3406,
      "##itär": 3407,
      "gesp": 3408,
      "##ektion": 3409,
      "##ständnis": 3410,
      "##ützt": 3411,
      "bleibt": 3412,
      "Krankheiten": 3413,
      "Terror": 3414,
      "bilden": 3415,
      "ok": 3416,
      "Daher": 3417,
      "Firmen": 3418,
      "einzelne": 3419,
      "70": 3420,
      "Bot": 3421,
      "vergessen": 3422,
      "wussten": 3423,
      "Zeug": 3424,
      "##ählt": 3425,
      "##blich": 3426,
      "ihres": 3427,
      "##app": 3428,
      "Innovation": 3429,
      "##windigkeit": 3430,
      "##iegel": 3431,
      "##ausend": 3432,
      "Vergangen": 3433,
      "##abil": 3434,
      "großes": 3435,
      "Beispiele": 3436,
      "bemerken": 3437,
      "Engl": 3438,
      "##igner": 3439,
      "Gerät": 3440,
      "##rit": 3441,
      "##machen": 3442,
      "##dessen": 3443,
      "möglichen": 3444,
      "HIV": 3445,
      "Rau": 3446,
      "Relig": 3447,
      "##ipp": 3448,
      "##eits": 3449,
      "##ielten": 3450,
      "Spaß": 3451,
      "Grenzen": 3452,
      "##zähl": 3453,
      "##kommt": 3454,
      "Gala": 3455,
      "Kern": 3456,
      "Tagen": 3457,
      "##orben": 3458,
      "##eitung": 3459,
      "Arbei": 3460,
      "kannst": 3461,
      "Orten": 3462,
      "##ünft": 3463,
      "arbeitete": 3464,
      "erzeugen": 3465,
      "Stamm": 3466,
      "##oss": 3467,
      "Gebiet": 3468,
      "##teilt": 3469,
      "Entscheidung": 3470,
      "anschauen": 3471,
      "Feuer": 3472,
      "Jed": 3473,
      "Leist": 3474,
      "##onie": 3475,
      "Prot": 3476,
      "Nachricht": 3477,
      "verlieren": 3478,
      "##schluss": 3479,
      "links": 3480,
      "Galax": 3481,
      "hundert": 3482,
      "##dass": 3483,
      "##echsel": 3484,
      "Chris": 3485,
      "##ächen": 3486,
      "##bten": 3487,
      "##schir": 3488,
      "zumindest": 3489,
      "Ord": 3490,
      "##klär": 3491,
      "##quenz": 3492,
      "Vergangenheit": 3493,
      "Sign": 3494,
      "deine": 3495,
      "echte": 3496,
      "fertig": 3497,
      "##eitet": 3498,
      "denkt": 3499,
      "##iven": 3500,
      "Personen": 3501,
      "voller": 3502,
      "Netzwerk": 3503,
      "erlaubt": 3504,
      "Ebene": 3505,
      "17": 3506,
      "##ym": 3507,
      "vert": 3508,
      "Ern": 3509,
      "Erf": 3510,
      "##ekten": 3511,
      "aussieht": 3512,
      "Sekunden": 3513,
      "##iter": 3514,
      "##abel": 3515,
      "erzählt": 3516,
      "Geschäfts": 3517,
      "##wand": 3518,
      "##orge": 3519,
      "Wirklichkeit": 3520,
      "veröffent": 3521,
      "nachzudenken": 3522,
      "##gten": 3523,
      "##alle": 3524,
      "##mäß": 3525,
      "##uchte": 3526,
      "##räfte": 3527,
      "Konfl": 3528,
      "irgendwo": 3529,
      "Worte": 3530,
      "erklär": 3531,
      "produzieren": 3532,
      "Spezies": 3533,
      "##stes": 3534,
      "##ürz": 3535,
      "gebracht": 3536,
      "manche": 3537,
      "##indern": 3538,
      "##lam": 3539,
      "Baby": 3540,
      "Mathematik": 3541,
      "tä": 3542,
      "##wür": 3543,
      "##arm": 3544,
      "stär": 3545,
      "arbeitet": 3546,
      "##teilen": 3547,
      "Bakterien": 3548,
      "häuf": 3549,
      "##wissen": 3550,
      "##anc": 3551,
      "##ital": 3552,
      "##ierter": 3553,
      "##isse": 3554,
      "schreck": 3555,
      "gewalt": 3556,
      "keiner": 3557,
      "##press": 3558,
      "Pos": 3559,
      "morgen": 3560,
      "##arf": 3561,
      "sodass": 3562,
      "##oph": 3563,
      "##merz": 3564,
      "Ergebnisse": 3565,
      "gesamten": 3566,
      "führte": 3567,
      "Ressourcen": 3568,
      "Det": 3569,
      "##falt": 3570,
      "##stelle": 3571,
      "Verantwort": 3572,
      "##zeichnet": 3573,
      "kaum": 3574,
      "##bert": 3575,
      "vern": 3576,
      "##rain": 3577,
      "gewinnen": 3578,
      "solchen": 3579,
      "versuche": 3580,
      "trotzdem": 3581,
      "Frieden": 3582,
      "Haut": 3583,
      "Kä": 3584,
      "Nä": 3585,
      "Nerv": 3586,
      "dest": 3587,
      "et": 3588,
      "selt": 3589,
      "traf": 3590,
      "winz": 3591,
      "##ath": 3592,
      "##ckte": 3593,
      "##folgen": 3594,
      "Objekt": 3595,
      "Not": 3596,
      "##gemein": 3597,
      "##sto": 3598,
      "##licherweise": 3599,
      "hol": 3600,
      "heutzutage": 3601,
      "retten": 3602,
      "##altet": 3603,
      "befinden": 3604,
      "##ildet": 3605,
      "##zimmer": 3606,
      "Herr": 3607,
      "interessante": 3608,
      "##ferenz": 3609,
      "##holen": 3610,
      "Kollegen": 3611,
      "Wand": 3612,
      "##50": 3613,
      "auft": 3614,
      "Vert": 3615,
      "Wahrscheinlich": 3616,
      "Diag": 3617,
      "bestimmte": 3618,
      "Meeres": 3619,
      "Hände": 3620,
      "bau": 3621,
      "##ser": 3622,
      "##stru": 3623,
      "gek": 3624,
      "##ingungen": 3625,
      "Präsi": 3626,
      "Gefäng": 3627,
      "nenne": 3628,
      "runter": 3629,
      "##mut": 3630,
      "erfahren": 3631,
      "gekommen": 3632,
      "zeigte": 3633,
      "geschehen": 3634,
      "Regierungen": 3635,
      "Monat": 3636,
      "organis": 3637,
      "CO": 3638,
      "Sand": 3639,
      "##gor": 3640,
      "##örder": 3641,
      "Chance": 3642,
      "verbinden": 3643,
      "##ograph": 3644,
      "13": 3645,
      "##anter": 3646,
      "##itionen": 3647,
      "##utzung": 3648,
      "globalen": 3649,
      "300": 3650,
      "redu": 3651,
      "##kre": 3652,
      "##öpf": 3653,
      "##eiter": 3654,
      "##genie": 3655,
      "##ktor": 3656,
      "##reitet": 3657,
      "Jahres": 3658,
      "##werke": 3659,
      "Landes": 3660,
      "Geburt": 3661,
      "Industrie": 3662,
      "Kampf": 3663,
      "untersuchen": 3664,
      "Himmel": 3665,
      "Oper": 3666,
      "##uhr": 3667,
      "##fg": 3668,
      "unmöglich": 3669,
      "aufre": 3670,
      "Invest": 3671,
      "einzelnen": 3672,
      "neun": 3673,
      "psych": 3674,
      "##inge": 3675,
      "aufgrund": 3676,
      "Geheim": 3677,
      "gefragt": 3678,
      "dritte": 3679,
      "Linie": 3680,
      "erhö": 3681,
      "##ometer": 3682,
      "Maschinen": 3683,
      "Methode": 3684,
      "Disk": 3685,
      "##nü": 3686,
      "##hand": 3687,
      "##arte": 3688,
      "##peratur": 3689,
      "Dav": 3690,
      "##ssystem": 3691,
      "Kur": 3692,
      "##äte": 3693,
      "##gebracht": 3694,
      "##twend": 3695,
      "##etzten": 3696,
      "Gefü": 3697,
      "Kons": 3698,
      "##gefangen": 3699,
      "rund": 3700,
      "##hang": 3701,
      "##amt": 3702,
      "Bezug": 3703,
      "riesige": 3704,
      "Partner": 3705,
      "Glauben": 3706,
      "Telefon": 3707,
      "visu": 3708,
      "##wenden": 3709,
      "##stände": 3710,
      "##egenheit": 3711,
      "Systeme": 3712,
      "entdecken": 3713,
      "##ffizien": 3714,
      "Heim": 3715,
      "Ker": 3716,
      "Mich": 3717,
      "Sinne": 3718,
      "##len": 3719,
      "##grü": 3720,
      "##nungen": 3721,
      "##pu": 3722,
      "##ationalen": 3723,
      "##assung": 3724,
      "##rägt": 3725,
      "alte": 3726,
      "hilft": 3727,
      "Ben": 3728,
      "##iti": 3729,
      "##ehme": 3730,
      "##uchten": 3731,
      "Außer": 3732,
      "##produ": 3733,
      "lebt": 3734,
      "danke": 3735,
      "at": 3736,
      "jungen": 3737,
      "##ücht": 3738,
      "##zial": 3739,
      "niedr": 3740,
      "198": 3741,
      "großartige": 3742,
      "Krankenhaus": 3743,
      "Erwachsen": 3744,
      "Ordnung": 3745,
      "##win": 3746,
      "##iell": 3747,
      "zufä": 3748,
      "sowohl": 3749,
      "hab": 3750,
      "##schiede": 3751,
      "herausfinden": 3752,
      "verstanden": 3753,
      "Regel": 3754,
      "moral": 3755,
      "wann": 3756,
      "##sprach": 3757,
      "Einkommen": 3758,
      "Auswirkungen": 3759,
      "großartig": 3760,
      "Damit": 3761,
      "21": 3762,
      "National": 3763,
      "Transp": 3764,
      "leisten": 3765,
      "##emand": 3766,
      "##eum": 3767,
      "entschieden": 3768,
      "hörte": 3769,
      "##fghan": 3770,
      "läuft": 3771,
      "##grupp": 3772,
      "##isieren": 3773,
      "##reche": 3774,
      "##etzte": 3775,
      "erzählte": 3776,
      "##ständig": 3777,
      "Fotos": 3778,
      "amerikanischen": 3779,
      "Architektur": 3780,
      "Bienen": 3781,
      "Zivil": 3782,
      "fing": 3783,
      "tau": 3784,
      "##ssen": 3785,
      "##illen": 3786,
      "##glicht": 3787,
      "##otwend": 3788,
      "##aup": 3789,
      "##bed": 3790,
      "##rist": 3791,
      "Million": 3792,
      "rechts": 3793,
      "Freiheit": 3794,
      "hält": 3795,
      "##asche": 3796,
      "einander": 3797,
      "gestellt": 3798,
      "Stre": 3799,
      "dadurch": 3800,
      "##reise": 3801,
      "genet": 3802,
      "zweiten": 3803,
      "kommun": 3804,
      "Geräu": 3805,
      "König": 3806,
      "Organisation": 3807,
      "Beziehungen": 3808,
      "Höhe": 3809,
      "##motion": 3810,
      "öffentlichen": 3811,
      "Gem": 3812,
      "Sa": 3813,
      "##mt": 3814,
      "##yt": 3815,
      "Ingenie": 3816,
      "##ationale": 3817,
      "sta": 3818,
      "##abr": 3819,
      "##ologischen": 3820,
      "Fluss": 3821,
      "Formen": 3822,
      "##gleichen": 3823,
      "normalerweise": 3824,
      "Nummer": 3825,
      "ermöglicht": 3826,
      "is": 3827,
      "lag": 3828,
      "##ebe": 3829,
      "##rig": 3830,
      "##zahlen": 3831,
      "##zunehmen": 3832,
      "##wart": 3833,
      "arbeite": 3834,
      "##gaben": 3835,
      "##äuser": 3836,
      "sammeln": 3837,
      "##rt": 3838,
      "##volle": 3839,
      "warten": 3840,
      "##ums": 3841,
      "spr": 3842,
      "Nahrung": 3843,
      "übrigens": 3844,
      "Cl": 3845,
      "Fakt": 3846,
      "ca": 3847,
      "pr": 3848,
      "tradition": 3849,
      "##anen": 3850,
      "geschaffen": 3851,
      "einzig": 3852,
      "##loss": 3853,
      "##arbeiter": 3854,
      "Haben": 3855,
      "of": 3856,
      "##samen": 3857,
      "diejenigen": 3858,
      "##org": 3859,
      "Arzt": 3860,
      "##ossen": 3861,
      "##astrop": 3862,
      "bestehen": 3863,
      "Gehirns": 3864,
      "außerhalb": 3865,
      "Büro": 3866,
      "Brust": 3867,
      "Ärzte": 3868,
      "Auss": 3869,
      "Noch": 3870,
      "tie": 3871,
      "##amer": 3872,
      "##hnung": 3873,
      "Anal": 3874,
      "##ativität": 3875,
      "befindet": 3876,
      "höch": 3877,
      "Ak": 3878,
      "Ball": 3879,
      "##greifen": 3880,
      "##zwei": 3881,
      "##kul": 3882,
      "##ießen": 3883,
      "Reaktion": 3884,
      "##ütter": 3885,
      "entdeckt": 3886,
      "Jungen": 3887,
      "##met": 3888,
      "##eidet": 3889,
      "##rochen": 3890,
      "verste": 3891,
      "Entdeck": 3892,
      "Bühne": 3893,
      "Wesen": 3894,
      "##lef": 3895,
      "##laufen": 3896,
      "herunter": 3897,
      "Berg": 3898,
      "handelt": 3899,
      "jung": 3900,
      "taten": 3901,
      "##par": 3902,
      "##ven": 3903,
      "schützen": 3904,
      "Gespr": 3905,
      "##folge": 3906,
      "Mars": 3907,
      "Schlüssel": 3908,
      "Gründe": 3909,
      "##ynam": 3910,
      "unterstützen": 3911,
      "messen": 3912,
      "##ry": 3913,
      "##anze": 3914,
      "Verständnis": 3915,
      "bisher": 3916,
      "welcher": 3917,
      "Liebl": 3918,
      "Unser": 3919,
      "Liste": 3920,
      "Drogen": 3921,
      "desto": 3922,
      "##ille": 3923,
      "uner": 3924,
      "##änomen": 3925,
      "Chin": 3926,
      "##stoffe": 3927,
      "ebenso": 3928,
      "Klimaw": 3929,
      "##imension": 3930,
      "Punkte": 3931,
      "Ser": 3932,
      "##ritte": 3933,
      "##kop": 3934,
      "##unächst": 3935,
      "spielt": 3936,
      "##ährt": 3937,
      "gewöhn": 3938,
      "einzigen": 3939,
      "Beginn": 3940,
      "Farbe": 3941,
      "Flugzeug": 3942,
      "CO2": 3943,
      "Bis": 3944,
      "Finger": 3945,
      "Tal": 3946,
      "dau": 3947,
      "##jähr": 3948,
      "##schte": 3949,
      "##ürf": 3950,
      "##icks": 3951,
      "##stellungen": 3952,
      "##ahmen": 3953,
      "betrachtet": 3954,
      "selben": 3955,
      "Lö": 3956,
      "mächt": 3957,
      "Manchmal": 3958,
      "Quad": 3959,
      "##ätzlich": 3960,
      "Traum": 3961,
      "Wald": 3962,
      "effekt": 3963,
      "Ök": 3964,
      "##seh": 3965,
      "##önen": 3966,
      "##geht": 3967,
      "##ision": 3968,
      "##leb": 3969,
      "ant": 3970,
      "##ilde": 3971,
      "He": 3972,
      "Hirn": 3973,
      "San": 3974,
      "Win": 3975,
      "##ifor": 3976,
      "##stä": 3977,
      "Stunde": 3978,
      "Inse": 3979,
      "Verfü": 3980,
      "##ivat": 3981,
      "fühlte": 3982,
      "Mark": 3983,
      "entweder": 3984,
      "Behandlung": 3985,
      "berühm": 3986,
      "phys": 3987,
      "leg": 3988,
      "##eiste": 3989,
      "herstellen": 3990,
      "lief": 3991,
      "Gene": 3992,
      "Kreis": 3993,
      "Name": 3994,
      "Pass": 3995,
      "land": 3996,
      "mer": 3997,
      "##sichtig": 3998,
      "##nehm": 3999,
      "##aben": 4000,
      "##orn": 4001,
      "bean": 4002,
      "Zeitpunkt": 4003,
      "##gebaut": 4004,
      "wundersch": 4005,
      "belie": 4006,
      "Kamera": 4007,
      "Grad": 4008,
      "Tisch": 4009,
      "Wunder": 4010,
      "opt": 4011,
      "##ov": 4012,
      "##iels": 4013,
      "Einer": 4014,
      "##apt": 4015,
      "##änden": 4016,
      "Interesse": 4017,
      "##schirm": 4018,
      "Klimawandel": 4019,
      "Fo": 4020,
      "Funktion": 4021,
      "Lernen": 4022,
      "##urg": 4023,
      "dasselbe": 4024,
      "Ins": 4025,
      "getroffen": 4026,
      "Erfahrungen": 4027,
      "Lösungen": 4028,
      "grundlegen": 4029,
      "Medikamente": 4030,
      "seltsam": 4031,
      "cool": 4032,
      "inte": 4033,
      "##achtet": 4034,
      "Schrift": 4035,
      "Ereig": 4036,
      "Best": 4037,
      "Herzen": 4038,
      "guter": 4039,
      "Individu": 4040,
      "##selben": 4041,
      "##wärts": 4042,
      "Englisch": 4043,
      "Gefängnis": 4044,
      "Ep": 4045,
      "##ndon": 4046,
      "erleben": 4047,
      "Artikel": 4048,
      "gewiss": 4049,
      "Designer": 4050,
      "Komplex": 4051,
      "erwarten": 4052,
      "Poten": 4053,
      "Spr": 4054,
      "gutes": 4055,
      "Jahrhunderts": 4056,
      "Bu": 4057,
      "Hall": 4058,
      "Pe": 4059,
      "##such": 4060,
      "##zer": 4061,
      "##pag": 4062,
      "##orgt": 4063,
      "##spl": 4064,
      "mehrere": 4065,
      "wenige": 4066,
      "##maßen": 4067,
      "##lose": 4068,
      "früh": 4069,
      "Wege": 4070,
      "heutigen": 4071,
      "Ach": 4072,
      "Wol": 4073,
      "##zut": 4074,
      "##passen": 4075,
      "##rak": 4076,
      "##ilien": 4077,
      "##ellschaften": 4078,
      "Einzel": 4079,
      "Mär": 4080,
      "##kur": 4081,
      "##schu": 4082,
      "##ierend": 4083,
      "behaup": 4084,
      "erinnere": 4085,
      "Hy": 4086,
      "##frieden": 4087,
      "##öse": 4088,
      "##itann": 4089,
      "sowie": 4090,
      "Veränderungen": 4091,
      "jene": 4092,
      "Risiko": 4093,
      "Finanz": 4094,
      "Jedes": 4095,
      "Afghan": 4096,
      "Fen": 4097,
      "Mö": 4098,
      "and": 4099,
      "##ake": 4100,
      "##eisch": 4101,
      "##reie": 4102,
      "##örp": 4103,
      "spricht": 4104,
      "Zustand": 4105,
      "##gefunden": 4106,
      "Exp": 4107,
      "nahmen": 4108,
      "Feld": 4109,
      "Junge": 4110,
      "aktu": 4111,
      "##fassen": 4112,
      "##iete": 4113,
      "##unt": 4114,
      "unver": 4115,
      "##amb": 4116,
      "schicken": 4117,
      "Inner": 4118,
      "##barkeit": 4119,
      "##liegen": 4120,
      "Teilen": 4121,
      "Japan": 4122,
      "Mitt": 4123,
      "Wichtig": 4124,
      "Zeiten": 4125,
      "##ikt": 4126,
      "##stung": 4127,
      "##eigt": 4128,
      "##urm": 4129,
      "Schwar": 4130,
      "Instr": 4131,
      "##istisch": 4132,
      "weiteren": 4133,
      "verkaufen": 4134,
      "ebenfalls": 4135,
      "Kol": 4136,
      "selten": 4137,
      "wün": 4138,
      "##gnor": 4139,
      "##masch": 4140,
      "##vie": 4141,
      "##enze": 4142,
      "intelligen": 4143,
      "##geführt": 4144,
      "voraus": 4145,
      "##fälle": 4146,
      "Ident": 4147,
      "wählen": 4148,
      "##riere": 4149,
      "##dig": 4150,
      "##krieg": 4151,
      "##ption": 4152,
      "Sommer": 4153,
      "##maß": 4154,
      "Worten": 4155,
      "Erkennt": 4156,
      "ehrlich": 4157,
      "fällt": 4158,
      "krei": 4159,
      "##fter": 4160,
      "##buch": 4161,
      "##eien": 4162,
      "##geg": 4163,
      "##rastruktur": 4164,
      "##umor": 4165,
      "prof": 4166,
      "##ebo": 4167,
      "Charakter": 4168,
      "Verantwortung": 4169,
      "Mut": 4170,
      "hart": 4171,
      "##ierungs": 4172,
      "##eutlich": 4173,
      "Erstens": 4174,
      "Vergleich": 4175,
      "Angel": 4176,
      "##räge": 4177,
      "##frikan": 4178,
      "erfunden": 4179,
      "Schönheit": 4180,
      "##iforn": 4181,
      "km": 4182,
      "##gien": 4183,
      "##mann": 4184,
      "##ehrt": 4185,
      "##ilt": 4186,
      "Projekte": 4187,
      "Anwend": 4188,
      "einfachen": 4189,
      "Werte": 4190,
      "jemandem": 4191,
      "Version": 4192,
      "Bedürf": 4193,
      "##mode": 4194,
      "Eigenschaften": 4195,
      "gedacht": 4196,
      "dür": 4197,
      "dauer": 4198,
      "##dings": 4199,
      "##prü": 4200,
      "##örung": 4201,
      "Auge": 4202,
      "geschah": 4203,
      "Strate": 4204,
      "außergewöhn": 4205,
      "unterschiedliche": 4206,
      "London": 4207,
      "Kommunikation": 4208,
      "Religion": 4209,
      "kultur": 4210,
      "wesent": 4211,
      "##itive": 4212,
      "erwei": 4213,
      "Intelligen": 4214,
      "Arme": 4215,
      "nachhalt": 4216,
      "##gress": 4217,
      "##alismus": 4218,
      "##itannien": 4219,
      "##stütz": 4220,
      "##ane": 4221,
      "##bewer": 4222,
      "behandeln": 4223,
      "##zusagen": 4224,
      "Ahnung": 4225,
      "Bank": 4226,
      "Dienst": 4227,
      "Zelle": 4228,
      "tra": 4229,
      "##renz": 4230,
      "##pekt": 4231,
      "##äst": 4232,
      "##brechen": 4233,
      "##bald": 4234,
      "##aul": 4235,
      "mitt": 4236,
      "komme": 4237,
      "Region": 4238,
      "unglaubliche": 4239,
      "existiert": 4240,
      "Männern": 4241,
      "Drei": 4242,
      "##keln": 4243,
      "##schutz": 4244,
      "##etr": 4245,
      "schn": 4246,
      "Gehir": 4247,
      "Freunden": 4248,
      "konzentrieren": 4249,
      "\"-": 4250,
      "24": 4251,
      "Tieren": 4252,
      "Trans": 4253,
      "##bol": 4254,
      "##will": 4255,
      "##ndet": 4256,
      "verbringen": 4257,
      "sobald": 4258,
      "überleben": 4259,
      "Erst": 4260,
      "##rücken": 4261,
      "Manche": 4262,
      "Produkte": 4263,
      "Biologie": 4264,
      "Städten": 4265,
      "Infrastruktur": 4266,
      "bill": 4267,
      "##bieren": 4268,
      "##enken": 4269,
      "##unsch": 4270,
      "Freude": 4271,
      "##erstoff": 4272,
      "##präsent": 4273,
      "öffnen": 4274,
      "verrückt": 4275,
      "faszinieren": 4276,
      "lernte": 4277,
      "Nähe": 4278,
      "Krie": 4279,
      "Massen": 4280,
      "emotion": 4281,
      "##stieg": 4282,
      "##ged": 4283,
      "unabhäng": 4284,
      "##isiert": 4285,
      "Ansatz": 4286,
      "Antworten": 4287,
      "##istor": 4288,
      "wunderbar": 4289,
      "Gesundheits": 4290,
      "Westen": 4291,
      "Materialien": 4292,
      "Nahrungs": 4293,
      "High": 4294,
      "Bio": 4295,
      "Del": 4296,
      "Mir": 4297,
      "Ta": 4298,
      "zeich": 4299,
      "##abt": 4300,
      "Schutz": 4301,
      "##reib": 4302,
      "eigenes": 4303,
      "##alisierung": 4304,
      "##ourn": 4305,
      "frühen": 4306,
      "Verfügung": 4307,
      "fangen": 4308,
      "##lant": 4309,
      "##ußer": 4310,
      "##ehren": 4311,
      "##raucht": 4312,
      "Eins": 4313,
      "##britannien": 4314,
      "Physik": 4315,
      "positiv": 4316,
      "Fortschritt": 4317,
      "Kommen": 4318,
      "Kurz": 4319,
      "ident": 4320,
      "##go": 4321,
      "angefangen": 4322,
      "##ennung": 4323,
      "gegangen": 4324,
      "spreche": 4325,
      "Spitze": 4326,
      "197": 4327,
      "kontrollieren": 4328,
      "Entw": 4329,
      "Wett": 4330,
      "Waffen": 4331,
      "trifft": 4332,
      "##hlten": 4333,
      "##ment": 4334,
      "Organ": 4335,
      "Dort": 4336,
      "Kein": 4337,
      "Nehmen": 4338,
      "west": 4339,
      "Schau": 4340,
      "Mond": 4341,
      "Verbindungen": 4342,
      "Text": 4343,
      "Virus": 4344,
      "ursprü": 4345,
      "Bäume": 4346,
      "Gang": 4347,
      "##frage": 4348,
      "##stag": 4349,
      "##stadt": 4350,
      "##ong": 4351,
      "##scher": 4352,
      "##ochter": 4353,
      "Plast": 4354,
      "Überleben": 4355,
      "Museum": 4356,
      "Gelegenheit": 4357,
      "Sauerstoff": 4358,
      "Jo": 4359,
      "Pal": 4360,
      "echt": 4361,
      "fallen": 4362,
      "hört": 4363,
      "##afen": 4364,
      "##beweg": 4365,
      "Schiff": 4366,
      "seines": 4367,
      "Sport": 4368,
      "entstehen": 4369,
      "gehe": 4370,
      "begonnen": 4371,
      "Unterstütz": 4372,
      "Polizei": 4373,
      "Wandel": 4374,
      "chin": 4375,
      "kn": 4376,
      "##gier": 4377,
      "##weil": 4378,
      "##orgung": 4379,
      "##amp": 4380,
      "##twick": 4381,
      "##ikas": 4382,
      "herzustellen": 4383,
      "geschafft": 4384,
      "Klasse": 4385,
      "Schluss": 4386,
      "Schlaf": 4387,
      "Atmo": 4388,
      "riesigen": 4389,
      "existieren": 4390,
      "chines": 4391,
      "##organis": 4392,
      "##ichtbar": 4393,
      "erzeugt": 4394,
      "##rot": 4395,
      "sow": 4396,
      "Zuh": 4397,
      "Interess": 4398,
      "größere": 4399,
      "Produktion": 4400,
      "Nichts": 4401,
      "Farben": 4402,
      "globale": 4403,
      "Knochen": 4404,
      "Standard": 4405,
      "Leidenschaft": 4406,
      "Pil": 4407,
      "Wider": 4408,
      "##oc": 4409,
      "##ain": 4410,
      "genutzt": 4411,
      "Unterschiede": 4412,
      "##istenz": 4413,
      "##konom": 4414,
      "##acebo": 4415,
      "##drücken": 4416,
      "beeinflusst": 4417,
      "Fenster": 4418,
      "Suche": 4419,
      "Tochter": 4420,
      "online": 4421,
      "trau": 4422,
      "verein": 4423,
      "aufgenommen": 4424,
      "##oper": 4425,
      "ließ": 4426,
      "Ausdruck": 4427,
      "brauchte": 4428,
      "Kreativität": 4429,
      "größeren": 4430,
      "Profess": 4431,
      "Statist": 4432,
      "akzept": 4433,
      "häufig": 4434,
      "Rand": 4435,
      "fehl": 4436,
      "##setzt": 4437,
      "##oo": 4438,
      "##stre": 4439,
      "##haltung": 4440,
      "Großbritannien": 4441,
      "Werkzeuge": 4442,
      "Privat": 4443,
      "erstaunlich": 4444,
      "Vielfalt": 4445,
      "Entwicklungsl": 4446,
      "Opfer": 4447,
      "kämpfen": 4448,
      "##ergie": 4449,
      "##techn": 4450,
      "##anda": 4451,
      "##neten": 4452,
      "Geschwindigkeit": 4453,
      "##stellte": 4454,
      "reagieren": 4455,
      "##verl": 4456,
      "wichtigsten": 4457,
      "Phänomen": 4458,
      "Karten": 4459,
      "Denk": 4460,
      "erwähn": 4461,
      "Def": 4462,
      "Hund": 4463,
      "Los": 4464,
      "Seit": 4465,
      "Tim": 4466,
      "kor": 4467,
      "##kung": 4468,
      "##bü": 4469,
      "##ID": 4470,
      "wirk": 4471,
      "##ichts": 4472,
      "sogen": 4473,
      "bezahl": 4474,
      "##anke": 4475,
      "entsp": 4476,
      "fühlt": 4477,
      "rede": 4478,
      "freu": 4479,
      "politischen": 4480,
      "ermöglichen": 4481,
      "überraschen": 4482,
      "##wohner": 4483,
      "Vari": 4484,
      "##fs": 4485,
      "##üsse": 4486,
      "Altern": 4487,
      "irgendein": 4488,
      "Schlag": 4489,
      "Glas": 4490,
      "Rücken": 4491,
      "##aurier": 4492,
      "Zentrum": 4493,
      "Will": 4494,
      "lust": 4495,
      "notwend": 4496,
      "verantwort": 4497,
      "umzu": 4498,
      "weiterhin": 4499,
      "Frank": 4500,
      "##freu": 4501,
      "##geschichte": 4502,
      "Kilometer": 4503,
      "400": 4504,
      "Ganz": 4505,
      "Kann": 4506,
      "typ": 4507,
      "##het": 4508,
      "##ball": 4509,
      "##atter": 4510,
      "Gest": 4511,
      "entlang": 4512,
      "##riffen": 4513,
      "##geschlossen": 4514,
      "schlimm": 4515,
      "beeinflussen": 4516,
      "##minister": 4517,
      "endlich": 4518,
      "okay": 4519,
      "Loch": 4520,
      "Vog": 4521,
      "blie": 4522,
      "su": 4523,
      "##seit": 4524,
      "##text": 4525,
      "fühle": 4526,
      "dorthin": 4527,
      "##zeichnen": 4528,
      "Durchschnitt": 4529,
      "Todes": 4530,
      "Osten": 4531,
      "kenne": 4532,
      "nöt": 4533,
      "##ana": 4534,
      "##angel": 4535,
      "##rug": 4536,
      "einfacher": 4537,
      "196": 4538,
      "Boot": 4539,
      "Ameisen": 4540,
      "produziert": 4541,
      "Soldaten": 4542,
      "Typen": 4543,
      "Temperatur": 4544,
      "David": 4545,
      "Gefühle": 4546,
      "Keine": 4547,
      "Szen": 4548,
      "deutlich": 4549,
      "gilt": 4550,
      "langen": 4551,
      "vertrau": 4552,
      "##leun": 4553,
      "überle": 4554,
      "##istische": 4555,
      "Gesellschaften": 4556,
      "Klassen": 4557,
      "Gemeinde": 4558,
      "seien": 4559,
      "kompliz": 4560,
      "Perspekt": 4561,
      "Offen": 4562,
      "Rä": 4563,
      "Zit": 4564,
      "hielt": 4565,
      "transp": 4566,
      "##ebt": 4567,
      "##schauen": 4568,
      "##artig": 4569,
      "##tember": 4570,
      "Webs": 4571,
      "Neuronen": 4572,
      "Afghanistan": 4573,
      "Bitte": 4574,
      "Körp": 4575,
      "My": 4576,
      "Port": 4577,
      "Wunsch": 4578,
      "buch": 4579,
      "nütz": 4580,
      "sex": 4581,
      "##hei": 4582,
      "##fallen": 4583,
      "##stab": 4584,
      "anal": 4585,
      "##undament": 4586,
      "wohin": 4587,
      "Einsatz": 4588,
      "Konferenz": 4589,
      "##akten": 4590,
      "erlauben": 4591,
      "nehme": 4592,
      "##hö": 4593,
      "##hre": 4594,
      "schaut": 4595,
      "Bef": 4596,
      "##alisieren": 4597,
      "stellten": 4598,
      "handeln": 4599,
      "Müll": 4600,
      "Band": 4601,
      "Em": 4602,
      "Kop": 4603,
      "abst": 4604,
      "##swer": 4605,
      "##zur": 4606,
      "##orte": 4607,
      "Beruf": 4608,
      "Materie": 4609,
      "##führer": 4610,
      "Werkzeug": 4611,
      "überras": 4612,
      "Niemand": 4613,
      "Zeichen": 4614,
      "Botschaft": 4615,
      "##gorit": 4616,
      "Diskuss": 4617,
      "Holz": 4618,
      "##eise": 4619,
      "erstellen": 4620,
      "verbl": 4621,
      "##lecht": 4622,
      "spezi": 4623,
      "##iertel": 4624,
      "Kohlen": 4625,
      "##plan": 4626,
      "dritten": 4627,
      "behandelt": 4628,
      "Begriff": 4629,
      "politische": 4630,
      "entsteht": 4631,
      "Facebo": 4632,
      "Heil": 4633,
      "Sen": 4634,
      "gaben": 4635,
      "mat": 4636,
      "##ka": 4637,
      "##rael": 4638,
      "##utt": 4639,
      "dagegen": 4640,
      "Spielen": 4641,
      "kostet": 4642,
      "##eidung": 4643,
      "##umente": 4644,
      "Zusammenhang": 4645,
      "Korallen": 4646,
      "Fernseh": 4647,
      "ändert": 4648,
      "Sterne": 4649,
      "##view": 4650,
      "Facebook": 4651,
      "Dis": 4652,
      "Ku": 4653,
      "Red": 4654,
      "afrikan": 4655,
      "passen": 4656,
      "##hilfe": 4657,
      "##kauf": 4658,
      "zug": 4659,
      "darf": 4660,
      "##otyp": 4661,
      "##bruch": 4662,
      "ganzes": 4663,
      "Blog": 4664,
      "Lebensmittel": 4665,
      "Karriere": 4666,
      "Verhaltens": 4667,
      "Position": 4668,
      "Bud": 4669,
      "Hor": 4670,
      "Kunden": 4671,
      "Sal": 4672,
      "krie": 4673,
      "künst": 4674,
      "kürz": 4675,
      "res": 4676,
      "##nissen": 4677,
      "##pfl": 4678,
      "##osystem": 4679,
      "entschied": 4680,
      "##formen": 4681,
      "Ausbildung": 4682,
      "Qualität": 4683,
      "##setzung": 4684,
      "Säu": 4685,
      "Satz": 4686,
      "Ziele": 4687,
      "jün": 4688,
      "legen": 4689,
      "leiden": 4690,
      "##fisch": 4691,
      "##ternehmen": 4692,
      "Mitglie": 4693,
      "##schlä": 4694,
      "verkauft": 4695,
      "Bedingungen": 4696,
      "##mögen": 4697,
      "Sekunde": 4698,
      "erforschen": 4699,
      "Insekten": 4700,
      "Haar": 4701,
      "drü": 4702,
      "iP": 4703,
      "tr": 4704,
      "##air": 4705,
      "##digen": 4706,
      "##wahr": 4707,
      "##ikal": 4708,
      "##änglich": 4709,
      "betrifft": 4710,
      "##gabe": 4711,
      "Jede": 4712,
      "Aufgaben": 4713,
      "Result": 4714,
      "Komplexität": 4715,
      "##ifornien": 4716,
      "Atmosphäre": 4717,
      "Col": 4718,
      "sü": 4719,
      "##laden": 4720,
      "##mel": 4721,
      "##üh": 4722,
      "##yl": 4723,
      "##opul": 4724,
      "begeist": 4725,
      "Teilchen": 4726,
      "##atell": 4727,
      "Fernsehen": 4728,
      "investieren": 4729,
      "veröffentlicht": 4730,
      "Unterstützung": 4731,
      "Abst": 4732,
      "End": 4733,
      "Fach": 4734,
      "Kir": 4735,
      "chem": 4736,
      "krit": 4737,
      "##gern": 4738,
      "##acken": 4739,
      "##vel": 4740,
      "##bank": 4741,
      "##recher": 4742,
      "alleine": 4743,
      "saß": 4744,
      "weiteres": 4745,
      "davor": 4746,
      "##okument": 4747,
      "solch": 4748,
      "2000": 4749,
      "Organisationen": 4750,
      "Klima": 4751,
      "verfüg": 4752,
      "bloß": 4753,
      "Ökosystem": 4754,
      "Brie": 4755,
      "Fe": 4756,
      "Nor": 4757,
      "Titel": 4758,
      "Train": 4759,
      "##gra": 4760,
      "letztes": 4761,
      "##frika": 4762,
      "##aktionen": 4763,
      "Babys": 4764,
      "Kontakt": 4765,
      "benötigen": 4766,
      "verursacht": 4767,
      "Deut": 4768,
      "Journ": 4769,
      "Nutzen": 4770,
      "vir": 4771,
      "##rum": 4772,
      "##erfen": 4773,
      "habt": 4774,
      "überzeugt": 4775,
      "absch": 4776,
      "Zug": 4777,
      "gewonnen": 4778,
      "beschreiben": 4779,
      "entwickelten": 4780,
      "##klärung": 4781,
      "As": 4782,
      "Bal": 4783,
      "Che": 4784,
      "City": 4785,
      "Fün": 4786,
      "Mc": 4787,
      "Zur": 4788,
      "ober": 4789,
      "##ling": 4790,
      "##sächlich": 4791,
      "##SA": 4792,
      "##omat": 4793,
      "klingt": 4794,
      "Auft": 4795,
      "##ährung": 4796,
      "##ektor": 4797,
      "##appen": 4798,
      "Untersuch": 4799,
      "Universums": 4800,
      "Drittel": 4801,
      "Null": 4802,
      "##zwischen": 4803,
      "kommunizieren": 4804,
      "Intelligenz": 4805,
      "Plastik": 4806,
      "Dir": 4807,
      "Ei": 4808,
      "Effekt": 4809,
      "Wal": 4810,
      "äußer": 4811,
      "##dingt": 4812,
      "einsch": 4813,
      "##industrie": 4814,
      "spür": 4815,
      "##zeichen": 4816,
      "Wü": 4817,
      "leider": 4818,
      "##imal": 4819,
      "##ou": 4820,
      "##mung": 4821,
      "##vollen": 4822,
      "##bereich": 4823,
      "##ami": 4824,
      "schafft": 4825,
      "##zubringen": 4826,
      "Einfach": 4827,
      "steigen": 4828,
      "##urcht": 4829,
      "Spiele": 4830,
      "Genom": 4831,
      "Schwier": 4832,
      "Zweitens": 4833,
      "Zusammenarbeit": 4834,
      "Gold": 4835,
      "##IDS": 4836,
      "Dun": 4837,
      "Fabr": 4838,
      "Tau": 4839,
      "nutz": 4840,
      "rel": 4841,
      "zentr": 4842,
      "umgehen": 4843,
      "Ans": 4844,
      "neuer": 4845,
      "Reich": 4846,
      "Landwirtschaft": 4847,
      "Forscher": 4848,
      "Jugend": 4849,
      "Eind": 4850,
      "Fein": 4851,
      "Fest": 4852,
      "Sehr": 4853,
      "##oge": 4854,
      "überzeugen": 4855,
      "Schmerz": 4856,
      "##pfel": 4857,
      "##schlagen": 4858,
      "##losen": 4859,
      "Spieler": 4860,
      "vermut": 4861,
      "unbedingt": 4862,
      "amerikanische": 4863,
      "Gesetze": 4864,
      "Fällen": 4865,
      "Hintergrund": 4866,
      "Basis": 4867,
      "Identität": 4868,
      "buchstä": 4869,
      "Graf": 4870,
      "##ost": 4871,
      "##markt": 4872,
      "Stär": 4873,
      "Erzähl": 4874,
      "##ppen": 4875,
      "herausgefunden": 4876,
      "Mex": 4877,
      "##ington": 4878,
      "##holt": 4879,
      "Modelle": 4880,
      "Jobs": 4881,
      "lautet": 4882,
      "wunderschön": 4883,
      "Vogel": 4884,
      "vermutlich": 4885,
      "Rom": 4886,
      "haupt": 4887,
      "tolle": 4888,
      "##ination": 4889,
      "##schau": 4890,
      "inst": 4891,
      "erfü": 4892,
      "Vertrauen": 4893,
      "Beste": 4894,
      "##rücke": 4895,
      "##artige": 4896,
      "Handy": 4897,
      "##indestens": 4898,
      "Herausforderungen": 4899,
      "##aurant": 4900,
      "##krebs": 4901,
      "mittler": 4902,
      "Elektr": 4903,
      "Ken": 4904,
      "Sein": 4905,
      "Sind": 4906,
      "krank": 4907,
      "##eils": 4908,
      "##onom": 4909,
      "##arb": 4910,
      "##arch": 4911,
      "dieselbe": 4912,
      "Stift": 4913,
      "durchgeführt": 4914,
      "##ford": 4915,
      "wiederum": 4916,
      "bewir": 4917,
      "außerdem": 4918,
      "vollkommen": 4919,
      "Objekte": 4920,
      "##eligi": 4921,
      "Wahrscheinlichkeit": 4922,
      "Fre": 4923,
      "Masse": 4924,
      "West": 4925,
      "##dit": 4926,
      "##frist": 4927,
      "##kn": 4928,
      "Stoff": 4929,
      "##osoph": 4930,
      "Zuerst": 4931,
      "##ndete": 4932,
      "Rede": 4933,
      "Problemen": 4934,
      "verbreitet": 4935,
      "Autor": 4936,
      "See": 4937,
      "##how": 4938,
      "unterschiedlichen": 4939,
      "Brot": 4940,
      "beschäftigt": 4941,
      "übertragen": 4942,
      "##impan": 4943,
      "Affen": 4944,
      "Sorgen": 4945,
      "Satell": 4946,
      "Vö": 4947,
      "Zwe": 4948,
      "grau": 4949,
      "##ettet": 4950,
      "antwor": 4951,
      "bezahlen": 4952,
      "##ames": 4953,
      "Statt": 4954,
      "spiel": 4955,
      "kons": 4956,
      "##steller": 4957,
      "besitzen": 4958,
      "Geräte": 4959,
      "drehen": 4960,
      "verdienen": 4961,
      "fragten": 4962,
      "Gründen": 4963,
      "Motor": 4964,
      "Mobil": 4965,
      "sorgen": 4966,
      "sitzt": 4967,
      "the": 4968,
      "usw": 4969,
      "##ash": 4970,
      "##rand": 4971,
      "Schimpan": 4972,
      "##halte": 4973,
      "stecken": 4974,
      "individu": 4975,
      "sicherlich": 4976,
      "gestalten": 4977,
      "##zusehen": 4978,
      "rechten": 4979,
      "Militär": 4980,
      "selber": 4981,
      "erklärt": 4982,
      "Beine": 4983,
      "Bett": 4984,
      "Hil": 4985,
      "Rat": 4986,
      "##gument": 4987,
      "##anzie": 4988,
      "wirst": 4989,
      "##anne": 4990,
      "geführt": 4991,
      "##änn": 4992,
      "Austr": 4993,
      "Bildschirm": 4994,
      "##richtung": 4995,
      "Großteil": 4996,
      "##führung": 4997,
      "benötigt": 4998,
      "Institutionen": 4999,
      "zufällig": 5000,
      "buchstäblich": 5001,
      "Tw": 5002,
      "bitten": 5003,
      "##fält": 5004,
      "zuk": 5005,
      "##ruf": 5006,
      "##rid": 5007,
      "##folgt": 5008,
      "erstes": 5009,
      "Milliarde": 5010,
      "150": 5011,
      "erwartet": 5012,
      "##oppelt": 5013,
      "##hältnis": 5014,
      "Präsident": 5015,
      "Zivilis": 5016,
      "AIDS": 5017,
      "Online": 5018,
      "mot": 5019,
      "öffentlich": 5020,
      "##ox": 5021,
      "sozusagen": 5022,
      "Proj": 5023,
      "repräsent": 5024,
      "##aster": 5025,
      "##spieler": 5026,
      "gelangen": 5027,
      "Colle": 5028,
      "schöne": 5029,
      "natürliche": 5030,
      "Mach": 5031,
      "sinn": 5032,
      "anderem": 5033,
      "##osaurier": 5034,
      "hinweg": 5035,
      "##istischen": 5036,
      "bestimmen": 5037,
      "##front": 5038,
      "Stein": 5039,
      "##platz": 5040,
      "getö": 5041,
      "Gewicht": 5042,
      "Videos": 5043,
      "##ächtnis": 5044,
      "Golf": 5045,
      "kümmern": 5046,
      "wissenschaftliche": 5047,
      "dürfen": 5048,
      "Fel": 5049,
      "Irak": 5050,
      "Neben": 5051,
      "Paar": 5052,
      "läch": 5053,
      "mindestens": 5054,
      "##iden": 5055,
      "##ügel": 5056,
      "##testen": 5057,
      "##tert": 5058,
      "werfen": 5059,
      "##ätsel": 5060,
      "##angt": 5061,
      "##fügen": 5062,
      "Bildungs": 5063,
      "##ice": 5064,
      "dreht": 5065,
      "hohen": 5066,
      "Strukturen": 5067,
      "modernen": 5068,
      "Leistung": 5069,
      "zukünft": 5070,
      "Kaffe": 5071,
      "rad": 5072,
      "derzeit": 5073,
      "##ördern": 5074,
      "##ungskraft": 5075,
      "##ada": 5076,
      "beteil": 5077,
      "##haben": 5078,
      "##hafte": 5079,
      "Kindheit": 5080,
      "Experten": 5081,
      "Themen": 5082,
      "Fische": 5083,
      "Lu": 5084,
      "Lern": 5085,
      "Mos": 5086,
      "hängt": 5087,
      "religi": 5088,
      "##sse": 5089,
      "##gl": 5090,
      "##mutter": 5091,
      "##ieß": 5092,
      "##emente": 5093,
      "aufw": 5094,
      "ausl": 5095,
      "auseinander": 5096,
      "daß": 5097,
      "Gefahr": 5098,
      "##otograf": 5099,
      "steckt": 5100,
      "verwir": 5101,
      "falsche": 5102,
      "erhält": 5103,
      "entwerfen": 5104,
      "erinnert": 5105,
      "Kalifornien": 5106,
      "Erinnerung": 5107,
      "Volk": 5108,
      "täglich": 5109,
      "Hey": 5110,
      "Sil": 5111,
      "tausende": 5112,
      "wächst": 5113,
      "##grö": 5114,
      "##iertes": 5115,
      "verlie": 5116,
      "Schwei": 5117,
      "##forschung": 5118,
      "##stellten": 5119,
      "lieber": 5120,
      "Falls": 5121,
      "Staat": 5122,
      "Restaurant": 5123,
      "öffentliche": 5124,
      "##herapie": 5125,
      ",\"": 5126,
      "Öffentlich": 5127,
      "##äbe": 5128,
      "Verkehr": 5129,
      "zurückzu": 5130,
      "##spielen": 5131,
      "interagieren": 5132,
      "verwandeln": 5133,
      "Filme": 5134,
      "Bildern": 5135,
      "Depress": 5136,
      "Besonder": 5137,
      "irgendwann": 5138,
      "Rahmen": 5139,
      "disk": 5140,
      "weder": 5141,
      "Änder": 5142,
      "##sinn": 5143,
      "##zeiten": 5144,
      "##ehnt": 5145,
      "verfolgen": 5146,
      "##ags": 5147,
      "stolz": 5148,
      "Fleisch": 5149,
      "interessanter": 5150,
      "Patient": 5151,
      "getötet": 5152,
      "Com": 5153,
      "Ecke": 5154,
      "Jungs": 5155,
      "Sei": 5156,
      "##ace": 5157,
      "##chern": 5158,
      "eröff": 5159,
      "scheinen": 5160,
      "aussch": 5161,
      "##ierende": 5162,
      "Außen": 5163,
      "##perimen": 5164,
      "Kontext": 5165,
      "glaubt": 5166,
      "Abs": 5167,
      "Brenn": 5168,
      "Glob": 5169,
      "einsetzen": 5170,
      "Führung": 5171,
      "perfekt": 5172,
      "testen": 5173,
      "priv": 5174,
      "überrascht": 5175,
      "Hung": 5176,
      "Iran": 5177,
      "fragt": 5178,
      "ignor": 5179,
      "laut": 5180,
      "##trag": 5181,
      "##gs": 5182,
      "##cy": 5183,
      "##fangen": 5184,
      "##ämpf": 5185,
      "##ieben": 5186,
      "##alte": 5187,
      "##urf": 5188,
      "##isierung": 5189,
      "weiss": 5190,
      "##achtung": 5191,
      "##klus": 5192,
      "Sep": 5193,
      "##ausenden": 5194,
      "Forschungs": 5195,
      "halte": 5196,
      "töten": 5197,
      "##aptop": 5198,
      "Kohlenstoff": 5199,
      "Bom": 5200,
      "Fett": 5201,
      "Liter": 5202,
      "Laptop": 5203,
      "Nation": 5204,
      "är": 5205,
      "##ail": 5206,
      "##mitt": 5207,
      "##ca": 5208,
      "##band": 5209,
      "##stu": 5210,
      "##anst": 5211,
      "##orien": 5212,
      "##gegeben": 5213,
      "mitten": 5214,
      "schlie": 5215,
      "Spekt": 5216,
      "##adem": 5217,
      "##geladen": 5218,
      "##aktiv": 5219,
      "##programm": 5220,
      "##teilung": 5221,
      "##alisiert": 5222,
      "##ibel": 5223,
      "Bauern": 5224,
      "Außerdem": 5225,
      "Quadrat": 5226,
      "##modell": 5227,
      "hauptsächlich": 5228,
      "Lang": 5229,
      "Maus": 5230,
      "Nutz": 5231,
      "Norden": 5232,
      "abl": 5233,
      "##uern": 5234,
      "##schm": 5235,
      "##auchen": 5236,
      "verr": 5237,
      "Dinosaurier": 5238,
      "##fahrt": 5239,
      "##aterial": 5240,
      "letztendlich": 5241,
      "Gegenteil": 5242,
      "England": 5243,
      "schwarz": 5244,
      "Galaxien": 5245,
      "mathemat": 5246,
      "Mechan": 5247,
      "Samm": 5248,
      "tue": 5249,
      "##iste": 5250,
      "##idem": 5251,
      "##port": 5252,
      "##bern": 5253,
      "verbracht": 5254,
      "schick": 5255,
      "Ausw": 5256,
      "Frem": 5257,
      "Klein": 5258,
      "wichtigste": 5259,
      "interessieren": 5260,
      "besseren": 5261,
      "möglicherweise": 5262,
      "vollständig": 5263,
      "Sprachen": 5264,
      "Wahrnehm": 5265,
      "Aktivität": 5266,
      "##gendetwas": 5267,
      "Heimat": 5268,
      "Lieblings": 5269,
      "Wettbewer": 5270,
      "Professor": 5271,
      "Meilen": 5272,
      "Ox": 5273,
      "Zimmer": 5274,
      "##swert": 5275,
      "##üten": 5276,
      "##stau": 5277,
      "schließen": 5278,
      "gegenseit": 5279,
      "##gewicht": 5280,
      "nächstes": 5281,
      "Bruder": 5282,
      "gefährlich": 5283,
      "Perspektive": 5284,
      "begeistert": 5285,
      "Log": 5286,
      "Ol": 5287,
      "Rich": 5288,
      "Vision": 5289,
      "##sh": 5290,
      "begeg": 5291,
      "Verw": 5292,
      "##quenzen": 5293,
      "finanzie": 5294,
      "basiert": 5295,
      "Elektro": 5296,
      "vorhanden": 5297,
      "September": 5298,
      "Asp": 5299,
      "Ed": 5300,
      "Hom": 5301,
      "deinen": 5302,
      "el": 5303,
      "frage": 5304,
      "sauber": 5305,
      "##ritten": 5306,
      "##macht": 5307,
      "einst": 5308,
      "eingesetzt": 5309,
      "##atoren": 5310,
      "Inhalt": 5311,
      "##ierenden": 5312,
      "##abl": 5313,
      "gehabt": 5314,
      "gesund": 5315,
      "gewisse": 5316,
      "Algorit": 5317,
      "Impf": 5318,
      "versuchten": 5319,
      "verhindern": 5320,
      "35": 5321,
      "Häuser": 5322,
      "##euz": 5323,
      "##ingu": 5324,
      "Zusch": 5325,
      "##richtungen": 5326,
      "schlimmer": 5327,
      "finanz": 5328,
      "Augenblick": 5329,
      "Bras": 5330,
      "Metap": 5331,
      "Folge": 5332,
      "Stress": 5333,
      "Israel": 5334,
      "kreativ": 5335,
      "Journal": 5336,
      "teuer": 5337,
      "zunehmen": 5338,
      "##pft": 5339,
      "##bliche": 5340,
      "##etrie": 5341,
      "angew": 5342,
      "##wood": 5343,
      "erzähle": 5344,
      "Gewebe": 5345,
      "Lied": 5346,
      "hohe": 5347,
      "starb": 5348,
      "normalen": 5349,
      "Temp": 5350,
      "Mission": 5351,
      "Konflikt": 5352,
      "virtu": 5353,
      "Con": 5354,
      "Deb": 5355,
      "Fig": 5356,
      "Gar": 5357,
      "MI": 5358,
      "Mem": 5359,
      "bieten": 5360,
      "##hmen": 5361,
      "##eucht": 5362,
      "##amin": 5363,
      "Schei": 5364,
      "Verstand": 5365,
      "##reite": 5366,
      "##spiels": 5367,
      "stelle": 5368,
      "##ändert": 5369,
      "##wegs": 5370,
      "wunderbare": 5371,
      "Betr": 5372,
      "bemerkt": 5373,
      "Verletz": 5374,
      "Moleküle": 5375,
      "praktisch": 5376,
      "Nerven": 5377,
      "Gespräch": 5378,
      "Öffentlichkeit": 5379,
      "Haufen": 5380,
      "UN": 5381,
      "Zä": 5382,
      "gäbe": 5383,
      "meist": 5384,
      "##sweise": 5385,
      "##blichkeit": 5386,
      "##ara": 5387,
      "##ckten": 5388,
      "##leg": 5389,
      "anges": 5390,
      "durchschnitt": 5391,
      "Grenze": 5392,
      "Sozial": 5393,
      "Landschaft": 5394,
      "arbeiteten": 5395,
      "irgendetwas": 5396,
      "Komm": 5397,
      "entworfen": 5398,
      "absol": 5399,
      "unterschiedlich": 5400,
      "##ails": 5401,
      "Radio": 5402,
      "Diagramm": 5403,
      "dauert": 5404,
      "gewisser": 5405,
      "##schule": 5406,
      "##maschine": 5407,
      "Erkenntnis": 5408,
      "Ama": 5409,
      "Ehe": 5410,
      "Händen": 5411,
      "oh": 5412,
      "##asste": 5413,
      "erster": 5414,
      "aufs": 5415,
      "schönen": 5416,
      "##omit": 5417,
      "Innen": 5418,
      "Anw": 5419,
      "##riz": 5420,
      "Wash": 5421,
      "##verständ": 5422,
      "Steuer": 5423,
      "Phys": 5424,
      "Schwester": 5425,
      "##kehren": 5426,
      "unterscheiden": 5427,
      "holen": 5428,
      "verantwortlich": 5429,
      "hunderte": 5430,
      "kennt": 5431,
      "neg": 5432,
      "nannte": 5433,
      "##nimmt": 5434,
      "##afrika": 5435,
      "##ügen": 5436,
      "erl": 5437,
      "ausgeb": 5438,
      "Stimmen": 5439,
      "Erleb": 5440,
      "wenigen": 5441,
      "benutz": 5442,
      "meistens": 5443,
      "Folgendes": 5444,
      "Katastrop": 5445,
      "gross": 5446,
      "schaute": 5447,
      "Laufe": 5448,
      "Defin": 5449,
      "NA": 5450,
      "Sens": 5451,
      "Tre": 5452,
      "Wesent": 5453,
      "fiel": 5454,
      "##ils": 5455,
      "##fragen": 5456,
      "##eiger": 5457,
      "eint": 5458,
      "##unken": 5459,
      "herr": 5460,
      "Zeitalter": 5461,
      "Chir": 5462,
      "##ädt": 5463,
      "##problem": 5464,
      "Experimente": 5465,
      "Trend": 5466,
      "kurze": 5467,
      "sexu": 5468,
      "Laden": 5469,
      "Opt": 5470,
      "rück": 5471,
      "##ühr": 5472,
      "einiger": 5473,
      "##igsten": 5474,
      "schien": 5475,
      "##agement": 5476,
      "##zelle": 5477,
      "##ulen": 5478,
      "Beob": 5479,
      "Beweis": 5480,
      "##ologisch": 5481,
      "##echtigkeit": 5482,
      "Gedanke": 5483,
      "Krise": 5484,
      "linken": 5485,
      "präsent": 5486,
      "lebte": 5487,
      "##mäßig": 5488,
      "stärker": 5489,
      "beantworten": 5490,
      "Satelliten": 5491,
      "Washington": 5492,
      "Fehl": 5493,
      "Komb": 5494,
      "Wellen": 5495,
      "kap": 5496,
      "setzt": 5497,
      "##zy": 5498,
      "##bahn": 5499,
      "##inken": 5500,
      "##ierer": 5501,
      "somit": 5502,
      "##cks": 5503,
      "##lege": 5504,
      "nochmal": 5505,
      "gehalten": 5506,
      "müsste": 5507,
      "halb": 5508,
      "##zusetzen": 5509,
      "##ohnt": 5510,
      "Tests": 5511,
      "Schimpansen": 5512,
      "Richard": 5513,
      "Empf": 5514,
      "Gi": 5515,
      "Mund": 5516,
      "Mütter": 5517,
      "Rätsel": 5518,
      "wichtigen": 5519,
      "##dimension": 5520,
      "aufhören": 5521,
      "angesehen": 5522,
      "könnt": 5523,
      "Schne": 5524,
      "##hlung": 5525,
      "##eilt": 5526,
      "demokrat": 5527,
      "Verbr": 5528,
      "##ulieren": 5529,
      "ließen": 5530,
      "Minute": 5531,
      "##nost": 5532,
      "Lebe": 5533,
      "hoffentlich": 5534,
      "Bewegungen": 5535,
      "Andere": 5536,
      "regel": 5537,
      "entstanden": 5538,
      "##vention": 5539,
      "entspricht": 5540,
      "Normal": 5541,
      "Sitz": 5542,
      "kom": 5543,
      "##iag": 5544,
      "##ielle": 5545,
      "aufgew": 5546,
      "##agiert": 5547,
      "Dass": 5548,
      "Spiegel": 5549,
      "abhäng": 5550,
      "eigent": 5551,
      "Franc": 5552,
      "##immung": 5553,
      "bekamen": 5554,
      "Obwohl": 5555,
      "allerdings": 5556,
      "Eigentlich": 5557,
      "##swesen": 5558,
      "##wärt": 5559,
      "Trotz": 5560,
      "Irgend": 5561,
      "Individuen": 5562,
      "Körpers": 5563,
      "Twitter": 5564,
      "College": 5565,
      "Bein": 5566,
      "Bri": 5567,
      "Etwas": 5568,
      "Gas": 5569,
      "fotograf": 5570,
      "##lös": 5571,
      "##ietet": 5572,
      "##unk": 5573,
      "##itieren": 5574,
      "vergleichen": 5575,
      "schm": 5576,
      "##ogn": 5577,
      "klass": 5578,
      "##heorie": 5579,
      "amp": 5580,
      "Ihres": 5581,
      "Klang": 5582,
      "##pret": 5583,
      "Gegensatz": 5584,
      "erkannte": 5585,
      "erlebt": 5586,
      "Toil": 5587,
      "engl": 5588,
      "total": 5589,
      "effektiv": 5590,
      "Website": 5591,
      "Ganze": 5592,
      "Jul": 5593,
      "Nationen": 5594,
      "Tie": 5595,
      "Tausende": 5596,
      "ag": 5597,
      "kauf": 5598,
      "tausend": 5599,
      "zog": 5600,
      "##ahe": 5601,
      "##eting": 5602,
      "verf": 5603,
      "ausb": 5604,
      "ausgel": 5605,
      "##reien": 5606,
      "Orig": 5607,
      "dennoch": 5608,
      "Quanten": 5609,
      "Code": 5610,
      "hoffen": 5611,
      "Gleiche": 5612,
      "Politiker": 5613,
      "Medikament": 5614,
      "##fähigkeit": 5615,
      "Eindruck": 5616,
      "Akt": 5617,
      "Dab": 5618,
      "Kräfte": 5619,
      "dran": 5620,
      "##fische": 5621,
      "##MS": 5622,
      "##test": 5623,
      "##usion": 5624,
      "Insel": 5625,
      "heran": 5626,
      "hergestellt": 5627,
      "Weltraum": 5628,
      "##ähren": 5629,
      "genauer": 5630,
      "Kohle": 5631,
      "Mail": 5632,
      "schlechter": 5633,
      "Folgen": 5634,
      "Welche": 5635,
      "vorhers": 5636,
      "##gruppe": 5637,
      "Zuhause": 5638,
      "Fle": 5639,
      "Pfl": 5640,
      "Pfer": 5641,
      "nutzt": 5642,
      "roten": 5643,
      "##meister": 5644,
      "##pte": 5645,
      "##yse": 5646,
      "aufger": 5647,
      "##ischt": 5648,
      "##utze": 5649,
      "##igend": 5650,
      "abge": 5651,
      "Zucker": 5652,
      "entwickelte": 5653,
      "musst": 5654,
      "##ständen": 5655,
      "gestern": 5656,
      "##echseln": 5657,
      "Rechte": 5658,
      "stammt": 5659,
      "##pagne": 5660,
      "Gehirne": 5661,
      "Brasilien": 5662,
      "Dabei": 5663,
      "45": 5664,
      "Bon": 5665,
      "Fakten": 5666,
      "Hyp": 5667,
      "Ter": 5668,
      "##hers": 5669,
      "##asi": 5670,
      "##schrift": 5671,
      "##ologe": 5672,
      "Verg": 5673,
      "##oth": 5674,
      "##edig": 5675,
      "Gras": 5676,
      "gering": 5677,
      "brauchten": 5678,
      "gelesen": 5679,
      "Abschluss": 5680,
      "Mitarbeiter": 5681,
      "##ica": 5682,
      "##riffe": 5683,
      "erscheinen": 5684,
      "reduzieren": 5685,
      "Entdeckung": 5686,
      "99": 5687,
      "Blau": 5688,
      "Pak": 5689,
      "Tor": 5690,
      "fäh": 5691,
      "lernt": 5692,
      "trin": 5693,
      "zahlen": 5694,
      "##gyp": 5695,
      "##vard": 5696,
      "aufbauen": 5697,
      "schlau": 5698,
      "##rechte": 5699,
      "umge": 5700,
      "##issenschaft": 5701,
      "vieler": 5702,
      "##rippe": 5703,
      "programm": 5704,
      "##hmus": 5705,
      "##ordnung": 5706,
      "starten": 5707,
      "brachten": 5708,
      "persönlich": 5709,
      "Methoden": 5710,
      "analys": 5711,
      "Australien": 5712,
      "Elef": 5713,
      "Niger": 5714,
      "Show": 5715,
      "Tun": 5716,
      "Zell": 5717,
      "echten": 5718,
      "fördern": 5719,
      "männ": 5720,
      "##kan": 5721,
      "erfinden": 5722,
      "wieso": 5723,
      "##erne": 5724,
      "##riften": 5725,
      "Wieso": 5726,
      "welchen": 5727,
      "brauche": 5728,
      "beschlossen": 5729,
      "Gesundheitswesen": 5730,
      "Staats": 5731,
      "starke": 5732,
      "normale": 5733,
      "##äuse": 5734,
      "Kontin": 5735,
      "verschwinden": 5736,
      "Atem": 5737,
      "Garten": 5738,
      "Nan": 5739,
      "##rasch": 5740,
      "##andt": 5741,
      "##ogar": 5742,
      "abgel": 5743,
      "##gewalt": 5744,
      "schlagen": 5745,
      "Jeden": 5746,
      "##skop": 5747,
      "Naja": 5748,
      "beinhal": 5749,
      "Elektriz": 5750,
      "Prototyp": 5751,
      "integr": 5752,
      "bezahlt": 5753,
      "relativ": 5754,
      "diskut": 5755,
      ".,": 5756,
      "Jemand": 5757,
      "Tanz": 5758,
      "mass": 5759,
      "rei": 5760,
      "trägt": 5761,
      "##ron": 5762,
      "eindeut": 5763,
      "Ansicht": 5764,
      "##osm": 5765,
      "##ruption": 5766,
      "##erseits": 5767,
      "##bares": 5768,
      "##artigen": 5769,
      "Flag": 5770,
      "##akte": 5771,
      "Nachdem": 5772,
      "wahre": 5773,
      "Elemente": 5774,
      "Gemeinden": 5775,
      "Atom": 5776,
      "Hinsicht": 5777,
      "Vorteil": 5778,
      "Linien": 5779,
      "##zentrum": 5780,
      "Mikroben": 5781,
      "Milch": 5782,
      "reichen": 5783,
      "verbrachte": 5784,
      "Wohlstand": 5785,
      "Arbeiten": 5786,
      "Epidem": 5787,
      "lustig": 5788,
      "Lebewesen": 5789,
      "Sl": 5790,
      "körper": 5791,
      "zeit": 5792,
      "zunächst": 5793,
      "##ffer": 5794,
      "verbreiten": 5795,
      "gestorben": 5796,
      "vermittel": 5797,
      "Netzwerke": 5798,
      "Organismen": 5799,
      "##ografie": 5800,
      "##elev": 5801,
      "studieren": 5802,
      "identif": 5803,
      "Grafik": 5804,
      "Zuschauer": 5805,
      "abhängig": 5806,
      "Francis": 5807,
      "Elektrizität": 5808,
      "Ap": 5809,
      "Aspekt": 5810,
      "Lachen": 5811,
      "las": 5812,
      "##netz": 5813,
      "##mark": 5814,
      "##by": 5815,
      "##aust": 5816,
      "inf": 5817,
      "School": 5818,
      "Verhältnis": 5819,
      "##reisen": 5820,
      "vorber": 5821,
      "gehören": 5822,
      "##indert": 5823,
      "nieder": 5824,
      "beweg": 5825,
      "behalten": 5826,
      "Interessen": 5827,
      "Buchsta": 5828,
      "Generationen": 5829,
      "Kapit": 5830,
      "Islam": 5831,
      "schwarze": 5832,
      "Details": 5833,
      "##amerika": 5834,
      "Hote": 5835,
      "fuhr": 5836,
      "Ägyp": 5837,
      "##res": 5838,
      "##sätzlich": 5839,
      "##ates": 5840,
      "##üte": 5841,
      "wobei": 5842,
      "##werden": 5843,
      "Ausmaß": 5844,
      "##schland": 5845,
      "##fordert": 5846,
      "kurzem": 5847,
      "Korruption": 5848,
      "Post": 5849,
      "Solar": 5850,
      "Viren": 5851,
      "wissenschaftlichen": 5852,
      "kurzen": 5853,
      "##öpfe": 5854,
      "Operation": 5855,
      "nötig": 5856,
      "Diskussion": 5857,
      "Fünf": 5858,
      "3D": 5859,
      "Les": 5860,
      "Mu": 5861,
      "Ober": 5862,
      "Persön": 5863,
      "Wik": 5864,
      "Wetter": 5865,
      "fängt": 5866,
      "zahl": 5867,
      "##hi": 5868,
      "##jahr": 5869,
      "geändert": 5870,
      "entgegen": 5871,
      "Existenz": 5872,
      "Tex": 5873,
      "##kosten": 5874,
      "Theater": 5875,
      "halbe": 5876,
      "Schnitt": 5877,
      "medizinische": 5878,
      "kürzlich": 5879,
      "Batter": 5880,
      "Fischer": 5881,
      "en": 5882,
      "la": 5883,
      "par": 5884,
      "passt": 5885,
      "rie": 5886,
      "##sb": 5887,
      "##dlichen": 5888,
      "##von": 5889,
      "##auern": 5890,
      "vergangen": 5891,
      "Stau": 5892,
      "##ike": 5893,
      "##rauchen": 5894,
      "Geschlecht": 5895,
      "Beim": 5896,
      "##antas": 5897,
      "Umfeld": 5898,
      "Klin": 5899,
      "Streit": 5900,
      "##möglichkeiten": 5901,
      "lebten": 5902,
      "optim": 5903,
      "Hallo": 5904,
      "blieb": 5905,
      "600": 5906,
      "?“": 5907,
      "Emot": 5908,
      "meiste": 5909,
      "zählen": 5910,
      "##tin": 5911,
      "##up": 5912,
      "##hört": 5913,
      "##wach": 5914,
      "##ischem": 5915,
      "##uman": 5916,
      "Einstein": 5917,
      "Ange": 5918,
      "stop": 5919,
      "Beweise": 5920,
      "begrenz": 5921,
      "Vorfahren": 5922,
      "reicht": 5923,
      "geschickt": 5924,
      "##merzen": 5925,
      "Arbeitspl": 5926,
      "Weile": 5927,
      "beschleun": 5928,
      "beobachtet": 5929,
      "Kapital": 5930,
      "Erkrank": 5931,
      "beschäftigen": 5932,
      "definieren": 5933,
      "natürlichen": 5934,
      "Träume": 5935,
      "aufregend": 5936,
      "zugänglich": 5937,
      "drüben": 5938,
      "Roll": 5939,
      "eure": 5940,
      "##ld": 5941,
      "##0ern": 5942,
      "##mord": 5943,
      "##fil": 5944,
      "##wagen": 5945,
      "##oment": 5946,
      "Armen": 5947,
      "entsprechen": 5948,
      "##hek": 5949,
      "##zieht": 5950,
      "beschloss": 5951,
      "##aturen": 5952,
      "##gehend": 5953,
      "##plant": 5954,
      "Unternehmer": 5955,
      "morgens": 5956,
      "Geräusch": 5957,
      "Emotionen": 5958,
      "Dach": 5959,
      "Paul": 5960,
      "komb": 5961,
      "##tial": 5962,
      "##mon": 5963,
      "##dru": 5964,
      "##ancen": 5965,
      "bewer": 5966,
      "##umb": 5967,
      "Erklärung": 5968,
      "darstellen": 5969,
      "steigt": 5970,
      "##ffe": 5971,
      "##bliot": 5972,
      "klin": 5973,
      "##estern": 5974,
      "Gedicht": 5975,
      "erkennt": 5976,
      "Besitz": 5977,
      "sprachen": 5978,
      "komplexe": 5979,
      "Doktor": 5980,
      "Fälle": 5981,
      "zerstören": 5982,
      "zerstört": 5983,
      "Maßstab": 5984,
      "Jahrzehnt": 5985,
      "##verbrauch": 5986,
      "grundlegende": 5987,
      "Entwicklungsländern": 5988,
      "Deutschland": 5989,
      "Wahrnehmung": 5990,
      "Russ": 5991,
      "Sam": 5992,
      "dram": 5993,
      "histor": 5994,
      "leu": 5995,
      "##oßen": 5996,
      "##muster": 5997,
      "##ones": 5998,
      "zuzu": 5999,
      "##ember": 6000,
      "##ehnen": 6001,
      "ungewöhn": 6002,
      "erschein": 6003,
      "angeb": 6004,
      "anwenden": 6005,
      "Schatten": 6006,
      "spannen": 6007,
      "##olly": 6008,
      "##klen": 6009,
      "verbindet": 6010,
      "Entfern": 6011,
      "experimen": 6012,
      "getr": 6013,
      "drin": 6014,
      "Planet": 6015,
      "##linge": 6016,
      "DNS": 6017,
      "Architekten": 6018,
      "traditionellen": 6019,
      "Zitat": 6020,
      "##spielsweise": 6021,
      "erscheint": 6022,
      "Echt": 6023,
      "ruh": 6024,
      "setzte": 6025,
      "wuchs": 6026,
      "##ham": 6027,
      "##frau": 6028,
      "##öd": 6029,
      "##onstr": 6030,
      "Start": 6031,
      "Verd": 6032,
      "deswegen": 6033,
      "##ätigkeit": 6034,
      "allgem": 6035,
      "##rufen": 6036,
      "Konse": 6037,
      "verwende": 6038,
      "##eicher": 6039,
      "Berechn": 6040,
      "folgt": 6041,
      "ausgest": 6042,
      "Teles": 6043,
      "übrig": 6044,
      "enorme": 6045,
      "Nachbarn": 6046,
      "Strategie": 6047,
      "Komment": 6048,
      "##bewegung": 6049,
      "Times": 6050,
      "nützlich": 6051,
      "verfügbar": 6052,
      "MIT": 6053,
      "Bahn": 6054,
      "Cent": 6055,
      "Ill": 6056,
      "Mess": 6057,
      "Sob": 6058,
      "Tom": 6059,
      "bat": 6060,
      "se": 6061,
      "##zon": 6062,
      "##ax": 6063,
      "##itation": 6064,
      "##endung": 6065,
      "##leist": 6066,
      "Quelle": 6067,
      "##umenten": 6068,
      "Freundin": 6069,
      "Kreuz": 6070,
      "aufzubauen": 6071,
      "##wirkung": 6072,
      "Konflik": 6073,
      "Kerl": 6074,
      "Schwierigkeiten": 6075,
      "Mexiko": 6076,
      "spielte": 6077,
      "And": 6078,
      "Kurs": 6079,
      "Leg": 6080,
      "On": 6081,
      "Pingu": 6082,
      "ch": 6083,
      "fern": 6084,
      "##IP": 6085,
      "##geber": 6086,
      "unge": 6087,
      "erstellt": 6088,
      "aufgebaut": 6089,
      "annehmen": 6090,
      "##oler": 6091,
      "##ession": 6092,
      "##vert": 6093,
      "Werbung": 6094,
      "exp": 6095,
      "##nahm": 6096,
      "Interaktion": 6097,
      "Fahrrad": 6098,
      "Größen": 6099,
      "Harvard": 6100,
      "Kaffee": 6101,
      "-,": 6102,
      "Ka": 6103,
      "Seine": 6104,
      "Viertel": 6105,
      "leid": 6106,
      "##talien": 6107,
      "##osen": 6108,
      "##passt": 6109,
      "##steigen": 6110,
      "verhalten": 6111,
      "umgeben": 6112,
      "##edia": 6113,
      "Spezi": 6114,
      "##äne": 6115,
      "Auff": 6116,
      "gewissen": 6117,
      "Voraus": 6118,
      "Teen": 6119,
      "schlechten": 6120,
      "ähnliche": 6121,
      "Bereichen": 6122,
      "Parad": 6123,
      "worüber": 6124,
      "Chemie": 6125,
      "##ographie": 6126,
      "wesentlich": 6127,
      "erwähnt": 6128,
      ".«": 6129,
      "Hei": 6130,
      "Lager": 6131,
      "Zauber": 6132,
      "beit": 6133,
      "##hü": 6134,
      "##heben": 6135,
      "##üge": 6136,
      "außen": 6137,
      "schaff": 6138,
      "Anrei": 6139,
      "Bestand": 6140,
      "müssten": 6141,
      "##räumen": 6142,
      "Vorstell": 6143,
      "##elles": 6144,
      "zieht": 6145,
      "heißen": 6146,
      "solcher": 6147,
      "##stren": 6148,
      "World": 6149,
      "Urs": 6150,
      "Kulturen": 6151,
      "Bereiche": 6152,
      "Präsent": 6153,
      "Situationen": 6154,
      "##spruch": 6155,
      "quasi": 6156,
      "##imensionen": 6157,
      "Zwischen": 6158,
      "Arbeiter": 6159,
      "Signal": 6160,
      "##sprache": 6161,
      "Zweck": 6162,
      "motiv": 6163,
      "vermitteln": 6164,
      "Hu": 6165,
      "Jan": 6166,
      "Rh": 6167,
      "Rot": 6168,
      "Rake": 6169,
      "Sogar": 6170,
      "geist": 6171,
      "ide": 6172,
      "miss": 6173,
      "##krank": 6174,
      "##enter": 6175,
      "##ender": 6176,
      "##enkt": 6177,
      "unend": 6178,
      "##igem": 6179,
      "kannte": 6180,
      "stabil": 6181,
      "Gewinn": 6182,
      "Student": 6183,
      "formen": 6184,
      "Sicherheits": 6185,
      "##versorgung": 6186,
      "##züglich": 6187,
      "enorm": 6188,
      "ergibt": 6189,
      "##wissenschaft": 6190,
      "Erwachsenen": 6191,
      "Zivilisation": 6192,
      "Cy": 6193,
      "Kom": 6194,
      "Open": 6195,
      "Tonnen": 6196,
      "nerv": 6197,
      "rot": 6198,
      "rief": 6199,
      "treten": 6200,
      "##lad": 6201,
      "##ied": 6202,
      "zut": 6203,
      "schätzen": 6204,
      "##recken": 6205,
      "Schle": 6206,
      "Schlei": 6207,
      "still": 6208,
      "##räume": 6209,
      "real": 6210,
      "zusätz": 6211,
      "Platt": 6212,
      "industrie": 6213,
      "Seele": 6214,
      "höre": 6215,
      "entdeckte": 6216,
      "Neues": 6217,
      "wirtschaftlichen": 6218,
      "inspiriert": 6219,
      "Wolken": 6220,
      "Vögel": 6221,
      "Brü": 6222,
      "Merk": 6223,
      "Riesen": 6224,
      "Vern": 6225,
      "ille": 6226,
      "min": 6227,
      "##ült": 6228,
      "##vol": 6229,
      "##int": 6230,
      "##ston": 6231,
      "##ehlt": 6232,
      "ersetzen": 6233,
      "Einheit": 6234,
      "Wissens": 6235,
      "langweil": 6236,
      "Handel": 6237,
      "Element": 6238,
      "Großmutter": 6239,
      "Stufe": 6240,
      "Damals": 6241,
      "verbessert": 6242,
      "Führungs": 6243,
      "Erwart": 6244,
      "gebeten": 6245,
      "Würde": 6246,
      "schrecklich": 6247,
      "Geheimnis": 6248,
      "tiefer": 6249,
      "fähig": 6250,
      "Buchstaben": 6251,
      "Bem": 6252,
      "Lungen": 6253,
      "Trag": 6254,
      "Tradition": 6255,
      "Wein": 6256,
      "Zahn": 6257,
      "##ube": 6258,
      "##azi": 6259,
      "##besch": 6260,
      "##ino": 6261,
      "##aser": 6262,
      "##aria": 6263,
      "ermut": 6264,
      "##ets": 6265,
      "ausger": 6266,
      "##ikalien": 6267,
      "vorne": 6268,
      "Kongress": 6269,
      "Flücht": 6270,
      "gelöst": 6271,
      "##andert": 6272,
      "##icro": 6273,
      "vermeiden": 6274,
      "Betrach": 6275,
      "stattdessen": 6276,
      "Verlust": 6277,
      "untersucht": 6278,
      "beinahe": 6279,
      "Auswahl": 6280,
      "Definition": 6281,
      "Bund": 6282,
      "Gro": 6283,
      "Kö": 6284,
      "dur": 6285,
      "nu": 6286,
      "poten": 6287,
      "##rieren": 6288,
      "##karte": 6289,
      "##weich": 6290,
      "##ichter": 6291,
      "##ehung": 6292,
      "ang": 6293,
      "##ago": 6294,
      "überprü": 6295,
      "Ungleich": 6296,
      "entstand": 6297,
      "hinten": 6298,
      "gefangen": 6299,
      "menschlicher": 6300,
      "Anteil": 6301,
      "welchem": 6302,
      "persönlichen": 6303,
      "##besonder": 6304,
      "Risiken": 6305,
      "Früh": 6306,
      "unabhängig": 6307,
      "##verständlich": 6308,
      "Brücke": 6309,
      "Dat": 6310,
      "Skl": 6311,
      "Wurz": 6312,
      "dom": 6313,
      "##nehmer": 6314,
      "##zig": 6315,
      "##ackt": 6316,
      "##por": 6317,
      "##pol": 6318,
      "##jemand": 6319,
      "##onische": 6320,
      "##legt": 6321,
      "##lekul": 6322,
      "##örungen": 6323,
      "Rechen": 6324,
      "besuchen": 6325,
      "##samkeit": 6326,
      "langer": 6327,
      "langfrist": 6328,
      "##qualität": 6329,
      "schwimmen": 6330,
      "Verbesser": 6331,
      "Interview": 6332,
      "Bedroh": 6333,
      "Pfund": 6334,
      "persönliche": 6335,
      "vergrö": 6336,
      "Passw": 6337,
      "belieb": 6338,
      "Anwendung": 6339,
      "westlichen": 6340,
      "notwendig": 6341,
      "Leider": 6342,
      "Tour": 6343,
      "mult": 6344,
      "sy": 6345,
      "singen": 6346,
      "##fir": 6347,
      "##antes": 6348,
      "verteilt": 6349,
      "##euert": 6350,
      "##weile": 6351,
      "herein": 6352,
      "gehol": 6353,
      "versteht": 6354,
      "##fernen": 6355,
      "Schuld": 6356,
      "Anderson": 6357,
      "Belohn": 6358,
      "unterstützt": 6359,
      "Magaz": 6360,
      "Gutes": 6361,
      "dunkle": 6362,
      "Erinnerungen": 6363,
      "Helden": 6364,
      "ursprüng": 6365,
      "Wesentlichen": 6366,
      "##ediglich": 6367,
      "##besondere": 6368,
      "Fliegen": 6369,
      "Gehen": 6370,
      "Hem": 6371,
      "Moral": 6372,
      "Paten": 6373,
      "Wild": 6374,
      "Willen": 6375,
      "effizien": 6376,
      "mut": 6377,
      "wes": 6378,
      "##ael": 6379,
      "##heim": 6380,
      "##kreis": 6381,
      "##atische": 6382,
      "##elben": 6383,
      "##raht": 6384,
      "gegrü": 6385,
      "Stock": 6386,
      "Schäd": 6387,
      "##ätter": 6388,
      "Gegend": 6389,
      "standen": 6390,
      "Ung": 6391,
      "##gerät": 6392,
      "Chic": 6393,
      "Weiter": 6394,
      "seitdem": 6395,
      "besondere": 6396,
      "Stuhl": 6397,
      "schwieriger": 6398,
      "Komponen": 6399,
      "##äusern": 6400,
      "erstaunliche": 6401,
      "##sprung": 6402,
      "kümmer": 6403,
      "Nieder": 6404,
      "Philosoph": 6405,
      "fantastisch": 6406,
      "Stammzellen": 6407,
      "23": 6408,
      "Air": 6409,
      "Danach": 6410,
      "hü": 6411,
      "##ton": 6412,
      "##ozi": 6413,
      "##mehr": 6414,
      "##üst": 6415,
      "##bas": 6416,
      "##bilder": 6417,
      "##wechsel": 6418,
      "##star": 6419,
      "##ird": 6420,
      "##euern": 6421,
      "##llektiv": 6422,
      "##omatisch": 6423,
      "Anim": 6424,
      "hierher": 6425,
      "##flug": 6426,
      "Chip": 6427,
      "verstehe": 6428,
      "##issionen": 6429,
      "schlafen": 6430,
      "##ifiz": 6431,
      "Süden": 6432,
      "form": 6433,
      "berührt": 6434,
      "##uldig": 6435,
      "blauen": 6436,
      "digitalen": 6437,
      "Galaxie": 6438,
      "bauten": 6439,
      "Brief": 6440,
      "Stärke": 6441,
      "beinhaltet": 6442,
      "75": 6443,
      "Dutzen": 6444,
      "Eier": 6445,
      "La": 6446,
      "Pan": 6447,
      "Prim": 6448,
      "Teu": 6449,
      "Tri": 6450,
      "bietet": 6451,
      "fundament": 6452,
      "##gibt": 6453,
      "##nungs": 6454,
      "eingesch": 6455,
      "##hrop": 6456,
      "##denkt": 6457,
      "beweisen": 6458,
      "Schm": 6459,
      "##reibung": 6460,
      "voran": 6461,
      "meinte": 6462,
      "spät": 6463,
      "beschrieben": 6464,
      "Wow": 6465,
      "feststellen": 6466,
      "erhielt": 6467,
      "Respekt": 6468,
      "neur": 6469,
      "internationalen": 6470,
      "Wüste": 6471,
      "Kombination": 6472,
      "eindeutig": 6473,
      "Echtzeit": 6474,
      "Ac": 6475,
      "Ass": 6476,
      "Astr": 6477,
      "James": 6478,
      "Krä": 6479,
      "Kate": 6480,
      "Richtig": 6481,
      "Tumor": 6482,
      "Wh": 6483,
      "You": 6484,
      "lediglich": 6485,
      "##teile": 6486,
      "##bieten": 6487,
      "innov": 6488,
      "##gefü": 6489,
      "aufnehmen": 6490,
      "vorzustellen": 6491,
      "George": 6492,
      "darunter": 6493,
      "##örer": 6494,
      "##ulpt": 6495,
      "genü": 6496,
      "enthält": 6497,
      "stehe": 6498,
      "konstru": 6499,
      "kollektiv": 6500,
      "besagt": 6501,
      "lebens": 6502,
      "##ammelt": 6503,
      "##olitik": 6504,
      "##kelett": 6505,
      "Kampagne": 6506,
      "Darum": 6507,
      "Bauch": 6508,
      "grün": 6509,
      "##drückt": 6510,
      "##fähig": 6511,
      "Chemikalien": 6512,
      "Geistes": 6513,
      "Symbol": 6514,
      "wirtschaftliche": 6515,
      "##imeter": 6516,
      "Potential": 6517,
      "Instrument": 6518,
      "Bedürfnisse": 6519,
      "Fabrik": 6520,
      "Erlebnis": 6521,
      "22": 6522,
      "Gre": 6523,
      "Lasst": 6524,
      "Pri": 6525,
      "dün": 6526,
      "furcht": 6527,
      "seid": 6528,
      "sucht": 6529,
      "trag": 6530,
      "##blichen": 6531,
      "##artet": 6532,
      "##orient": 6533,
      "innen": 6534,
      "##reif": 6535,
      "Einen": 6536,
      "sparen": 6537,
      "##angs": 6538,
      "entfernen": 6539,
      "steuern": 6540,
      "liefern": 6541,
      "##vermögen": 6542,
      "armen": 6543,
      "Aufnahme": 6544,
      "Herren": 6545,
      "Lebenser": 6546,
      "Malaria": 6547,
      "Gerechtigkeit": 6548,
      "##ängst": 6549,
      "Rock": 6550,
      "##ida": 6551,
      "##ließend": 6552,
      "Bibliot": 6553,
      "Kriegs": 6554,
      "Ozeane": 6555,
      "lokalen": 6556,
      "##ippen": 6557,
      "etc": 6558,
      "faszinierend": 6559,
      "vertraut": 6560,
      "Hilfs": 6561,
      "Teleskop": 6562,
      "Dan": 6563,
      "Ke": 6564,
      "Trau": 6565,
      "Vier": 6566,
      "Wäl": 6567,
      "stet": 6568,
      "##äfte": 6569,
      "##einhalb": 6570,
      "##atik": 6571,
      "übernehmen": 6572,
      "##weite": 6573,
      "##rustr": 6574,
      "durchs": 6575,
      "gesellschaft": 6576,
      "##werfen": 6577,
      "Zufall": 6578,
      "weiterer": 6579,
      "gefällt": 6580,
      "Deswegen": 6581,
      "2008": 6582,
      "Links": 6583,
      "##uropä": 6584,
      "Webseite": 6585,
      "folgende": 6586,
      "gemeinsame": 6587,
      "Charles": 6588,
      "Mehrheit": 6589,
      "speziell": 6590,
      "gespielt": 6591,
      "Statistiken": 6592,
      "äußerst": 6593,
      "Stattdessen": 6594,
      "Sobald": 6595,
      "gegründet": 6596,
      "Et": 6597,
      "Tief": 6598,
      "Zerst": 6599,
      "kogn": 6600,
      "##hes": 6601,
      "##ähm": 6602,
      "##bchen": 6603,
      "verab": 6604,
      "Einsch": 6605,
      "##ingern": 6606,
      "gelebt": 6607,
      "Mengen": 6608,
      "##iveau": 6609,
      "kompliziert": 6610,
      "leichter": 6611,
      "positive": 6612,
      "überwinden": 6613,
      "Signale": 6614,
      "Erfindung": 6615,
      "##gruppen": 6616,
      "junger": 6617,
      "kreieren": 6618,
      "wirkliche": 6619,
      "kriegen": 6620,
      "Kontinent": 6621,
      "Francisco": 6622,
      "Allt": 6623,
      "Dimensionen": 6624,
      "GP": 6625,
      "Got": 6626,
      "Zent": 6627,
      "fil": 6628,
      "moment": 6629,
      "rote": 6630,
      "sichtbar": 6631,
      "##zesse": 6632,
      "##bi": 6633,
      "##iellen": 6634,
      "erz": 6635,
      "fürs": 6636,
      "ausgew": 6637,
      "ums": 6638,
      "##eilung": 6639,
      "Gesamt": 6640,
      "glaubte": 6641,
      "##okus": 6642,
      "brill": 6643,
      "Grundlage": 6644,
      "Weihn": 6645,
      "##haften": 6646,
      "##losigkeit": 6647,
      "Überrasch": 6648,
      "Momente": 6649,
      "##nose": 6650,
      "##ziehung": 6651,
      "veränderte": 6652,
      "Wirtschaftsw": 6653,
      "stattf": 6654,
      "##boden": 6655,
      "##sprozess": 6656,
      "Aktivitäten": 6657,
      "Erdbe": 6658,
      "moderne": 6659,
      "internationale": 6660,
      "##ffizienz": 6661,
      "Winter": 6662,
      "Kenia": 6663,
      "durchschnittliche": 6664,
      "Pakistan": 6665,
      "Bur": 6666,
      "Fast": 6667,
      "Kabel": 6668,
      "Mart": 6669,
      "Wann": 6670,
      "arab": 6671,
      "Ähn": 6672,
      "##ole": 6673,
      "##zz": 6674,
      "##hls": 6675,
      "##hängen": 6676,
      "##ps": 6677,
      "##chtet": 6678,
      "##ndung": 6679,
      "##igste": 6680,
      "versp": 6681,
      "manchen": 6682,
      "Star": 6683,
      "##ärm": 6684,
      "##lied": 6685,
      "##unktionen": 6686,
      "Blumen": 6687,
      "Nachhalt": 6688,
      "verwandelt": 6689,
      "heisst": 6690,
      "Gedächtnis": 6691,
      "großartigen": 6692,
      "drauf": 6693,
      "Programme": 6694,
      "##wärmung": 6695,
      "Skulpt": 6696,
      "Küste": 6697,
      "grundle": 6698,
      "##zwungen": 6699,
      "Billionen": 6700,
      "dahinter": 6701,
      "erhöhen": 6702,
      "Transport": 6703,
      "akzeptieren": 6704,
      "transport": 6705,
      "verblü": 6706,
      "NASA": 6707,
      "Bundes": 6708,
      "Gibt": 6709,
      "Gute": 6710,
      "Nase": 6711,
      "Wechsel": 6712,
      "fei": 6713,
      "froh": 6714,
      "##gas": 6715,
      "##nern": 6716,
      "##nglich": 6717,
      "##ühen": 6718,
      "##fig": 6719,
      "##kor": 6720,
      "##schriften": 6721,
      "intens": 6722,
      "dieselben": 6723,
      "soviel": 6724,
      "Schicks": 6725,
      "Inte": 6726,
      "Einstellung": 6727,
      "##adel": 6728,
      "zeigten": 6729,
      "##verhalten": 6730,
      "##echnet": 6731,
      "##underten": 6732,
      "##fahrer": 6733,
      "brit": 6734,
      "Steve": 6735,
      "heiß": 6736,
      "funktionierte": 6737,
      "menschliches": 6738,
      "Roh": 6739,
      "platz": 6740,
      "scheinbar": 6741,
      "Innovationen": 6742,
      "##ränkt": 6743,
      "Südafrika": 6744,
      "fasziniert": 6745,
      "Jahrzehnten": 6746,
      "Terrorismus": 6747,
      "Gemäl": 6748,
      "##zweif": 6749,
      "Ereignis": 6750,
      "Hunger": 6751,
      "gegenseitig": 6752,
      "Lektion": 6753,
      "Soll": 6754,
      "Zer": 6755,
      "wüs": 6756,
      "##ging": 6757,
      "##inf": 6758,
      "##unkten": 6759,
      "##berg": 6760,
      "verschl": 6761,
      "##ley": 6762,
      "angenommen": 6763,
      "##llektu": 6764,
      "Schritte": 6765,
      "##ruh": 6766,
      "weißen": 6767,
      "vieles": 6768,
      "##ried": 6769,
      "mögliche": 6770,
      "##ungssystem": 6771,
      "gewählt": 6772,
      "Gebiete": 6773,
      "Gegenwart": 6774,
      "Folie": 6775,
      "Gesichts": 6776,
      "Gesichter": 6777,
      "Fortschritte": 6778,
      "medizinischen": 6779,
      "staat": 6780,
      "Säuget": 6781,
      "Hotel": 6782,
      "Alex": 6783,
      "Damen": 6784,
      "Ehr": 6785,
      "Immer": 6786,
      "Laut": 6787,
      "Popul": 6788,
      "Top": 6789,
      "Welten": 6790,
      "log": 6791,
      "länd": 6792,
      "##frei": 6793,
      "##äden": 6794,
      "##kungen": 6795,
      "##bevölkerung": 6796,
      "##örm": 6797,
      "Uni": 6798,
      "Zeitung": 6799,
      "unteren": 6800,
      "realen": 6801,
      "##zipl": 6802,
      "arme": 6803,
      "##gesamt": 6804,
      "bestät": 6805,
      "Verbrechen": 6806,
      "unglaublichen": 6807,
      "Vorteile": 6808,
      "unbek": 6809,
      "##arbeitung": 6810,
      "Führer": 6811,
      "Sympt": 6812,
      "baute": 6813,
      "Geburtstag": 6814,
      "Achse": 6815,
      "erweitern": 6816,
      "jünger": 6817,
      "Dunkel": 6818,
      "Literatur": 6819,
      "Russland": 6820,
      "Chicago": 6821,
      "Jung": 6822,
      "Mult": 6823,
      "Tu": 6824,
      "gra": 6825,
      "lachen": 6826,
      "mark": 6827,
      "prim": 6828,
      "senden": 6829,
      "ökonom": 6830,
      "##mar": 6831,
      "##mechan": 6832,
      "##kal": 6833,
      "##krie": 6834,
      "##biert": 6835,
      "##stud": 6836,
      "##unternehmen": 6837,
      "##acher": 6838,
      "##urer": 6839,
      "Wirkung": 6840,
      "Inspir": 6841,
      "Verwend": 6842,
      "vorzu": 6843,
      "allgemein": 6844,
      "##abet": 6845,
      "konfront": 6846,
      "##ücken": 6847,
      "geschlossen": 6848,
      "besitzt": 6849,
      "Überzeug": 6850,
      "Darwin": 6851,
      "##linie": 6852,
      "jener": 6853,
      "Neurow": 6854,
      "Männchen": 6855,
      "Kirche": 6856,
      "Wettbewerb": 6857,
      "Metapher": 6858,
      "Gottes": 6859,
      "Eth": 6860,
      "Get": 6861,
      "Ohne": 6862,
      "SMS": 6863,
      "Tur": 6864,
      "Zunächst": 6865,
      "fährt": 6866,
      "gt": 6867,
      "heil": 6868,
      "tats": 6869,
      "##uhren": 6870,
      "##ahnen": 6871,
      "##put": 6872,
      "##inkt": 6873,
      "##gener": 6874,
      "bezeichnen": 6875,
      "überlegen": 6876,
      "##osh": 6877,
      "abgesch": 6878,
      "Sozi": 6879,
      "##gelegt": 6880,
      "Absicht": 6881,
      "bedeut": 6882,
      "gefallen": 6883,
      "extra": 6884,
      "besseres": 6885,
      "Phot": 6886,
      "Phase": 6887,
      "Informations": 6888,
      "falschen": 6889,
      "ansieht": 6890,
      "automatisch": 6891,
      "Molekül": 6892,
      "2010": 6893,
      "Michael": 6894,
      "zeichnen": 6895,
      "überraschend": 6896,
      "iPh": 6897,
      "Untersuchung": 6898,
      "Elefanten": 6899,
      "Jun": 6900,
      "Mr": 6901,
      "Völker": 6902,
      "kop": 6903,
      "lt": 6904,
      "leiten": 6905,
      "##nä": 6906,
      "##flekt": 6907,
      "##bür": 6908,
      "eingeb": 6909,
      "inform": 6910,
      "##red": 6911,
      "Stahl": 6912,
      "Schwer": 6913,
      "##reibe": 6914,
      "##spar": 6915,
      "dargestellt": 6916,
      "Unfall": 6917,
      "##anger": 6918,
      "##fliegen": 6919,
      "begrü": 6920,
      "Vorstellungen": 6921,
      "Blatt": 6922,
      "##ward": 6923,
      "Dazu": 6924,
      "Dafür": 6925,
      "194": 6926,
      "willst": 6927,
      "Wirtschafts": 6928,
      "anfing": 6929,
      "##rimin": 6930,
      "bekomme": 6931,
      "Trick": 6932,
      "grundsätzlich": 6933,
      "Kameras": 6934,
      "Prinzipien": 6935,
      "defin": 6936,
      "kostenlos": 6937,
      "behaupten": 6938,
      "Angeles": 6939,
      "Nigeria": 6940,
      "Emp": 6941,
      "Mio": 6942,
      "Such": 6943,
      "Wagen": 6944,
      "[\"": 6945,
      "leist": 6946,
      "moch": 6947,
      "##nütz": 6948,
      "##abe": 6949,
      "##fert": 6950,
      "##ison": 6951,
      "schne": 6952,
      "##andid": 6953,
      "##önt": 6954,
      "##etze": 6955,
      "beispielsweise": 6956,
      "durchführen": 6957,
      "Bevor": 6958,
      "##ney": 6959,
      "hinunter": 6960,
      "##räger": 6961,
      "Vorhers": 6962,
      "##äufer": 6963,
      "##gelassen": 6964,
      "Regierungs": 6965,
      "##reiche": 6966,
      "Mod": 6967,
      "gebraucht": 6968,
      "Gemeinschaften": 6969,
      "##gangs": 6970,
      "Musiker": 6971,
      "Grün": 6972,
      "##erkennung": 6973,
      "perfekte": 6974,
      "blaue": 6975,
      "Adam": 6976,
      "Sternen": 6977,
      "springen": 6978,
      "Löcher": 6979,
      "merken": 6980,
      "Mittag": 6981,
      "dauerte": 6982,
      "sowas": 6983,
      "aufgewachsen": 6984,
      "Aktion": 6985,
      "Cr": 6986,
      "Hunde": 6987,
      "Micro": 6988,
      "Okt": 6989,
      "Pen": 6990,
      "Tö": 6991,
      "fingen": 6992,
      "reisen": 6993,
      "trans": 6994,
      "##richtet": 6995,
      "##mensch": 6996,
      "##yd": 6997,
      "##ines": 6998,
      "zufrieden": 6999,
      "##amour": 7000,
      "überein": 7001,
      "Arz": 7002,
      "wofür": 7003,
      "Bevölker": 7004,
      "##üssen": 7005,
      "##bstoff": 7006,
      "Chancen": 7007,
      "Unterricht": 7008,
      "##probieren": 7009,
      "Musl": 7010,
      "Afrikas": 7011,
      "##iban": 7012,
      "Stücke": 7013,
      "beobachte": 7014,
      "führten": 7015,
      "##ysikal": 7016,
      "digitale": 7017,
      "Amazon": 7018,
      "Ast": 7019,
      "Dia": 7020,
      "Flie": 7021,
      "Meister": 7022,
      "Mama": 7023,
      "Sm": 7024,
      "Sel": 7025,
      "Tit": 7026,
      "drücken": 7027,
      "landen": 7028,
      "zü": 7029,
      "##ih": 7030,
      "##nitten": 7031,
      "##phen": 7032,
      "##stimmen": 7033,
      "beibringen": 7034,
      "##zepte": 7035,
      "berichten": 7036,
      "Unterhaltung": 7037,
      "bekannten": 7038,
      "##quelle": 7039,
      "dreh": 7040,
      "Bericht": 7041,
      "Schwe": 7042,
      "##dreht": 7043,
      "erwachsen": 7044,
      "Besuch": 7045,
      "Kapitel": 7046,
      "verschwunden": 7047,
      "Status": 7048,
      "Kanada": 7049,
      "bemerkenswer": 7050,
      "Aussage": 7051,
      "Armee": 7052,
      "Resultat": 7053,
      "Asien": 7054,
      "##antasie": 7055,
      "Teenager": 7056,
      "Präsentation": 7057,
      "Gal": 7058,
      "Koll": 7059,
      "Mangel": 7060,
      "Nutzung": 7061,
      "Ost": 7062,
      "Ohren": 7063,
      "Rett": 7064,
      "Voll": 7065,
      "europä": 7066,
      "ök": 7067,
      "##läss": 7068,
      "##bungen": 7069,
      "##telef": 7070,
      "##ores": 7071,
      "vertrauen": 7072,
      "Stan": 7073,
      "umher": 7074,
      "Annahme": 7075,
      "Spann": 7076,
      "zweimal": 7077,
      "Ausstellung": 7078,
      "besorgt": 7079,
      "##ics": 7080,
      "Computern": 7081,
      "verknü": 7082,
      "Darstellung": 7083,
      "starben": 7084,
      "gemeinsamen": 7085,
      "##ätzt": 7086,
      "##zeigen": 7087,
      "grünen": 7088,
      "bemerkte": 7089,
      "schwarzen": 7090,
      "Jahrzehnte": 7091,
      "lokale": 7092,
      "##jährigen": 7093,
      "trafen": 7094,
      "##bücher": 7095,
      "afrikanischen": 7096,
      "##schmutzung": 7097,
      "Epidemie": 7098,
      "Nachhaltigkeit": 7099,
      "Arab": 7100,
      "Center": 7101,
      "Noten": 7102,
      "Treib": 7103,
      "Ven": 7104,
      "achten": 7105,
      "mechan": 7106,
      "ult": 7107,
      "##pflanzen": 7108,
      "##punkte": 7109,
      "##kräfte": 7110,
      "##vis": 7111,
      "##wen": 7112,
      "##schiff": 7113,
      "untern": 7114,
      "##stechn": 7115,
      "übersch": 7116,
      "Schließlich": 7117,
      "Verstehen": 7118,
      "##menge": 7119,
      "städt": 7120,
      "Cha": 7121,
      "##lernen": 7122,
      "verstand": 7123,
      "irgendjemand": 7124,
      "expl": 7125,
      "unglück": 7126,
      "##holz": 7127,
      "Symm": 7128,
      "##mitteln": 7129,
      "Pflege": 7130,
      "physikal": 7131,
      "Magie": 7132,
      "organisieren": 7133,
      "sogenannte": 7134,
      "antwortete": 7135,
      "trinken": 7136,
      "vergröß": 7137,
      "genügend": 7138,
      "Aben": 7139,
      "Taschen": 7140,
      "baut": 7141,
      "he": 7142,
      "hielten": 7143,
      "wüten": 7144,
      "##täu": 7145,
      "##part": 7146,
      "##äum": 7147,
      "##bet": 7148,
      "##ymp": 7149,
      "einiges": 7150,
      "##dete": 7151,
      "erm": 7152,
      "##ilen": 7153,
      "Anstatt": 7154,
      "darstellt": 7155,
      "Weltkrieg": 7156,
      "##barer": 7157,
      "selbstverständlich": 7158,
      "verlang": 7159,
      "weiße": 7160,
      "Strand": 7161,
      "##ktivität": 7162,
      "solange": 7163,
      "Versuche": 7164,
      "##ibiot": 7165,
      "beeindru": 7166,
      "freien": 7167,
      "Krit": 7168,
      "komplexen": 7169,
      "biologische": 7170,
      "hörten": 7171,
      "speziellen": 7172,
      "##stoffen": 7173,
      "Faktor": 7174,
      "Märkte": 7175,
      "Widerstand": 7176,
      "super": 7177,
      "Wikip": 7178,
      "Vorstellungskraft": 7179,
      "Merkmal": 7180,
      "##azif": 7181,
      "geholfen": 7182,
      "27": 7183,
      "Ah": 7184,
      "Alt": 7185,
      "Py": 7186,
      "Seh": 7187,
      "Wegen": 7188,
      "günst": 7189,
      "Ära": 7190,
      "##iber": 7191,
      "##ndlich": 7192,
      "##eiben": 7193,
      "##iritu": 7194,
      "##arben": 7195,
      "##oret": 7196,
      "##gegangen": 7197,
      "erhe": 7198,
      "Schalt": 7199,
      "##zenz": 7200,
      "##echnen": 7201,
      "gener": 7202,
      "Rezept": 7203,
      "Regionen": 7204,
      "betroffen": 7205,
      "Handys": 7206,
      "Boston": 7207,
      "lebe": 7208,
      "2007": 7209,
      "Kredit": 7210,
      "sozial": 7211,
      "offenen": 7212,
      "Syn": 7213,
      "##ahnsinn": 7214,
      "Eigent": 7215,
      "Christ": 7216,
      "worauf": 7217,
      "Anders": 7218,
      "langsamer": 7219,
      "konzentriert": 7220,
      "Motiv": 7221,
      "dunkel": 7222,
      "##behör": 7223,
      "moralische": 7224,
      "Geräusche": 7225,
      "isol": 7226,
      "Ereignisse": 7227,
      "Klassenzimmer": 7228,
      "Räume": 7229,
      "Debatte": 7230,
      "stoppen": 7231,
      "Entfernung": 7232,
      "##leistungen": 7233,
      "Schweden": 7234,
      "Grippe": 7235,
      "Hunderte": 7236,
      "Samen": 7237,
      "dynam": 7238,
      "ew": 7239,
      "nannten": 7240,
      "to": 7241,
      "treiben": 7242,
      "wisst": 7243,
      "##tausende": 7244,
      "##rien": 7245,
      "##geln": 7246,
      "##preis": 7247,
      "##förm": 7248,
      "##karten": 7249,
      "##inhalb": 7250,
      "##onien": 7251,
      "##arr": 7252,
      "##emen": 7253,
      "##atastrop": 7254,
      "wirken": 7255,
      "anhand": 7256,
      "##bek": 7257,
      "##spiegel": 7258,
      "Argument": 7259,
      "woher": 7260,
      "Angeb": 7261,
      "Span": 7262,
      "##uliert": 7263,
      "enthalten": 7264,
      "unterrichten": 7265,
      "Geschenk": 7266,
      "herausf": 7267,
      "zusammenzu": 7268,
      "betreiben": 7269,
      "##zählen": 7270,
      "##leib": 7271,
      "##leistung": 7272,
      "Mont": 7273,
      "gebrochen": 7274,
      "Quellen": 7275,
      "Spielzeug": 7276,
      "verkauf": 7277,
      "Biom": 7278,
      "erkannt": 7279,
      "Paris": 7280,
      "teilweise": 7281,
      "Sonnenlicht": 7282,
      "##gehör": 7283,
      "versteckt": 7284,
      "Marketing": 7285,
      "##gedacht": 7286,
      "Chef": 7287,
      "beteiligt": 7288,
      "Bomben": 7289,
      "YouT": 7290,
      "tatsäch": 7291,
      "Beit": 7292,
      "Beute": 7293,
      "Hat": 7294,
      "Lad": 7295,
      "Mel": 7296,
      "fehlt": 7297,
      "merk": 7298,
      "ru": 7299,
      "wä": 7300,
      "##ias": 7301,
      "##ober": 7302,
      "##zin": 7303,
      "##wald": 7304,
      "verglichen": 7305,
      "voneinander": 7306,
      "angesch": 7307,
      "angem": 7308,
      "Schaden": 7309,
      "##rüstung": 7310,
      "nachts": 7311,
      "nachgedacht": 7312,
      "##etztlich": 7313,
      "##füllt": 7314,
      "##gesellschaft": 7315,
      "zusammenarbeiten": 7316,
      "##sterben": 7317,
      "Abfall": 7318,
      "Schlacht": 7319,
      "##ältigen": 7320,
      "Große": 7321,
      "alter": 7322,
      "Amerikan": 7323,
      "Antibiot": 7324,
      "##kehrt": 7325,
      "frem": 7326,
      "Freiwill": 7327,
      "##staat": 7328,
      "wertvoll": 7329,
      "Sonnensystem": 7330,
      "##iverse": 7331,
      "Ernährung": 7332,
      "Gemü": 7333,
      "Ingenieur": 7334,
      "##ynamik": 7335,
      "Frankreich": 7336,
      "##cyc": 7337,
      "Teufel": 7338,
      "Schicksal": 7339,
      "Wikipedia": 7340,
      "YouTube": 7341,
      "Ehem": 7342,
      "Futter": 7343,
      "Treffen": 7344,
      "hängen": 7345,
      "##standen": 7346,
      "wirkt": 7347,
      "##urce": 7348,
      "schreibt": 7349,
      "ausgesetzt": 7350,
      "Schicht": 7351,
      "einfaches": 7352,
      "hinauf": 7353,
      "Repu": 7354,
      "repar": 7355,
      "##egenheiten": 7356,
      "##okuss": 7357,
      "Kohl": 7358,
      "Extrem": 7359,
      "University": 7360,
      "##älter": 7361,
      "##icherheit": 7362,
      "1000": 7363,
      "##schneiden": 7364,
      "anget": 7365,
      "##linien": 7366,
      "##würd": 7367,
      "##athie": 7368,
      "##puls": 7369,
      "traurig": 7370,
      "begegnen": 7371,
      "Verbreitung": 7372,
      "##ollywood": 7373,
      "iPhone": 7374,
      "Chaos": 7375,
      "BIP": 7376,
      "Fokus": 7377,
      "Hal": 7378,
      "Mass": 7379,
      "Pra": 7380,
      "Simul": 7381,
      "Wär": 7382,
      "Witz": 7383,
      "enden": 7384,
      "heilen": 7385,
      "suchte": 7386,
      "##teils": 7387,
      "##tels": 7388,
      "derselben": 7389,
      "##lichkeiten": 7390,
      "umfassen": 7391,
      "Anführer": 7392,
      "##bringt": 7393,
      "reagiert": 7394,
      "##gebiet": 7395,
      "Aufnahmen": 7396,
      "letzter": 7397,
      "##scheinend": 7398,
      "##geschwindigkeit": 7399,
      "Sequenz": 7400,
      "Box": 7401,
      "Atlant": 7402,
      "##soft": 7403,
      "Darauf": 7404,
      "##ätzung": 7405,
      "forder": 7406,
      "Teams": 7407,
      "Ruhe": 7408,
      "Krankenh": 7409,
      "Rechts": 7410,
      "Wachstums": 7411,
      "##teln": 7412,
      "gekauft": 7413,
      "profession": 7414,
      "Krieges": 7415,
      "bewirken": 7416,
      "Persönlichkeit": 7417,
      "weshalb": 7418,
      "GPS": 7419,
      "grundlegend": 7420,
      "Acht": 7421,
      "Dad": 7422,
      "Machen": 7423,
      "Mamm": 7424,
      "Wä": 7425,
      "dick": 7426,
      "doppelt": 7427,
      "nett": 7428,
      "system": 7429,
      "##la": 7430,
      "##su": 7431,
      "##oberfläche": 7432,
      "##dienst": 7433,
      "##yr": 7434,
      "##onent": 7435,
      "##ittlich": 7436,
      "unmittel": 7437,
      "##see": 7438,
      "Verkauf": 7439,
      "##ience": 7440,
      "gehei": 7441,
      "Zeitraum": 7442,
      "##werken": 7443,
      "neugier": 7444,
      "glaubten": 7445,
      "Klar": 7446,
      "Kleidung": 7447,
      "bestand": 7448,
      "Teilnehmer": 7449,
      "betrieben": 7450,
      "bekannte": 7451,
      "irgendeine": 7452,
      "Pho": 7453,
      "insbesondere": 7454,
      "Kindes": 7455,
      "##hof": 7456,
      "##älte": 7457,
      "wenigstens": 7458,
      "verdient": 7459,
      "General": 7460,
      "produktiv": 7461,
      "anschaut": 7462,
      "weltweiten": 7463,
      "grosse": 7464,
      "Proteine": 7465,
      "veröffentlichen": 7466,
      "reduziert": 7467,
      "erhöht": 7468,
      "Potenzial": 7469,
      "Feind": 7470,
      "Depression": 7471,
      "vergangenen": 7472,
      "Bevölkerungs": 7473,
      "Dör": 7474,
      "Hinder": 7475,
      "com": 7476,
      "jahr": 7477,
      "lö": 7478,
      "mil": 7479,
      "risk": 7480,
      "##manden": 7481,
      "##fakt": 7482,
      "##its": 7483,
      "ergeben": 7484,
      "##igungs": 7485,
      "bezüglich": 7486,
      "##bekommen": 7487,
      "Stä": 7488,
      "##omas": 7489,
      "##hler": 7490,
      "genießen": 7491,
      "Fläche": 7492,
      "Flüss": 7493,
      "verstär": 7494,
      "besessen": 7495,
      "##stero": 7496,
      "gelang": 7497,
      "lebendig": 7498,
      "2005": 7499,
      "folgendes": 7500,
      "half": 7501,
      "##own": 7502,
      "Presse": 7503,
      "veröffentlich": 7504,
      "verursachen": 7505,
      "Street": 7506,
      "intellektu": 7507,
      "respekt": 7508,
      "Aspekte": 7509,
      "Cyber": 7510,
      "Abl": 7511,
      "Akte": 7512,
      "Dokument": 7513,
      "Kart": 7514,
      "kalt": 7515,
      "relev": 7516,
      "##ius": 7517,
      "##mat": 7518,
      "##di": 7519,
      "##kap": 7520,
      "##kultur": 7521,
      "##erte": 7522,
      "##unruh": 7523,
      "##auten": 7524,
      "verz": 7525,
      "beenden": 7526,
      "überqu": 7527,
      "Initi": 7528,
      "mehreren": 7529,
      "versorgen": 7530,
      "arm": 7531,
      "einzus": 7532,
      "Weis": 7533,
      "Level": 7534,
      "erneut": 7535,
      "organ": 7536,
      "gründen": 7537,
      "folgenden": 7538,
      "250": 7539,
      "schauten": 7540,
      "kontrolliert": 7541,
      "Hühn": 7542,
      "Kurve": 7543,
      "Mittler": 7544,
      "Instrumente": 7545,
      "##wahrscheinlich": 7546,
      "spüren": 7547,
      "Algorithmen": 7548,
      "Optim": 7549,
      "Flagge": 7550,
      "Konsequenzen": 7551,
      "Zerstörung": 7552,
      "momentan": 7553,
      "Gemälde": 7554,
      "32": 7555,
      "BG": 7556,
      "Camp": 7557,
      "Lam": 7558,
      "Sechs": 7559,
      "ad": 7560,
      "dienen": 7561,
      "hieß": 7562,
      "wechseln": 7563,
      "##uar": 7564,
      "##uck": 7565,
      "##nach": 7566,
      "##ünder": 7567,
      "##person": 7568,
      "##bie": 7569,
      "eingeladen": 7570,
      "##ony": 7571,
      "##onischen": 7572,
      "angen": 7573,
      "Verfahren": 7574,
      "##iene": 7575,
      "unterwegs": 7576,
      "##flu": 7577,
      "##izont": 7578,
      "Klav": 7579,
      "verliert": 7580,
      "Robert": 7581,
      "##fällt": 7582,
      "##küste": 7583,
      "##berflächen": 7584,
      "##getragen": 7585,
      "Island": 7586,
      "woran": 7587,
      "##züge": 7588,
      "Brow": 7589,
      "Alters": 7590,
      "Sichtweise": 7591,
      "hinzufügen": 7592,
      "##ördert": 7593,
      "Ingenieure": 7594,
      "Analyse": 7595,
      "Inseln": 7596,
      "ursprünglich": 7597,
      "##stausch": 7598,
      "Ägypten": 7599,
      "nervös": 7600,
      "Lebenserwart": 7601,
      "Erdbeben": 7602,
      "\"]": 7603,
      "Astero": 7604,
      "Dial": 7605,
      "Hir": 7606,
      "Sing": 7607,
      "dokument": 7608,
      "##lesen": 7609,
      "##ses": 7610,
      "##zten": 7611,
      "##ziel": 7612,
      "##ähn": 7613,
      "##kst": 7614,
      "##vin": 7615,
      "##inter": 7616,
      "##stö": 7617,
      "##ory": 7618,
      "##alent": 7619,
      "##isierte": 7620,
      "##rast": 7621,
      "Schok": 7622,
      "Verk": 7623,
      "Verlauf": 7624,
      "##obel": 7625,
      "##fläche": 7626,
      "wiederholen": 7627,
      "niemanden": 7628,
      "##yster": 7629,
      "Aufbau": 7630,
      "Flügel": 7631,
      "##sterblichkeit": 7632,
      "lebenden": 7633,
      "##mack": 7634,
      "bedeutete": 7635,
      "Metall": 7636,
      "angeht": 7637,
      "garant": 7638,
      "hinterlassen": 7639,
      "Gebäuden": 7640,
      "Decke": 7641,
      "Behand": 7642,
      "Pollen": 7643,
      "grüne": 7644,
      "hilf": 7645,
      "basierend": 7646,
      "##ussendlich": 7647,
      "Detail": 7648,
      "Erwachsene": 7649,
      "##winkel": 7650,
      "Entdeckungen": 7651,
      "Physiker": 7652,
      "Tiefe": 7653,
      "aufgeregt": 7654,
      "Erwartungen": 7655,
      "Inspiration": 7656,
      "Arzn": 7657,
      "700": 7658,
      "800": 7659,
      "Misch": 7660,
      "Prü": 7661,
      "Sagen": 7662,
      "Skelett": 7663,
      "deut": 7664,
      "fran": 7665,
      "trug": 7666,
      "wid": 7667,
      "Übr": 7668,
      "##pel": 7669,
      "ert": 7670,
      "##etik": 7671,
      "veran": 7672,
      "bezeichnet": 7673,
      "gebl": 7674,
      "Scham": 7675,
      "Erinnern": 7676,
      "Verm": 7677,
      "wovon": 7678,
      "Geschäfte": 7679,
      "##ektionen": 7680,
      "Reaktionen": 7681,
      "gerettet": 7682,
      "##same": 7683,
      "##atein": 7684,
      "dringen": 7685,
      "##iox": 7686,
      "Aller": 7687,
      "Darüber": 7688,
      "Zweifel": 7689,
      "Richtungen": 7690,
      "entscheidend": 7691,
      "##sproblem": 7692,
      "rechte": 7693,
      "deiner": 7694,
      "höhere": 7695,
      "Drucker": 7696,
      "Science": 7697,
      "Psychologie": 7698,
      "Faktoren": 7699,
      "Brustkrebs": 7700,
      "umzugehen": 7701,
      "##schläge": 7702,
      "Eisen": 7703,
      "zunehmend": 7704,
      "getrennt": 7705,
      "Bibliothek": 7706,
      "Juni": 7707,
      "Ban": 7708,
      "Don": 7709,
      "Guten": 7710,
      "Heutzutage": 7711,
      "Lar": 7712,
      "Laufen": 7713,
      "Leiter": 7714,
      "Ment": 7715,
      "Sä": 7716,
      "diag": 7717,
      "##umm": 7718,
      "##oß": 7719,
      "##zum": 7720,
      "##hör": 7721,
      "##handel": 7722,
      "##entwick": 7723,
      "##eide": 7724,
      "##anal": 7725,
      "##irbt": 7726,
      "##decken": 7727,
      "beunruh": 7728,
      "unsichtbar": 7729,
      "##ehrte": 7730,
      "Schreiben": 7731,
      "vorsichtig": 7732,
      "##örtlich": 7733,
      "##ots": 7734,
      "##ittelt": 7735,
      "##ndeten": 7736,
      "begreifen": 7737,
      "##aufnahme": 7738,
      "berück": 7739,
      "##haf": 7740,
      "Gebrauch": 7741,
      "Gericht": 7742,
      "2009": 7743,
      "##istent": 7744,
      "schwierige": 7745,
      "erfassen": 7746,
      "eingeführt": 7747,
      "elektrische": 7748,
      "irgendwel": 7749,
      "inspirieren": 7750,
      "Terroristen": 7751,
      "##abilität": 7752,
      "Chinesen": 7753,
      "dauern": 7754,
      "Mobiltelef": 7755,
      "eigentliche": 7756,
      "Trotzdem": 7757,
      "vorbereitet": 7758,
      "Plattform": 7759,
      "Überraschung": 7760,
      "Neurowissenschaft": 7761,
      "Abente": 7762,
      "65": 7763,
      "Fal": 7764,
      "Ganzen": 7765,
      "Mas": 7766,
      "Nähr": 7767,
      "Toten": 7768,
      "Trin": 7769,
      "evolution": 7770,
      "fokuss": 7771,
      "legt": 7772,
      "mikro": 7773,
      "seht": 7774,
      "sorg": 7775,
      "##tieren": 7776,
      "##rang": 7777,
      "##iat": 7778,
      "##oben": 7779,
      "##zir": 7780,
      "##park": 7781,
      "##vater": 7782,
      "##xu": 7783,
      "##xis": 7784,
      "zurecht": 7785,
      "##gekommen": 7786,
      "##gezogen": 7787,
      "anpassen": 7788,
      "mittels": 7789,
      "schmerz": 7790,
      "gezogen": 7791,
      "Stad": 7792,
      "Erste": 7793,
      "Anstieg": 7794,
      "Herstellung": 7795,
      "besuchte": 7796,
      "Autom": 7797,
      "Systems": 7798,
      "##ammlung": 7799,
      "Reisen": 7800,
      "Schuhe": 7801,
      "wunderbaren": 7802,
      "##zeichnungen": 7803,
      "Angriff": 7804,
      "Gegenden": 7805,
      "Theorien": 7806,
      "Yorker": 7807,
      "##rimine": 7808,
      "##züg": 7809,
      "deinem": 7810,
      "definiert": 7811,
      "Thomas": 7812,
      "Higgs": 7813,
      "spezielle": 7814,
      "##wissenschaften": 7815,
      "zufäll": 7816,
      "grundlegenden": 7817,
      "wünschte": 7818,
      "##technologie": 7819,
      "oberen": 7820,
      "Normalerweise": 7821,
      "Gemüse": 7822,
      "Fa": 7823,
      "Male": 7824,
      "Ros": 7825,
      "Wahlen": 7826,
      "cm": 7827,
      "jeg": 7828,
      "mon": 7829,
      "prü": 7830,
      "##ect": 7831,
      "##tä": 7832,
      "##tion": 7833,
      "##material": 7834,
      "##beln": 7835,
      "##agte": 7836,
      "ausgeben": 7837,
      "##ikations": 7838,
      "Schild": 7839,
      "##reift": 7840,
      "vorhin": 7841,
      "##ätte": 7842,
      "späten": 7843,
      "Sow": 7844,
      "Problems": 7845,
      "dreidimension": 7846,
      "##prozess": 7847,
      "##ruppen": 7848,
      "Berge": 7849,
      "##wirken": 7850,
      "##schnittlich": 7851,
      "naja": 7852,
      "beeindruck": 7853,
      "Behinder": 7854,
      "Eigenschaft": 7855,
      "##systeme": 7856,
      "ausser": 7857,
      "entfern": 7858,
      "##mitglie": 7859,
      "##stücke": 7860,
      "investiert": 7861,
      "##nügen": 7862,
      "Saal": 7863,
      "Denkweise": 7864,
      "Training": 7865,
      "Projekten": 7866,
      "Kapitalismus": 7867,
      "Bedrohung": 7868,
      "Dunkelheit": 7869,
      "Weisheit": 7870,
      "Bord": 7871,
      "Ghan": 7872,
      "Mor": 7873,
      "Niveau": 7874,
      "Serv": 7875,
      "Ve": 7876,
      "lehren": 7877,
      "mel": 7878,
      "rufen": 7879,
      "sens": 7880,
      "tanzen": 7881,
      "##lager": 7882,
      "##ete": 7883,
      "##dach": 7884,
      "##ller": 7885,
      "denselben": 7886,
      "##betes": 7887,
      "ausges": 7888,
      "##ienten": 7889,
      "machst": 7890,
      "##ops": 7891,
      "Aufl": 7892,
      "##ichtete": 7893,
      "Weibchen": 7894,
      "weißt": 7895,
      "##anzt": 7896,
      "bekämpfen": 7897,
      "schlug": 7898,
      "altern": 7899,
      "Afrikaner": 7900,
      "ernähren": 7901,
      "Anti": 7902,
      "Dipl": 7903,
      "Neugier": 7904,
      "Dame": 7905,
      "Ruf": 7906,
      "grossen": 7907,
      "Früher": 7908,
      "studiert": 7909,
      "Nachbarschaft": 7910,
      "Verteid": 7911,
      "atmen": 7912,
      "genetische": 7913,
      "Innerhalb": 7914,
      "Elektron": 7915,
      "Zähne": 7916,
      "Antibiotika": 7917,
      "Lebenserwartung": 7918,
      "Bibel": 7919,
      "Funktionen": 7920,
      "Humor": 7921,
      "Italien": 7922,
      "Läch": 7923,
      "Ritu": 7924,
      "chr": 7925,
      "neigen": 7926,
      "sä": 7927,
      "wa": 7928,
      "wär": 7929,
      "##takt": 7930,
      "##hel": 7931,
      "##hung": 7932,
      "##hängt": 7933,
      "##po": 7934,
      "##back": 7935,
      "##bilden": 7936,
      "##ichtum": 7937,
      "anhalten": 7938,
      "anzusehen": 7939,
      "##iens": 7940,
      "Proben": 7941,
      "##zuführen": 7942,
      "##ücke": 7943,
      "##gert": 7944,
      "Source": 7945,
      "liebte": 7946,
      "##verkehr": 7947,
      "zurückkehren": 7948,
      "Plötzlich": 7949,
      "Flor": 7950,
      "Block": 7951,
      "wahrnehmen": 7952,
      "interessanten": 7953,
      "Medium": 7954,
      "Systemen": 7955,
      "Schulter": 7956,
      "Obama": 7957,
      "Gesundheitssystem": 7958,
      "Entschuld": 7959,
      "starken": 7960,
      "Ursprung": 7961,
      "Fahrer": 7962,
      "Katze": 7963,
      "##ffizient": 7964,
      "fantastische": 7965,
      "bemerkenswert": 7966,
      "Konsum": 7967,
      "##produktion": 7968,
      "sogenannten": 7969,
      "Mitglieder": 7970,
      "chemische": 7971,
      "erfüllen": 7972,
      "Stiftung": 7973,
      "Änderungen": 7974,
      "kaufte": 7975,
      "verblüffen": 7976,
      "Diabetes": 7977,
      "franz": 7978,
      "Bang": 7979,
      "Immun": 7980,
      "Kuh": 7981,
      "Tin": 7982,
      "Tra": 7983,
      "Vi": 7984,
      "harte": 7985,
      "ment": 7986,
      "zählt": 7987,
      "##gänger": 7988,
      "##griffen": 7989,
      "##messer": 7990,
      "##viele": 7991,
      "##ire": 7992,
      "##aumen": 7993,
      "##elen": 7994,
      "##ions": 7995,
      "Schmerzen": 7996,
      "##zukommen": 7997,
      "beigebracht": 7998,
      "Weltbevölkerung": 7999,
      "##endes": 8000,
      "Konstru": 8001,
      "##äufe": 8002,
      "##ppich": 8003,
      "Wasserstoff": 8004,
      "Wissenschaftlern": 8005,
      "Reihen": 8006,
      "Hacker": 8007,
      "wundervoll": 8008,
      "##fordern": 8009,
      "planen": 8010,
      "verkü": 8011,
      "Glet": 8012,
      "blind": 8013,
      "dankbar": 8014,
      "Enkel": 8015,
      "erklärte": 8016,
      "Gespräche": 8017,
      "Sprung": 8018,
      "Inneren": 8019,
      "außergewöhnlich": 8020,
      "Schauspieler": 8021,
      "Privatsphäre": 8022,
      "Spektrum": 8023,
      "Schnee": 8024,
      "Hypoth": 8025,
      "Spezial": 8026,
      "Januar": 8027,
      "ländlichen": 8028,
      "Symptome": 8029,
      "Verwendung": 8030,
      "##öntgen": 8031,
      "Klavier": 8032,
      "französ": 8033,
      "26": 8034,
      "Kle": 8035,
      "Letzten": 8036,
      "Mad": 8037,
      "Richtige": 8038,
      "brechen": 8039,
      "pf": 8040,
      "##lim": 8041,
      "##iam": 8042,
      "##0er": 8043,
      "##inal": 8044,
      "##iness": 8045,
      "##stern": 8046,
      "##schicht": 8047,
      "##emin": 8048,
      "##üren": 8049,
      "##roht": 8050,
      "##sens": 8051,
      "##leicht": 8052,
      "##ratet": 8053,
      "schüt": 8054,
      "ausmachen": 8055,
      "vorn": 8056,
      "Einrichtungen": 8057,
      "Anruf": 8058,
      "##örtern": 8059,
      "##abor": 8060,
      "gesunden": 8061,
      "Orch": 8062,
      "Umständen": 8063,
      "besucht": 8064,
      "beschreibt": 8065,
      "Überwach": 8066,
      "##ischerweise": 8067,
      "Haw": 8068,
      "Großen": 8069,
      "schwere": 8070,
      "##konomen": 8071,
      "Designs": 8072,
      "Subst": 8073,
      "Hinblick": 8074,
      "erneuer": 8075,
      "Knie": 8076,
      "Partei": 8077,
      "worum": 8078,
      "##sprogramm": 8079,
      "technischen": 8080,
      "ernsthaft": 8081,
      "erforscht": 8082,
      "visuelle": 8083,
      "genetischen": 8084,
      "Schwarz": 8085,
      "kulturelle": 8086,
      "soweit": 8087,
      "Emissionen": 8088,
      "konsum": 8089,
      "Mosk": 8090,
      "##stuhl": 8091,
      "Sensoren": 8092,
      "Chirur": 8093,
      "36": 8094,
      "Cart": 8095,
      "Eur": 8096,
      "Mig": 8097,
      "Oberflächen": 8098,
      "Rö": 8099,
      "Röntgen": 8100,
      "Täu": 8101,
      "Vag": 8102,
      "fein": 8103,
      "hind": 8104,
      "koll": 8105,
      "äl": 8106,
      "##iop": 8107,
      "##kette": 8108,
      "##viert": 8109,
      "##brech": 8110,
      "##tex": 8111,
      "##atischen": 8112,
      "##ish": 8113,
      "anger": 8114,
      "anstelle": 8115,
      "schock": 8116,
      "ausw": 8117,
      "Verschw": 8118,
      "Verwand": 8119,
      "##ffekte": 8120,
      "##ota": 8121,
      "speich": 8122,
      "##ogramm": 8123,
      "##appt": 8124,
      "gewann": 8125,
      "Konz": 8126,
      "Kongo": 8127,
      "kommer": 8128,
      "gemessen": 8129,
      "berechnen": 8130,
      "##gespr": 8131,
      "##gefallen": 8132,
      "##ebel": 8133,
      "##gehensweise": 8134,
      "verschiedener": 8135,
      "##grenz": 8136,
      "Universitäten": 8137,
      "##fühlt": 8138,
      "beherr": 8139,
      "Haie": 8140,
      "##dringen": 8141,
      "Atomen": 8142,
      "Brun": 8143,
      "##enseits": 8144,
      "Neuigkeiten": 8145,
      "Gleichgewicht": 8146,
      "jenen": 8147,
      "biologischen": 8148,
      "Protein": 8149,
      "Serie": 8150,
      "##operation": 8151,
      "Szene": 8152,
      "Budget": 8153,
      "Feed": 8154,
      "Katastrophe": 8155,
      "Batterie": 8156,
      "exponent": 8157,
      "Wälder": 8158,
      "konfrontiert": 8159,
      "wütend": 8160,
      "Bier": 8161,
      "Euch": 8162,
      "Leid": 8163,
      "Sorge": 8164,
      "Wäre": 8165,
      "eth": 8166,
      "rob": 8167,
      "##groß": 8168,
      "##ban": 8169,
      "##erin": 8170,
      "##teste": 8171,
      "##irgend": 8172,
      "##llung": 8173,
      "##schten": 8174,
      "unvor": 8175,
      "##igungen": 8176,
      "##derm": 8177,
      "angehen": 8178,
      "mitnehmen": 8179,
      "gezwungen": 8180,
      "könne": 8181,
      "vielmehr": 8182,
      "zurückgehen": 8183,
      "zwe": 8184,
      "Techniken": 8185,
      "Autismus": 8186,
      "##geschlagen": 8187,
      "Haiti": 8188,
      "gestartet": 8189,
      "##alisierte": 8190,
      "Haushalt": 8191,
      "hoher": 8192,
      "Unternehmens": 8193,
      "ähnlichen": 8194,
      "glücklicher": 8195,
      "molekul": 8196,
      "120": 8197,
      "##gemacht": 8198,
      "##itiven": 8199,
      "berühren": 8200,
      "Gefangen": 8201,
      "dunklen": 8202,
      "kreativen": 8203,
      "##geheuer": 8204,
      "Investitionen": 8205,
      "höchsten": 8206,
      "seltsame": 8207,
      "Delf": 8208,
      "chinesische": 8209,
      "Alternative": 8210,
      "##melzen": 8211,
      "Zurück": 8212,
      "lächer": 8213,
      "ärm": 8214,
      "Vergnügen": 8215,
      "Prototypen": 8216,
      "Klinik": 8217,
      "Belohnung": 8218,
      "Komponenten": 8219,
      "Wirtschaftswachstum": 8220,
      "Microsoft": 8221,
      "Ghana": 8222,
      "%.": 8223,
      "28": 8224,
      "Ag": 8225,
      "DH": 8226,
      "Effizienz": 8227,
      "Fi": 8228,
      "Fer": 8229,
      "Grie": 8230,
      "hassen": 8231,
      "Ökonomen": 8232,
      "öfter": 8233,
      "##sun": 8234,
      "##kord": 8235,
      "##way": 8236,
      "##anlage": 8237,
      "##aucht": 8238,
      "verfolgt": 8239,
      "wieviel": 8240,
      "##raun": 8241,
      "manip": 8242,
      "Stick": 8243,
      "dazwischen": 8244,
      "##egel": 8245,
      "alltä": 8246,
      "stre": 8247,
      "Ausnahme": 8248,
      "gelassen": 8249,
      "##hai": 8250,
      "Abhäng": 8251,
      "Marke": 8252,
      "Metern": 8253,
      "Jack": 8254,
      "Mails": 8255,
      "besonderen": 8256,
      "Polio": 8257,
      "Küche": 8258,
      "lernten": 8259,
      "Medikamenten": 8260,
      "##würdig": 8261,
      "stärk": 8262,
      "vernünft": 8263,
      "winzig": 8264,
      "winzigen": 8265,
      "organisiert": 8266,
      "islam": 8267,
      "Kreislauf": 8268,
      "Strategien": 8269,
      "korre": 8270,
      "Mitglied": 8271,
      "Einfachheit": 8272,
      "##ridge": 8273,
      "sinnvoll": 8274,
      "regelmäßig": 8275,
      "identifizieren": 8276,
      "ruhig": 8277,
      "diagnost": 8278,
      "Hard": 8279,
      "Hitze": 8280,
      "Näch": 8281,
      "Nobel": 8282,
      "##sa": 8283,
      "##ipl": 8284,
      "##üter": 8285,
      "##pern": 8286,
      "##fassung": 8287,
      "##chtern": 8288,
      "##itiert": 8289,
      "##ürzen": 8290,
      "verkl": 8291,
      "verpf": 8292,
      "Schnell": 8293,
      "##ienste": 8294,
      "Prost": 8295,
      "Prozesse": 8296,
      "stimmen": 8297,
      "stirbt": 8298,
      "Spinnen": 8299,
      "saßen": 8300,
      "##fühlen": 8301,
      "Manh": 8302,
      "Vorgang": 8303,
      "wenden": 8304,
      "##gebiete": 8305,
      "Franz": 8306,
      "Blätter": 8307,
      "Impuls": 8308,
      "musikal": 8309,
      "Muskel": 8310,
      "Muskeln": 8311,
      "Schwestern": 8312,
      "Studio": 8313,
      "Glüh": 8314,
      "##twortet": 8315,
      "Knopf": 8316,
      "Fahrzeug": 8317,
      "##ivileg": 8318,
      "Verlangen": 8319,
      "##ränkungen": 8320,
      "##osexu": 8321,
      "höheren": 8322,
      "Mathematiker": 8323,
      "schaue": 8324,
      "jährige": 8325,
      "Würden": 8326,
      "erwähnen": 8327,
      "Transpar": 8328,
      "unerwar": 8329,
      "physische": 8330,
      "Peter": 8331,
      "##friedenheit": 8332,
      "Explos": 8333,
      "Figur": 8334,
      "kaputt": 8335,
      "langweilig": 8336,
      "Schokol": 8337,
      "hindurch": 8338,
      "Fundament": 8339,
      "Letz": 8340,
      "Ohr": 8341,
      "Trei": 8342,
      "Therap": 8343,
      "wem": 8344,
      "##ios": 8345,
      "##dliche": 8346,
      "##vir": 8347,
      "##brochen": 8348,
      "##station": 8349,
      "unsch": 8350,
      "universe": 8351,
      "##ight": 8352,
      "##eta": 8353,
      "vergleich": 8354,
      "übern": 8355,
      "stieg": 8356,
      "##ächer": 8357,
      "spiritu": 8358,
      "gesetzt": 8359,
      "##ologischer": 8360,
      "lieb": 8361,
      "Vorschlag": 8362,
      "keines": 8363,
      "Autob": 8364,
      "Marken": 8365,
      "Geruch": 8366,
      "Karik": 8367,
      "##zusp": 8368,
      "riesiges": 8369,
      "gründete": 8370,
      "jenem": 8371,
      "##afel": 8372,
      "##ianer": 8373,
      "elektrischen": 8374,
      "Konsumenten": 8375,
      "##jährige": 8376,
      "irgendeinem": 8377,
      "jüng": 8378,
      "wunderschöne": 8379,
      "mittleren": 8380,
      "Gipfel": 8381,
      "Konflikte": 8382,
      "Tragöd": 8383,
      "Philosophie": 8384,
      "Stanford": 8385,
      "Treibhaus": 8386,
      "angemessen": 8387,
      "Dadurch": 8388,
      "militär": 8389,
      "##ioxid": 8390,
      "95": 8391,
      "Bob": 8392,
      "Bran": 8393,
      "Benz": 8394,
      "Daumen": 8395,
      "Göt": 8396,
      "Ky": 8397,
      "Last": 8398,
      "Pazif": 8399,
      "Rel": 8400,
      "Sar": 8401,
      "Up": 8402,
      "Valle": 8403,
      "Wut": 8404,
      "bildet": 8405,
      "frustr": 8406,
      "häss": 8407,
      "human": 8408,
      "misst": 8409,
      "rom": 8410,
      "Älter": 8411,
      "##gut": 8412,
      "##digt": 8413,
      "##brü": 8414,
      "##AR": 8415,
      "##eier": 8416,
      "unternehmen": 8417,
      "##leger": 8418,
      "anscheinend": 8419,
      "gefl": 8420,
      "geeig": 8421,
      "##ikale": 8422,
      "##umpf": 8423,
      "Intu": 8424,
      "##riebs": 8425,
      "arch": 8426,
      "Aufstieg": 8427,
      "Flächen": 8428,
      "Flasche": 8429,
      "##ektes": 8430,
      "interpret": 8431,
      "##leiter": 8432,
      "benutze": 8433,
      "heiraten": 8434,
      "Woher": 8435,
      "geteilt": 8436,
      "insgesamt": 8437,
      "Rollen": 8438,
      "leer": 8439,
      "##hoben": 8440,
      "##alisierten": 8441,
      "##iums": 8442,
      "Leber": 8443,
      "frühe": 8444,
      "Sub": 8445,
      "Füße": 8446,
      "Höhlen": 8447,
      "politisch": 8448,
      "##ianischen": 8449,
      "##oppel": 8450,
      "qual": 8451,
      "Apple": 8452,
      "Tränen": 8453,
      "Diagnose": 8454,
      "Präsidenten": 8455,
      "moralischen": 8456,
      "##metho": 8457,
      "Liebling": 8458,
      "Bedürfnis": 8459,
      "Organe": 8460,
      "knapp": 8461,
      "ignorieren": 8462,
      "Nutzer": 8463,
      "Pferd": 8464,
      "infiziert": 8465,
      "Pinguine": 8466,
      "Ursache": 8467,
      "drehte": 8468,
      "AB": 8469,
      "Act": 8470,
      "Ev": 8471,
      "Ehre": 8472,
      "Nat": 8473,
      "Nest": 8474,
      "Tasche": 8475,
      "Therapie": 8476,
      "Wen": 8477,
      "Wass": 8478,
      "mobil": 8479,
      "rum": 8480,
      "vierte": 8481,
      "womit": 8482,
      "##gänge": 8483,
      "##hst": 8484,
      "invol": 8485,
      "##lichem": 8486,
      "verur": 8487,
      "gefr": 8488,
      "Stil": 8489,
      "##ätten": 8490,
      "##edy": 8491,
      "zwingen": 8492,
      "Nachfrage": 8493,
      "195": 8494,
      "##eitete": 8495,
      "Indem": 8496,
      "Indust": 8497,
      "##omputer": 8498,
      "##icherung": 8499,
      "##drehen": 8500,
      "##kohol": 8501,
      "Beton": 8502,
      "Kore": 8503,
      "Organismus": 8504,
      "fliegt": 8505,
      "##ässer": 8506,
      "kreative": 8507,
      "änderte": 8508,
      "##stoß": 8509,
      "mächtig": 8510,
      "mittlerweile": 8511,
      "Pflanze": 8512,
      "Jedenfalls": 8513,
      "neugierig": 8514,
      "Transparenz": 8515,
      "33": 8516,
      "Hon": 8517,
      "Hören": 8518,
      "Mak": 8519,
      "Pop": 8520,
      "Preise": 8521,
      "TV": 8522,
      "Zie": 8523,
      "welt": 8524,
      "##rel": 8525,
      "##gült": 8526,
      "##mod": 8527,
      "##funktion": 8528,
      "##kä": 8529,
      "##bein": 8530,
      "##wellen": 8531,
      "##IS": 8532,
      "##asern": 8533,
      "##orten": 8534,
      "##geord": 8535,
      "##ros": 8536,
      "sonder": 8537,
      "##annter": 8538,
      "geöff": 8539,
      "umso": 8540,
      "##ikationen": 8541,
      "Schon": 8542,
      "Anp": 8543,
      "Anstren": 8544,
      "stammen": 8545,
      "weibliche": 8546,
      "abgesehen": 8547,
      "##istin": 8548,
      "##geräte": 8549,
      "Konzentr": 8550,
      "##klasse": 8551,
      "##aku": 8552,
      "lebende": 8553,
      "gegenwärt": 8554,
      "##ständige": 8555,
      "wundervolle": 8556,
      "schwerer": 8557,
      "Bedarf": 8558,
      "Biologen": 8559,
      "Betrieb": 8560,
      "Party": 8561,
      "Gleichung": 8562,
      "Reserv": 8563,
      "Katzen": 8564,
      "##aven": 8565,
      "nebenbei": 8566,
      "Höhepunkt": 8567,
      "Anwendungen": 8568,
      "Kugel": 8569,
      "##fältig": 8570,
      "schickte": 8571,
      "analysieren": 8572,
      "Ungleichheit": 8573,
      "Dutzend": 8574,
      "Weihnacht": 8575,
      "explod": 8576,
      "Motivation": 8577,
      "reparieren": 8578,
      "Lächeln": 8579,
      "Carto": 8580,
      "kommerzie": 8581,
      "Big": 8582,
      "PM": 8583,
      "Ratten": 8584,
      "Sur": 8585,
      "Ug": 8586,
      "gift": 8587,
      "japan": 8588,
      "setzten": 8589,
      "##to": 8590,
      "##gin": 8591,
      "##fung": 8592,
      "##fischen": 8593,
      "##kopf": 8594,
      "##burg": 8595,
      "##wehr": 8596,
      "##jekten": 8597,
      "eingehen": 8598,
      "##anischen": 8599,
      "inzwischen": 8600,
      "##ürzt": 8601,
      "unsicht": 8602,
      "##stete": 8603,
      "##weils": 8604,
      "Anh": 8605,
      "beides": 8606,
      "durchschnittlich": 8607,
      "##hent": 8608,
      "Aug": 8609,
      "##fachen": 8610,
      "gesammelt": 8611,
      "##räum": 8612,
      "reflekt": 8613,
      "##aufgaben": 8614,
      "beseit": 8615,
      "Gebieten": 8616,
      "1950": 8617,
      "muslim": 8618,
      "indischen": 8619,
      "Mac": 8620,
      "Büchern": 8621,
      "##mögliche": 8622,
      "Süß": 8623,
      "Thun": 8624,
      "Bush": 8625,
      "echtes": 8626,
      "Chines": 8627,
      "gewöhnt": 8628,
      "Wichtigste": 8629,
      "emotionale": 8630,
      "##ortex": 8631,
      "privaten": 8632,
      "Mechanismus": 8633,
      "Toiletten": 8634,
      "leuchten": 8635,
      "spannend": 8636,
      "potent": 8637,
      "arabischen": 8638,
      "Übrigens": 8639,
      "romant": 8640,
      "Dist": 8641,
      "Fantasie": 8642,
      "Gramm": 8643,
      "Lass": 8644,
      "Meg": 8645,
      "Sektor": 8646,
      "dient": 8647,
      "mü": 8648,
      "rest": 8649,
      "richten": 8650,
      "“.": 8651,
      "##lösen": 8652,
      "##ahen": 8653,
      "##ammt": 8654,
      "##20": 8655,
      "##städ": 8656,
      "inklus": 8657,
      "##deckt": 8658,
      "##mmel": 8659,
      "verlei": 8660,
      "verließ": 8661,
      "##ismen": 8662,
      "aufrecht": 8663,
      "##bellen": 8664,
      "Vermögen": 8665,
      "Verteilung": 8666,
      "##raucher": 8667,
      "nachdenkt": 8668,
      "##icket": 8669,
      "jeweils": 8670,
      "##bran": 8671,
      "hingehen": 8672,
      "Kontroll": 8673,
      "wiederholt": 8674,
      "Ausrüstung": 8675,
      "beruh": 8676,
      "Umstände": 8677,
      "exakt": 8678,
      "##selbe": 8679,
      "##eichen": 8680,
      "kleinere": 8681,
      "Schweine": 8682,
      "Mannes": 8683,
      "sozialer": 8684,
      "offenbar": 8685,
      "##fällig": 8686,
      "Glücks": 8687,
      "fließt": 8688,
      "Life": 8689,
      "Erfolgs": 8690,
      "##staaten": 8691,
      "##ämpft": 8692,
      "empfinden": 8693,
      "Maßnahmen": 8694,
      "enormen": 8695,
      "traditionelle": 8696,
      "Schwarze": 8697,
      "positiven": 8698,
      "Szenar": 8699,
      "komplizierter": 8700,
      "Resultate": 8701,
      "eröffnet": 8702,
      "Logik": 8703,
      "benutzten": 8704,
      "beitragen": 8705,
      "Verbesserung": 8706,
      "Prior": 8707,
      "feiern": 8708,
      "##ziplin": 8709,
      "Dialog": 8710,
      "verpflich": 8711,
      "Valley": 8712,
      "Abt": 8713,
      "Jer": 8714,
      "PC": 8715,
      "Wände": 8716,
      "drück": 8717,
      "ehem": 8718,
      "flex": 8719,
      "heben": 8720,
      "ro": 8721,
      "simul": 8722,
      "##tn": 8723,
      "##dauer": 8724,
      "##fre": 8725,
      "##wa": 8726,
      "##wandeln": 8727,
      "##ches": 8728,
      "##testet": 8729,
      "##ichtung": 8730,
      "antworten": 8731,
      "##etzung": 8732,
      "Veranst": 8733,
      "Einheiten": 8734,
      "klu": 8735,
      "##ektar": 8736,
      "Wasch": 8737,
      "Vorder": 8738,
      "geraten": 8739,
      "verständ": 8740,
      "betr": 8741,
      "wahren": 8742,
      "Mount": 8743,
      "verlor": 8744,
      "Alkohol": 8745,
      "Entst": 8746,
      "Lebensraum": 8747,
      "Handeln": 8748,
      "Handlungen": 8749,
      "2004": 8750,
      "Versuchen": 8751,
      "Gedichte": 8752,
      "festgestellt": 8753,
      "Internets": 8754,
      "gemeinnütz": 8755,
      "Vorträge": 8756,
      "##design": 8757,
      "Kühl": 8758,
      "früheren": 8759,
      "nahezu": 8760,
      "aktuelle": 8761,
      "Dienstleistungen": 8762,
      "chinesischen": 8763,
      "Entwicklungsländer": 8764,
      "Schlagz": 8765,
      "abstra": 8766,
      "Cola": 8767,
      "Auftrag": 8768,
      "##archie": 8769,
      "Änderung": 8770,
      "Fremden": 8771,
      "Texas": 8772,
      "Staub": 8773,
      "Erkrankungen": 8774,
      "Raketen": 8775,
      "Wärme": 8776,
      "Av": 8777,
      "Egal": 8778,
      "Jähr": 8779,
      "Koch": 8780,
      "Künst": 8781,
      "Lesen": 8782,
      "Os": 8783,
      "fe": 8784,
      "kr": 8785,
      "kg": 8786,
      "letztlich": 8787,
      "sub": 8788,
      "wein": 8789,
      "##lament": 8790,
      "##ohlen": 8791,
      "##dy": 8792,
      "##ämen": 8793,
      "##äger": 8794,
      "##ichen": 8795,
      "##assten": 8796,
      "##ania": 8797,
      "##anlagen": 8798,
      "zuhören": 8799,
      "wirksam": 8800,
      "ungeheuer": 8801,
      "erlaub": 8802,
      "verarbeiten": 8803,
      "verzweif": 8804,
      "anbieten": 8805,
      "##zenten": 8806,
      "##reide": 8807,
      "vorgestellt": 8808,
      "Anweis": 8809,
      "geworfen": 8810,
      "Ausland": 8811,
      "##gebäu": 8812,
      "keinem": 8813,
      "Unterwasser": 8814,
      "einziges": 8815,
      "wahrhaft": 8816,
      "verletzt": 8817,
      "##eball": 8818,
      "##quellen": 8819,
      "2001": 8820,
      "befreien": 8821,
      "##itute": 8822,
      "##fäll": 8823,
      "innere": 8824,
      "erhielten": 8825,
      "Gebäudes": 8826,
      "Könnte": 8827,
      "Dritten": 8828,
      "trocken": 8829,
      "##thiop": 8830,
      "freiwill": 8831,
      "heutige": 8832,
      "Investition": 8833,
      "tauchen": 8834,
      "##ytoc": 8835,
      "höchste": 8836,
      "Erstaun": 8837,
      "Myth": 8838,
      "Haare": 8839,
      "Betracht": 8840,
      "Flederm": 8841,
      "begrenzt": 8842,
      "Astron": 8843,
      "stets": 8844,
      "Integr": 8845,
      "mochte": 8846,
      "Abenteuer": 8847,
      "Manhatt": 8848,
      "Adr": 8849,
      "Kok": 8850,
      "Kuchen": 8851,
      "Live": 8852,
      "MR": 8853,
      "Tum": 8854,
      "Zut": 8855,
      "danken": 8856,
      "fair": 8857,
      "san": 8858,
      "sym": 8859,
      "##leiten": 8860,
      "##eah": 8861,
      "##üd": 8862,
      "##ds": 8863,
      "##car": 8864,
      "##kö": 8865,
      "##waffen": 8866,
      "##eis": 8867,
      "##eigung": 8868,
      "gefahren": 8869,
      "getestet": 8870,
      "ausgehen": 8871,
      "Stich": 8872,
      "übersetzen": 8873,
      "Verzwei": 8874,
      "vorwärts": 8875,
      "##nthet": 8876,
      "Spe": 8877,
      "##änner": 8878,
      "Bek": 8879,
      "hinsichtlich": 8880,
      "##schieben": 8881,
      "liebt": 8882,
      "Konzepte": 8883,
      "##imb": 8884,
      "##meter": 8885,
      "Blase": 8886,
      "##utzer": 8887,
      "verbrei": 8888,
      "Kond": 8889,
      "Absch": 8890,
      "bedeckt": 8891,
      "193": 8892,
      "Meere": 8893,
      "##ogenese": 8894,
      "##ammeln": 8895,
      "2006": 8896,
      "Energieverbrauch": 8897,
      "Versorgung": 8898,
      "Jeff": 8899,
      "offene": 8900,
      "befassen": 8901,
      "anfängt": 8902,
      "##skraft": 8903,
      "weltweite": 8904,
      "Kapaz": 8905,
      "flog": 8906,
      "Europä": 8907,
      "Ebenen": 8908,
      "öffnet": 8909,
      "international": 8910,
      "jährlich": 8911,
      "verstecken": 8912,
      "legte": 8913,
      "Statistik": 8914,
      "Rückenmark": 8915,
      "William": 8916,
      "schlimmsten": 8917,
      "überlebt": 8918,
      "repräsentiert": 8919,
      "verliebt": 8920,
      "Sammlung": 8921,
      "diskutieren": 8922,
      "durfte": 8923,
      "Wurzeln": 8924,
      "leistungs": 8925,
      "Ehemann": 8926,
      "Feedback": 8927,
      "Griechen": 8928,
      "geöffnet": 8929,
      "Clo": 8930,
      "Hundert": 8931,
      "Kandid": 8932,
      "Lau": 8933,
      "Pin": 8934,
      "Waffe": 8935,
      "tät": 8936,
      "trat": 8937,
      "##lag": 8938,
      "##sitzen": 8939,
      "##ua": 8940,
      "##meid": 8941,
      "##politik": 8942,
      "##kol": 8943,
      "##komp": 8944,
      "##baut": 8945,
      "##wä": 8946,
      "##yth": 8947,
      "##steine": 8948,
      "##steht": 8949,
      "##ask": 8950,
      "##asien": 8951,
      "##eige": 8952,
      "##onym": 8953,
      "int": 8954,
      "##tere": 8955,
      "##ehnte": 8956,
      "verteilen": 8957,
      "aufeinander": 8958,
      "wartet": 8959,
      "schreibe": 8960,
      "ausmacht": 8961,
      "##steckt": 8962,
      "##spunkt": 8963,
      "##spanne": 8964,
      "##weist": 8965,
      "Anges": 8966,
      "##örte": 8967,
      "stat": 8968,
      "##änz": 8969,
      "##ulation": 8970,
      "Bewohner": 8971,
      "abgest": 8972,
      "füllen": 8973,
      "gelegen": 8974,
      "gelangt": 8975,
      "beträgt": 8976,
      "?\",": 8977,
      "Werden": 8978,
      "Überall": 8979,
      "Schwanz": 8980,
      "##otto": 8981,
      "ausgegeben": 8982,
      "Mikroskop": 8983,
      "##ropfen": 8984,
      "Belast": 8985,
      "verrückte": 8986,
      "Ernst": 8987,
      "Erfinder": 8988,
      "schreckliche": 8989,
      "Kämpf": 8990,
      "berühmt": 8991,
      "kreiert": 8992,
      "billig": 8993,
      "Entwurf": 8994,
      "##organisationen": 8995,
      "Ansichten": 8996,
      "install": 8997,
      "Lux": 8998,
      "Globalisierung": 8999,
      "##aktivität": 9000,
      "verringern": 9001,
      "Oxford": 9002,
      "Oxytoc": 9003,
      "Toilette": 9004,
      "Berechnungen": 9005,
      "Onkel": 9006,
      "##krankheiten": 9007,
      "Martin": 9008,
      "Muslime": 9009,
      "beeindruckend": 9010,
      "Gletscher": 9011,
      "Uganda": 9012,
      "Cal": 9013,
      "Etw": 9014,
      "Smit": 9015,
      "Tja": 9016,
      "freie": 9017,
      "hung": 9018,
      "lasse": 9019,
      "selbe": 9020,
      "zehnt": 9021,
      "##sätze": 9022,
      "##uell": 9023,
      "##za": 9024,
      "##pack": 9025,
      "##ku": 9026,
      "##krä": 9027,
      "##jet": 9028,
      "##iebt": 9029,
      "##ura": 9030,
      "##ürze": 9031,
      "##lechter": 9032,
      "##andem": 9033,
      "##befinden": 9034,
      "##bezogen": 9035,
      "ausdrücken": 9036,
      "Wird": 9037,
      "Verz": 9038,
      "stra": 9039,
      "##iller": 9040,
      "Spur": 9041,
      "gesunde": 9042,
      "##aps": 9043,
      "komm": 9044,
      "reicher": 9045,
      "Ausgaben": 9046,
      "Flu": 9047,
      "##gesp": 9048,
      "gelehrt": 9049,
      "##formation": 9050,
      "##anzig": 9051,
      "##gefä": 9052,
      "heim": 9053,
      "Tee": 9054,
      "Allgem": 9055,
      "##now": 9056,
      "befest": 9057,
      "Amerikas": 9058,
      "schöner": 9059,
      "##fällen": 9060,
      "Hinweise": 9061,
      "Flugzeuge": 9062,
      "Knoten": 9063,
      "Fahrzeuge": 9064,
      "Engagement": 9065,
      "verschwindet": 9066,
      "auszudrücken": 9067,
      "teilnehmen": 9068,
      "##itution": 9069,
      "Appl": 9070,
      "technische": 9071,
      "Grav": 9072,
      "Frühl": 9073,
      "ältere": 9074,
      "bedeutend": 9075,
[...]
